#version: 0.2
Ġ t
h e
Ġ a
i n
Ġt he
Ġ s
Ġ w
r e
Ġ o
n d
h a
e r
o u
Ġ b
Ġ m
e d
i t
i s
Ġ f
Ġ c
e n
Ġt o
o n
Ġa nd
Ġo f
in g
Ġ d
o r
Ġ p
l l
e s
Ġ h
Ġ he
a s
Ġ l
a r
Ġ in
a n
Ġ n
a t
Ġ ha
o m
Ġ g
Ġb e
ha t
l e
o t
u t
o w
Ġ e
i c
Ġ y
v e
i d
l d
Ġw as
l y
i m
Ġt h
s t
s e
g h
Ġt hat
en t
Ġ it
Ġy ou
Ġ I
Ġo n
Ġ re
c e
v er
e t
Ġ u
a y
i on
i r
a l
it h
Ġf or
Ġh is
Ġa s
Ġw h
Ġw ith
Ġs t
T he
gh t
Ġw e
u r
a d
Ġ r
Ġn ot
Ġ is
Ġha d
Ġhe r
a c
he r
o o
Ġa n
Ġs a
ou ld
Ġa t
t er
i ll
k e
i f
Ġs e
Ġh im
Ġm e
a m
a in
i ght
re d
. "
Ġs he
Ġf r
c h
' s
c t
Ġs u
r o
es s
Ġs o
i l
o re
Ġha ve
Ġ k
p p
om e
Ġm y
Ġsa id
Ġb ut
Ġd e
r i
a ll
, "
Ġa ll
Ġd o
ic h
u l
Ġu p
q u
Ġb y
Ġn e
Ġs h
a nd
g e
Ġc on
t h
Ġthe y
p e
Ġwh ich
H e
Ġfr om
Ġth is
i e
Ġwe re
Ġe x
u s
Ġw he
u st
b le
es t
Ġ S
Ġ M
ar d
an t
Ġon e
re s
n t
ver y
Ġo r
Ġ C
Ġf e
l f
ou s
ou r
Ġm an
Ġ "
at ion
Ġthe m
Ġ v
Ġk n
in d
oo d
Ġl i
ou t
Ġa l
Ġwh o
Ġin t
Ġn o
Ġa re
e m
Ġw ould
o s
r a
is t
er s
k ed
' t
ar t
as t
? "
Ġo ut
on g
ou nd
Ġ A
Ġthe re
o l
Ġa b
Ġw or
Ġw ill
on e
Ġ B
Ġl e
it t
Ġc om
a k
u n
ha n
Ġ j
Ġg o
at e
I t
u m
i g
Ġthe ir
ou gh
i ve
Ġbe en
e ll
p t
se lf
ow n
r y
v en
am e
Ġ P
he d
ac k
Ġp l
Ġc ould
Ġwhe n
re at
t her
B ut
a ke
Ġw hat
Ġ qu
a ce
or t
Ġc an
Ġyou r
Ġa g
o se
o st
id e
it y
u re
c k
e l
h ing
Ġ if
Ġp ro
Ġt im
a u
Ġan y
Ġs p
Ġ G
Ġa f
Ġb r
o d
a g
Ġt w
Ġint o
Ġt r
Ġa r
Ġm ore
Ġu n
Ġl oo
Ġ L
Ġp r
nd er
Ġs ome
a re
Ġd id
e p
o p
Ġ very
e ct
itt le
Ġkn ow
Ġ T
Ġa m
v ed
w ay
in k
it e
! "
Ġc l
ur n
Ġ D
ou ght
ot her
ic e
Ġli ke
Ġl ittle
Ġtim e
Ġu s
f ore
Ġab out
as s
Ġto o
Ġ H
Ġo ther
in e
a ble
p l
Ġs ha
en ce
e red
Ġr o
Ġg r
Ġse e
i es
Ġd is
A nd
Ġt han
Ġo ver
Ġd ay
ad e
Ġ im
Ġ en
Ġ E
o ve
Ġag ain
c c
Ġn ow
Ġha s
Ġc h
an ce
e ar
re e
Ġthe n
Ġ W
all y
is h
m ent
p er
Ġha nd
n g
o nd
Ġm r
at her
w n
S he
Ġb l
Ġ F
Ġ R
Ġsh ould
a b
Y ou
res s
c i
Ġa d
Ġg reat
ic k
Ġon ly
u d
Ġup on
Ġs ay
t y
Ġf l
f f
Ġd own
i re
a ge
ing s
ou nt
Ġm ust
i ed
u ch
Ġof f
Ġaf ter
Ġg ood
- -
Ġth ink
i le
Ġa pp
Ġbe fore
u ll
Ġtw o
Ġp o
v ing
Ġp er
o y
Ġm ade
if e
Ġo ur
a p
u e
Ġc ame
v es
Ġ J
Ġth r
Ġl ong
Ġp e
f ul
Ġh ow
Ġit s
Ġp re
ac t
w ard
Ġo ld
i ld
ri ed
Ġm uch
Ġb ack
i ous
Ġf ir
Ġst r
ion s
n e
er t
or d
Ġs m
T h
ar y
Ġne ver
o ll
t e
Ġw ay
Ġth ought
at ed
Ġre m
n ess
Ġu nder
Ġe very
l ed
Ġc ome
Ġe y
a ve
p s
Ġp art
Ġloo k
Ġsu ch
he n
ad y
Ġw ent
Ġbe c
Ġs pe
f t
Ġ N
Ġc ha
ac h
m e
Ġs c
The re
Ġcon t
e re
is e
Ġg l
Ġe ven
c l
Ġfir st
The y
n ing
Ġse em
Ġwhe re
Ġm ay
Ġhim self
Ġwe ll
Ġbe t
I n
o ld
Ġ '
W hat
Ġre s
Ġbe g
i ly
Ġo wn
is s
b er
Ġo b
an s
ar k
Ġj ust
Ġd es
Ġg et
Ġthe se
Ġm ight
os s
Ġl et
om et
ou se
in t
Ġa way
en ed
Ġhe re
The n
an g
Ġs l
Ġhe ad
Ġm ake
at er
Ġm en
. '
Ġf a
Ġt urn
Ġcom p
an c
e w
Ġ ke
e ver
W e
Ġthr ough
Ġd on
Ġin d
Ġim p
Ġey es
w e
Ġc r
Ġp ass
Ġbe l
Ġ O
at h
a red
Ġl ast
Ġsha ll
Ġ K
au se
if f
Ġo p
Ġcon s
i z
Ġl ife
i p
oo k
ig n
Ġwith out
Ġn ight
l ess
Ġt ell
Ġw ant
Ġc our
Ġc all
. .
he s
Th is
Ġm ost
Ġre t
Ġs omet
pe ct
Ġf ound
op le
Ġe ar
Ġa cc
Ġat t
Ġt ake
on s
Ġwor d
Ġst ill
Ġsa w
Ġ ent
Ġas ked
Ġw om
i x
i ble
Ġh ouse
Ġro om
Ġloo ked
ie nd
th ing
h y
Ġnot hing
' ll
Ġy ear
Ġr ight
l es
or y
Ġha r
Ġc ar
Ġfr iend
Ġl o
as e
Ġp ut
Ġwor k
Ġp res
Ġyou ng
Ġm or
ul t
Ġf ace
Ġpe ople
Ġw r
Ġth ose
Ġha pp
Ġtoo k
ak ing
Ġbe ing
Ġch ild
Ġpl ace
g g
al k
, '
in ce
Ġs er
g et
Ġman y
or s
I f
T hat
en s
s w
at ter
W hen
Ġon ce
om ent
N o
Ġm oment
m an
ot h
Ġth ree
Ġcom m
Ġan other
Ġsa me
ir l
it ion
Ġf ar
ow ed
pp ed
Ġhe art
c ess
t ed
Ġe ver
ent ly
Ġb o
Ġan sw
i v
n er
Ġf ather
m ed
i an
Ġe nd
ert ain
i gh
way s
u b
Ġd ist
Ġm ar
re n
Ġe m
Ġne w
a v
Ġle ft
Ġp le
o ck
Ġsu pp
Ġgo ing
Ġl ight
Ġl ove
a w
Ġm ind
Ġseem ed
is hed
od y
Ġa c
Ġs et
re w
Ġwh ile
Ġdo or
Y es
Ġf ind
Ġc ount
s o
Ġg ot
ow er
Ġth ing
Ġt e
Ġre p
i a
Ġw a
Ġth ings
u nd
d en
re t
Ġin st
Ġg irl
Ġto ld
l ing
Ġsomet hing
Ġse c
j ect
s s
Ġhe ard
l t
Ġal ways
Ġd iff
Ġf oll
a ir
ic t
Ġg ive
Ġc o
Ġre c
v ent
Ġso on
c hed
he re
Ġy et
Ġh ome
ow s
an k
Ġa ct
ain ed
Ġp ers
se l
c ed
Ġs at
Ġfe el
Ġar m
S o
Ġth ough
ation s
A s
Ġqu ite
g ed
Ġb oy
Ġfe ll
Ġp oss
O h
Ġwor ld
au ght
Ġret urn
t ing
Ġc han
Ġh o
Ġs w
Ġs ur
Ġhand s
m er
u ck
f or
Ġm other
ic al
i ver
Ġkn ew
A t
a ut
Ġd r
Ġw ind
p le
it her
ull y
Ġwom an
Ġbel ie
Ġn at
Ġk ind
Ġd one
ar s
Ġg i
W ell
i red
Ġsu b
Ġmr s
l and
oo l
Ġg u
a il
in ed
Ġcour se
Ġre st
Ġs ide
en er
n ot
ce pt
Ġbeg an
r u
t he
Ġh or
Ġst re
Ġu nt
it ed
Ġyear s
Ġre l
m ost
u al
Ġre pl
Ġagain st
Ġbec ause
Ġbet ter
f ect
o g
Ġhar d
Ġw ater
in ess
Ġe ach
Ġcha r
Ġdis c
ro ss
Ġc le
Ġfe w
Ġturn ed
Ġen ough
Ġv o
Ġ V
Ġc are
Ġs il
is ed
Ġex p
ou b
ĠC h
Ġor d
Ġc ried
Ġb re
Ġhe l
Ġde l
ĠS t
H ow
a le
Ġdo es
Ġw ar
Ġcon f
Ġre g
Ġne ar
Ġf our
Ġha lf
Ġse en
Ġas s
i er
' m
Ġc or
Ġc ertain
Ġg ave
Ġm in
Ġm o
x t
i b
get her
a id
r ow
Ġc he
ak en
Ġfe lt
Ġrepl ied
Ġh our
O n
at ch
Ġm atter
Ġke ep
Ġt re
Ġre f
i al
F or
Ġple as
Ġmy self
Ġ He
Ġmor ning
N ow
Ġal so
Ġwho le
ha ps
Ġsu re
Ġp ur
as ter
Ġo cc
en se
Ġcall ed
ot t
? '
Ġre ad
Ġad d
H is
os ed
Ġin ter
ent y
as on
Ġst ood
ul ar
Ġop en
Ġto ward
ow ing
o b
Ġc ur
we en
Ġm on
' ve
Ġin c
ut h
Ġc a
i et
Ġher self
ut e
Ġde ar
Ġpo int
Ġt er
Ġany thing
e en
at ing
ou d
Ġin s
er y
Ġhel p
e ed
Ġunder st
f ully
c es
Ġsm all
M y
k s
Ġh um
o ke
Ġd ra
ct ion
Ġl ar
sel ves
o c
Ġe l
Ġe ight
Ġme an
Ġbet ween
W hy
Ġb oth
Ġword s
Ġn ame
Ġvo ice
Ġs k
Ġ The
E R
ra ve
Ġal most
Ġunt il
Ġpo or
u nt
Ġbe aut
Ġn or
un g
Ġb est
Ġd ark
Ġf act
an ge
Ġs ent
p r
a z
Ġlook ing
Ġday s
ent s
Ġs le
Ġst e
Ġb us
n ed
, --
ĠM ar
u p
und red
Ġqu est
Ġs ix
o ot
Ġe ff
Ġf ore
Ġst and
on t
ir d
u res
m r
it s
Ġr ound
one y
Ġd re
Ġbr ought
Ġf am
Ġhe ar
T o
Ġw o
Ġe v
ĠG od
at es
ĠM iss
Ġcan not
d den
in s
Ġt alk
u red
Ġha ving
Ġh undred
am p
Ġne ed
Ġl au
Ġto gether
Ġk ing
Ġl ess
Ġne xt
Ġb u
Ġam ong
Ġb ro
Ġwh ite
Ġansw ered
Ġfe et
Ġp ower
Ġa w
ĠA nd
Ġg one
Ġm et
Ġr ather
Ġsu dden
Ġwh om
ate ly
ere st
Ġhow ever
Ġu se
Ġg ener
Ġpres ent
Ġc ol
A ll
Ġfor m
is ter
Ġa ir
N ot
Ġsu ff
Ġg ent
Ġv is
ress ed
Ġspe ak
Ġpers on
d u
Ġsu n
ain t
ac hed
Ġf ive
Ġl ay
al s
Ġbe h
Ġf ull
Ġh igh
Ġint erest
at t
Ġcont in
b ut
il ed
Ġbelie ve
Ġb ed
Ġad v
Ġ ide
p h
Ġt aken
nd ed
f ort
Ġho pe
ha r
Ġcount ry
er ing
Ġr un
us ed
Ġs im
Ġw ife
Ġd oub
Ġc ond
Ġl and
Ġlet ter
Ġst art
ie f
Ġs ou
Ġd et
Ġf all
Ġpl ay
Ġj o
Ġt ill
ce i
ĠE ng
Ġlar ge
Ġm oney
Ġs ince
ent ion
Ġser v
ain s
Ġd ire
ou n
m b
k en
Ġpass ed
Ġre al
Ġin f
Ġas k
ĠP r
Ġf ire
it ing
Ġbl ack
Ġex t
Ġgent le
W h
Ġwo nder
a im
Ġdiff ere
Ġtw enty
Ġf in
ie ld
ak es
is on
ur ing
Ġpr om
Ġ (
Ġ es
Ġal ong
Ġcl ose
s h
Ġs n
et s
Ġ U
! '
a pp
Ġde c
ab ly
Ġrem em
r ist
y ing
Ġchild ren
u ed
Ġw ish
b ody
Ġal one
D o
b e
en e
ve l
Ġbeh ind
Ġunderst and
ill ed
Ġd ro
f ter
n y
Ġs ound
Ġde ath
id ed
t on
id ent
l ic
Ġthem selves
Ġfe ar
Ġtr ue
as h
Ġde p
Ġo pp
e ared
Ġgr ound
Ġg re
Ġs ir
Ġin v
Ġother s
Ġex c
Ġex pl
ous and
Ġbr other
Ġun c
t en
Ġdoub t
Ġle ave
if ic
Ġb ook
ud e
Ġre ally
Ġth ousand
Ġad m
Ġre ason
Ġh old
ry ing
ac es
Ġstr ong
Ġquest ion
t o
Ġe as
ment s
if ul
or n
Ġex pect
ce ed
al ked
ver s
Ġde ad
Ġapp ear
Ġl aw
b ed
Ġind eed
' re
u ally
' d
Ġde ep
it ies
Ġsh ort
Ġp ol
Ġcom ing
ĠB r
Ġqu ick
Ġgi ven
Ġsec ond
Ġh ur
ove red
id es
Ġwh y
Ġt ri
Ġhor se
ĠT h
ang er
Ġcomp an
Ġm is
c y
O ne
Ġl ady
Ġob s
Ġb ody
Ġpr in
Ġs we
Ġs ing
Ġs ign
ĠS ir
Ġle ast
Ġh on
Ġper haps
h n
re ady
Ġe le
an e
em pt
Ġar ound
Ġc ase
Ġreturn ed
iz ed
l i
Ġs ort
Ġm il
ir c
- "
ac ed
Ġf ur
cei ved
Ġp ri
Ġel se
Ġf if
ant s
Ġar t
id er
ct or
Ġit self
aught er
H A
Ġus ed
ra ce
t hat
Ġb ur
Ġpro p
Ġof ten
os ition
pt ain
Ġfriend s
Ġw alk
Ġcle ar
Ġde f
Ġke pt
Ġw on
Ġab s
u ff
Ġne cess
o on
Ġhe ld
H E
er n
im es
Ġw ood
anc es
e e
o ver
Ġsp r
Ġal ready
Ġre d
m en
Ġt able
Ġeven ing
Ġaf f
l s
Ġp a
Ġli ve
Ġl ist
Ġle ar
Ġst ep
n ce
Ġdid n
Ġper fect
Ġ ill
T ER
e y
g er
i ence
Ġt en
Ġl ad
Ġl ost
Ġex cl
Ġb ar
ri e
Ġevery thing
Ġme et
Ġear th
on y
u ght
e c
Ġb ad
Ġst o
H er
Ġbec ame
Ġpre t
Ġse a
ou th
ĠA n
Ġfa ir
Ġr a
Ġgo ld
Ġwho se
Ġsle ep
k ing
Ġb es
Ġf oot
Ġc irc
Ġbr ing
Ġtim es
Ġs ight
A fter
Ġs on
Ġm ount
Ġsp ir
Ġbeaut iful
Ġnat ure
ĠA r
Ġposs ible
u g
Ġc ut
Ġb ig
Ġme ans
Ġord er
ĠK ing
for m
b r
te en
Ġansw er
L et
Ġob ject
Ġqu iet
Ġb it
Ġsur pr
ou ble
Ġobs er
Ġfor t
Ġapp ro
Ġre ady
p ed
W ith
Ġstr ange
Ġsudden ly
Ġp ast
ci ous
Ġle a
Ġc old
Ġfor g
Ġkn own
Ġth ir
Ġsay s
p ar
ious ly
Ġtoward s
um b
Ġm aster
Ġ ir
Ġbeg in
Ġm aking
Ġwith in
Ġsp oke
ag es
ĠF r
Ġbus iness
Ġm ist
ie w
ing ly
Ġp ie
Ġdiffere nt
c ri
Ġsu m
Ġr an
u c
Ġse ver
Ġgl ad
Ġ ed
Ġw all
et y
Ġst ra
Ġwind ow
Ġs ch
ne y
Ġe ither
Ġdo g
Ġfoll owed
Ġs y
Ġab ove
Ġh us
im e
Ġt ou
Ġide a
at s
t s
Ġac ross
Ġ Y
Ġa ble
Ġthere fore
Ġdiff ic
o or
Ġtr uth
e k
itt ing
Ġman ner
l ish
et h
i ent
air s
Ġto wn
Ġwom en
Ġcon st
at ive
ant ly
C HA
Ġre ached
aim ed
Ġst ay
Ġhum an
Ġp at
il ity
st er
Ġex per
Ġdre am
or m
Ġarm s
Ġbec ome
Ġlong er
Ġm id
P TER
Ġm er
Ġfam ily
CHA PTER
Ġde m
Ġf ine
He re
Ġexp ress
S t
u se
Ġw atch
Ġcomp le
ac ter
o v
Ġsever al
Ġsub ject
ut es
Ġop ened
Ġwant ed
Ġwhe ther
O f
Ġm us
is f
Ġl ow
ur d
itt ed
Ġde v
Ġsupp ose
I s
Ġro ad
Ġt ried
in es
Ġs it
Ġo ught
Ġar ri
Ġhapp y
Ġchar acter
Ġle ad
Ġth us
b it
Ġd ri
Ġpro per
Ġyour self
ut ion
ĠCh rist
Ġp ain
Ġpret ty
ub lic
Ġeff ect
Ġst ory
Ġle g
Ġt aking
Ġc ap
Ġcons ider
Ġha ir
Ġre qu
Ġmon th
e ad
Ġapp eared
b y
r om
Ġs or
Ġs ister
Ġp ar
Ġr ose
Ġsou l
b and
r act
ard s
Ġpart ic
Ġlau gh
al th
Ġey e
Ġres pect
Ġpro f
Ġdire ct
Ġes c
ow ers
le y
Ġdis app
er m
Ġso ft
Ġm ove
Ġremem ber
Ġan im
Ġfell ow
Ġposs ess
Ġbre ak
Ġd aughter
r ic
Ġsha d
Ġcontin ued
Ġnat ur
Ġw alked
Ġm ag
Ġf ree
ot e
Ġcon c
Ġb reat
Ġme re
ra id
ur ch
Ġc ross
Ġp al
D on
ci al
Ġhapp ened
Ġ ut
ha m
Ġc reat
Ġen g
Ġe qu
us h
us hed
Ġt em
Ġ .
en g
Ġsl ow
Ġso ld
Ġex cept
Ġt ra
ic es
Ġhus band
in ation
Ġsat isf
Ġsu s
um ber
Ġdra w
Ġcar ried
cc ess
Ġst ud
as k
Ġsa f
A n
em ent
Ġpur p
i ans
m s
as ed
Ġ est
Ġhe av
Ġde cl
a ven
Ġc ast
Ġe at
id ence
c ul
c hes
Ġbe ar
am es
w here
Ġexcl aimed
Ġm od
Ġc al
ot ion
ow d
Ġsh ow
Ġaf raid
Ġbl ood
Ġt ear
un e
Ġd uring
Ġfa v
Ġy es
w hat
Ġd in
Ġs qu
ĠL ord
Ġex ist
is ing
Ġsec ret
Ġocc as
nd ing
u gg
Ġfeel ing
th ough
Ġsch ool
a h
Ġf ight
ll ed
h il
Ġc ent
Ġdel ight
Ġfor ward
ri age
d le
Ġim ag
Ġw ild
Ġd est
i am
Ġent ered
il ing
Ġmin utes
Ġadd ed
Ġf ast
Ġh ung
s ide
us s
med i
Ġt ree
Ġs ens
ot s
Ġc ity
le ct
Ġdo ing
Ġc oll
Ġwor th
Ġr iver
a j
Ġsu ccess
Ġbr ight
Ġd anger
if t
Ġfr ont
Ġsay ing
r or
it ude
B y
ĠU n
W here
Ġacc ount
Ġpro du
Ġp ay
ar r
The se
Ġimp ort
ur y
ĠB l
Ġb ird
Ġv iew
Ġf ig
Ġthink ing
Ġf re
ag ed
Ġc re
s on
Ġsh ip
Ġan g
Ġs ense
Ġh ot
Ġg ard
Ġint ell
are t
Ġsc ar
g r
um p
Ġswe et
i ar
Ġcom fort
B e
Ġs ad
Ġsm ile
led ge
o pe
Ġd ress
Ġha st
Ġj ud
Ġcha ir
Ġreg ard
Ġre pe
Ġde al
Ġli ved
ĠA l
Ġcomm on
g in
Ġ ve
l er
Ġl ed
are nt
Ġtr ouble
Ġseem s
Wh o
Ġsto pped
Ġex am
Ġsomet imes
ĠB ut
ĠEng lish
Ġvis it
o int
Ġtr ans
Ġst ate
Ġhour s
t ered
Ġp ublic
g es
Ġse lf
y ou
ver n
Ġse ven
Ġan x
Ġro ck
d d
w h
Ġj oy
.. .
Ġpartic ular
Ġ Q
it ch
Ġgener al
Ġt ry
ĠI nd
Ġst ri
Ġaf fect
Ġacc om
Ġwh is
Ġspir it
a x
w ell
d ay
en ing
Ġcomm and
Ġqu ar
ru pt
Ġgentle man
C ome
ĠC l
Ġa p
Ġoff ic
Ġl ate
ĠC a
ic ked
Ġd rew
Ġp et
Ġpro v
Ġs al
Ġin qu
c ha
res h
Ġsil ence
on es
oo f
Ġim medi
Ġp en
Ġdes p
iz e
Ġp ict
at ure
ri ble
Ġm outh
p ly
Ġcl ot
Ġl ater
Ġac qu
Ġv ar
Ġg rew
m ing
Ġc ause
al ity
Ġeight een
A l
g hed
Ġnew s
Ġre ceived
Ġent ire
Ġjo hn
Ġgl ass
Ġw in
Ġquick ly
G ood
ter n
Ġchan ge
O N
Ġr id
Ġcertain ly
o red
ic ally
ĠI t
Ġsha r
mer ic
Ġc aught
Ġto r
Ġpart y
ous ly
Ġdis p
Ġt rave
Ġw at
im ent
Ġfur ther
Ġd ut
if ied
is m
Ġnear ly
he ad
Ġtre es
Ġpurp ose
e al
j oy
Ġcom es
Ġbl ue
Ġhard ly
in ct
Ġb ene
Ġstr uck
e x
S ome
o es
Ġstra ight
Ġb ott
ĠS p
Ġpr ot
Ġpr act
ĠT om
ward s
it er
pp er
P er
Ġl aid
pe nd
Ġc e
Ġto p
Ġha t
le t
Ġpr ison
Ġgr and
Ġnecess ary
st r
il t
ĠA meric
ĠG r
Ġgirl s
ĠEng land
u ct
Ġag o
Ġar r
ag er
Ġoccas ion
o e
Ġpro b
Ġf ield
ĠM ary
g aret
Ġpl ain
Ġgre en
Ġdo ctor
Ġf ing
ain ing
Ġv al
Ġli ving
Ġear ly
Ġatt empt
ĠL ady
re ad
Ġb ank
ĠN ew
Ġp ull
Ġstre ng
att le
Ġres ult
Ġn umber
Ġme m
Ġsu gg
Ġsugg est
Ġpo ck
Ġatt ention
ĠC ar
anc y
Ġchan ce
E very
Ġl ab
m p
Ġa ge
anc ed
Ġpleas ure
Ġc ry
Ġh ill
Ġlau ghed
Ġcirc um
Ġl ine
ar ch
m y
Ġpa per
Ġget ting
an y
er v
Ġen em
or k
ĠD e
ir t
am ed
Ġprin ci
Ġmil es
Ġstand ing
Ġv i
Ġfr ight
Ġsp o
Ġl eng
Ġdo ll
Ġpr ay
Ġthir ty
Ġs itting
ound ed
Ġheav y
Ġstart ed
I N
g ing
ce ll
Ġsu per
y ond
Ġm ad
Ġli ps
pp ing
Ġcon v
Ġdet erm
Ġfor th
Ġd iv
Ġacc ord
Ġm akes
Ġwe ek
Ġop in
Ġbe yond
o x
Ġne ither
ĠS c
Ġrem ained
Ġm ine
ar ing
ĠN or
j o
Ġf le
Ġp osition
Ġrem ark
Ġlo ved
a pe
ter s
Ġme ant
Ġres ol
e nd
Ġdin ner
i ves
Ġwa it
Ġboy s
te nd
i ps
in ary
Ġwr ong
Ġto ne
el s
Ġnatur al
Ġw is
Ġsl ight
Ġbo x
Ġleng th
Ġd ied
F rom
Ġcour t
in ing
Ġn one
ce ly
Ġfif ty
Ġpl an
u es
v al
Ġfor get
Ġstre et
i or
Ġd ie
Ġth ick
Ġse vent
Ġbu ild
sh ip
Ġtear s
ren ch
Ġset t
oss ible
ic ed
Ġslow ly
igh b
Ġt reat
Ġr u
Ġdr ink
Ġf ool
ad ed
am ent
Ġcom pl
Ġv ill
ive ly
Ġac cept
Ġso l
m a
Ġpe ace
Ġbes ide
Ġfor ce
Ġgard en
Ġcould n
Ġcon vers
Ġal though
i ke
Ġch ief
Ġr ich
m on
ic s
e an
Ġan n
Per haps
it ions
Ġsaf e
Ġne ighb
Ġex act
.. ..
Ġmor row
n a
Ġgo vern
ond on
Ġwa iting
Ġsh out
Ġstreng th
Ġf illed
ist s
Ġst one
ust om
Ġsee ing
Ġen c
Ġmo ved
h ow
Ġf ood
i us
Ġg rave
Ġeas y
Ġple ase
Ġp ap
ĠI n
Ġp ort
Ġg az
Ġgr ow
Ġen joy
Ġdist ance
Ġpl aced
Ġdiffic ult
Ġknow s
Ġthought s
Y our
us ion
Ġwar m
Ġdem and
ce ive
Ġfl oor
r s
Ġfoll owing
Ġob l
Ġpri v
Ġpie ce
ix ed
Ġcircum st
Ġth ird
ĠE d
Ġinf l
o om
Ġj our
ĠS he
Ġcr owd
Ġm iss
el ve
Ġfa ith
Ġcomple te
ac y
ĠL ondon
Ġbel ong
k es
Ġh op
Ġa uth
ĠI s
Ġcl ass
Ġc amp
Ġf at
Ġbo at
mr s
Ġbreat h
y l
ou red
Ġin n
Ġse nd
Ġpro ceed
h ood
i ers
ist ed
itt en
ĠPr ince
Ġknow ledge
a ld
Ġpr ince
og n
Ġbro ken
Ġm ill
Ġmonth s
Ġch urch
Ġimp ossible
Ġin cl
il s
Ġinc re
Ġf un
Ġimmedi ately
Ġfore st
Ġvi ol
b s
en ces
se qu
ci ally
Ġha ll
ĠW h
Ġl if
Ġh id
hy s
n oon
Ġd a
Ġexpect ed
e ks
ĠCa ptain
ĠW ill
Ġcor ner
Ġl im
Ġyou th
Ġfoll ow
Ġeff ort
Ġp ost
Ġn ine
Ġne ck
Ġe ager
Ġcont r
Ġsh ook
u it
ent ed
Ġtr ust
Ġocc ur
N ever
g y
Ġh ig
st on
Ġr ap
ĠC har
Ġb urn
at he
Ġdep art
Ġpre p
Ġmar ried
Ġappear ance
A h
ri es
re me
Ġsurpr ise
Ġst op
ac hing
Ġdes cri
Ġturn ing
i res
Ġtalk ing
Ġbegin ning
Ġm ed
Ġa v
Ġspr ing
D id
ol og
ect ion
ors es
Ġdre ad
Ġcompan y
Ġsil ent
one l
Ġdes ire
Ġarri ved
Ġm aid
Ġeas ily
Ġt rying
Ġth ou
e v
Ġrec ogn
pe red
Ġw ide
Ġafter noon
ĠF rench
ci ent
Ġfig ure
od e
Ġc overed
Ġocc up
Ġpock et
A R
p ic
Ġsa ve
Ġrem ain
ound s
Ġserv ice
Ġclot hes
Ġc ra
Ġexpress ion
Ġk iss
ĠC om
Ġout side
Ġtou ch
Ġopin ion
Ġsh owed
Ġh orses
as ure
e or
Ġus ual
rie f
T HE
u el
Ġgu ess
Ġwe ak
in c
Ġinst ead
Ġf ly
ĠH en
Ġw ished
Ġp ath
Ġbel ow
Ġsn ow
it ation
un ity
Ġauth or
en cy
Ġre v
Ġwhat ever
Ġbeaut y
Ġcl oud
Ġpal ace
Ġpres ence
Ġsk y
Ġs ac
or ies
Ġk illed
ĠC on
z e
ill y
Ġcar ry
Ġinst ant
i pped
id ly
Ġem b
Ġc ab
ve re
Ġter rible
Ġgu ard
c ome
Ġy ell
l ight
Ġbro ke
Ġt y
Ġm ention
Ġp un
Ġspe aking
c le
Ġhis t
Ġk ill
ĠH ar
ci ety
Ġsm iled
Ġmin ute
Ġb all
Ġth rew
b ert
Ġsh ut
ort ed
Ġfor ty
Ġmo on
Ġm ark
ĠMar garet
Ġu nd
Ġm ess
Ġhe aven
Ġst ick
ĠT HE
cl ock
Ġpleas ant
d om
Ġg un
Ġim m
Ġwr ite
Ġcl osed
Ġra ised
Ġsh ot
Ġsp ot
Ġchan ged
Ġp ale
Ġrep ly
Ġconvers ation
Ġperfect ly
Ġjour ney
Ġf resh
Ġlo c
Ġobl ig
Ġsim ple
Ġdire ction
Ġdut y
Ġpl aces
is es
Ġnot e
Ġtw elve
Ġrun ning
Ġdec ided
Ġh unt
Ġn in
Ġf ut
ĠP ar
ud d
Ġsor ry
Ġcons cious
Ġdro pped
Ġsing le
Ġscar cely
ĠB e
Ġp hys
Ġbe at
Ġrepe ated
J ust
z z
ĠH er
Ġca ptain
Ġc at
Ġcon cl
Ġcl im
Ġinfl u
Ġis n
Ġm urd
ect ed
Ġg all
Ġsu c
un k
Ġgi ving
f ast
E N
Ġstep s
i o
Ġbe ll
Ġwould n
id ently
um e
n o
Ġde g
ret ched
Ġesc ape
Ġs ick
Ġb ound
pl es
. --
E S
Ġc oun
ĠC ol
Ġpur s
Ġexper ience
ke y
Ġstre am
n ight
l en
Ġt all
ib ly
Ġwonder ful
Ġn ice
pe cially
ĠA d
ĠB ar
Ġpleas ed
ur s
w ise
Ġd en
Ġarm y
Ġl ie
ĠE m
Ġmar ry
Ġt ast
ul ty
Ġentire ly
ang u
A N
ĠPr in
m it
ol ute
Ġsim ply
Ġl oud
ĠJ ack
Ġbre ad
Ġsuff ic
Ġv ol
oll y
Ġte nder
Ġsuc ceed
an ch
Ġr ain
are r
Ġres p
Ġimport ant
n ers
Ġb ab
is hing
Ġe vent
te nded
id ge
Ġwr itten
n ow
Ġunderst ood
Ġwor se
Ġfor mer
Ġbr own
Ġprin cess
Ġfir m
V ery
o ved
Ġbook s
os p
iv id
as es
ash ion
Ġpol it
Ġang ry
Ġsh ore
Ġlear ned
as hed
Ġcond ition
Ġprob ably
Ġne g
Ġthan k
Ġear n
Ġsit u
m ber
ott en
it al
Ġpass ion
Ġev il
ro p
ide red
Ġpet er
Y et
g o
Ġso ciety
Ġoff ice
Ġdisc overed
Ġl ord
Ġhapp iness
vel op
Ġcreat ure
Ġl ying
Ġkn ight
Ġmere ly
Ġf ish
Ġt ired
in a
Ġgr ass
Ġstr ugg
Ġre ach
Ġse par
Ġmus ic
um ed
ĠG er
Ġent er
Ġleg s
os ing
Ġgo d
Ġbo ard
Ġlea ving
is c
Ġf aint
Ġc ou
Ġle an
aj or
A r
Ġb attle
Ġgreat er
Ġdecl ared
re l
Ġte a
Ġact ion
b ing
ro y
est s
Ġmount ain
H ave
Ġt ail
Ġw it
Ġv ict
Ġbec om
at ic
Ġut ter
A re
r ay
Ġc atch
Ġnot ice
ĠG re
m iss
it c
pl oy
Ġem pt
Ġl atter
iver s
Ġbit ter
ci ence
O R
Ġr ing
Ġall owed
Ġcon sequ
Ġobser ved
ĠPrin cess
g an
l or
er r
am b
Ġsa il
ar row
Ġshar p
E ven
e ch
Ġm ass
Ġes pecially
Ġcircumst ances
Ġc and
ish ment
ap ed
Ġletter s
W ill
Ġbott om
r on
u nder
Ġg ate
Ġsm o
Ġlad ies
Ġsp ite
Ġprom ise
Ġcon n
os es
ĠR ob
Ġwa ited
Ġopp ort
p et
ĠD ick
ĠJ o
Ġfut ure
u ous
ĠE l
ere nce
for med
Ġcal m
ent h
Ġsw ord
Ġir on
Ġsum mer
re st
re ct
Ġb orn
Ġf al
Ġch o
Ġdark ness
Ġfin ished
Ġtem per
Ġenem y
M ar
Ġc ost
ĠG eor
" '
L ook
Ġse at
-- --
Ġquiet ly
e nded
Ġa ston
Ġw ise
Ġem ploy
it ated
Ġf urn
ll ing
Ġl angu
ac ked
Ġrel ig
Ġpict ure
Ġh y
: --
Ġm ut
Ġp aid
Ġgl ance
Ġfam il
Ġdeterm ined
Ġg ro
Ġbe ast
Ġth y
ous es
Ġis land
Ġan t
Ġsp read
Ġob t
Ġext ra
G o
n s
Ġin form
Ġqu een
Ġpre vent
ur m
qu e
u ke
Ġli ves
Ġp op
Ġhe s
Ġatt ack
Ġbro ad
Ġo ri
Ġins ide
Ġwat ched
in y
Ġhe alth
Ġconf ess
er ve
Ġd ressed
Ġso le
Ġinter rupt
Ġha bit
Ġmar riage
Ġafter wards
Ġm otion
Ġf ixed
le ep
pt ion
Ġdel ic
Ġspo ken
Ġw and
Ġwas n
Ġexact ly
ar ily
le nd
Ġg ame
Ġcon ce
iet y
al ed
Ġmid dle
Ġwall s
Ġfl owers
Not hing
Ġvill age
a ul
o le
w o
ro du
Ġun less
Ġanim al
Ġse arch
I nd
Ġtr ain
Ġabs olute
w ith
Ġsurpr ised
g ar
or ough
Ġpr oud
Ġhar m
b ered
o ly
Ġro b
Ġbur st
Ġsa nd
Ġbreak fast
g u
Ġsh r
Ġforg otten
Ġtou ched
Ġsa ke
Ġag re
Ġwr ote
ru ct
Ġfort une
n es
Ġon es
Ġcons idered
Ġrep res
Ġlear n
Ġprof ess
Ġbene ath
act ion
Ġprom ised
Ġunc le
Ġori gin
ay s
Ġst ir
Ġimp ress
Ġap art
Ġf it
Ġst orm
oo se
Ġex cell
Ġcour age
Ġche er
Ġdiffic ulty
Ġsp lend
ĠAn ne
j ust
as p
Ġag ree
Ġpre v
ĠQ ue
Ġspe c
Ġpro s
Ġknow ing
Ġcare fully
Ġref lect
Ġanx ious
z en
re nt
Ġsome what
Ġext reme
Ġlea ves
Ġdraw ing
Ġfav or
Ġwhis pered
e er
se mb
Ġgreat est
Ġpe cul
Ġlook s
Ġintell ect
Ġhist ory
Ġ ign
i ently
Ġb ow
Ġst ro
Ġli ber
ĠO F
Ġcol our
er able
ar ked
Ġprep ared
Ġpecul iar
ac her
ĠM ad
Ġhapp en
Ġcond uct
Ġd ry
Ġha ng
anc ing
li ke
Ġp ress
Ġl ose
Ġg ra
ĠS ha
Ġtr oub
Ġ ver
Ġd are
ch ing
Ġlike ly
Th us
Ġserv ant
Ġcont ro
Ġke y
Ġfall en
d y
Ġm ater
Ġgo es
um ent
Ġspe ech
Ġintell ig
Ġaccord ing
Ġv an
Ġear s
On ly
Ġwalk ing
a ff
Ġd im
Ġhead s
Ġth in
Ġcar riage
Ġpers ons
Ġbelie ved
Ġfre qu
Ġoblig ed
Ġmag n
ĠL e
Ġsc ene
Ġhold ing
Ġc ott
Ġall ow
ĠM an
ĠP hil
) ,
C an
Ġremem bered
Ġinflu ence
er c
Ġsu it
Ġsh op
ĠP e
Ġco at
Ġcle an
Ġearn est
it ive
Ġshould ers
Ġsub st
Ġhur t
Ġm urm
Ġf ashion
Ġl uck
Ġshould er
Ġhon or
Ġfright ened
m n
Ġw ine
Ġl ower
Ġnot iced
ĠD o
Ġbl ind
Ġapp arent
Ġev idently
Ġgentle men
m ith
u ge
is ion
Ġde velop
ĠA ll
Ġst ar
oo p
and on
Ġpass ing
Ġfing ers
Ġlif ted
i k
Ġb ag
Ġed uc
ĠHen ry
Ġyell ow
est y
Ġfa il
Ġexist ence
Ġvar ious
g ress
i ant
Ġbl ess
Ġbird s
Ġgovern ment
Ġg en
Ġas leep
cha nt
in ite
os ity
Ġsur f
Ġh ost
Ġwe ather
Ġv ent
Ġdoes n
yl v
ĠQue en
i od
Ġb rave
Ġp ick
Ġspe ed
Ġwind ows
Ġsold iers
Ġdoll ars
N e
Ġp h
Ġfor med
Ġoff ered
Ġadm ir
Ġwin ter
he l
Ġour selves
Ġco ver
ĠSt ates
Ġca used
S omet
or th
Ġp ure
es sel
Ġconc er
is k
Ġed ge
Ġm ot
it ary
The ir
ill a
n own
Ġr ub
ous in
Ġthr own
e es
s ed
Ġc iv
Ġh ouses
Ġn arrow
ĠP ro
Ġempt y
at or
y n
ĠM r
Ġsp ent
Ġoff er
Ġdes ert
pect ed
Ġlove ly
Wh ile
c o
Ġfif teen
Ġlaugh ing
Ġd om
Ind eed
Ġv essel
Ġli ked
Ġway s
Ġopport unity
os ite
ĠH is
Ġtre mb
Ġm ir
Ġpre f
g ain
Ġv ain
Ġgr at
Ġstr anger
Ġca pt
Ġhur ried
Ġpie ces
r am
Ġ Then
Ġt alked
Ġc ustom
ac ing
Ġcompan ion
Ġsy mp
f ord
ĠS o
Ġatt ract
Ġser ious
Ġass ist
Ġquest ions
r al
Ġto ng
ĠL u
Ġgold en
Ġest ab
s he
Ġo per
Ġadv ant
ĠTh or
u ly
Ġfa ult
Ġsus pic
Ġc ook
et t
Ġsupp er
Ġshad ow
Ġf ancy
as c
Ġdra wn
Ġhon our
ation al
Ġlist ened
Ġcomm un
Ġsitu ation
h od
Ġproper ty
Ġdisapp oint
Ġpull ed
a f
all ey
Ġcom b
Ġsp ace
Ġsil ver
Ġbu ilt
Ġaccom pl
Ġb ent
Ġgr ou
Ġgr ad
ud ed
Ġfeel ings
Ġmatter s
Ġlist en
ĠD or
O ur
Ġst airs
Ġyour s
Ġrem arked
Ġpart s
Ġanim als
en ess
en ced
Ġsc re
M iss
Ġ Z
Ġf ond
Ġse ized
Ġper iod
Ġdist ur
Ġchar ge
to gether
Ġfav our
N D
Ġno ble
Ġcur ious
ĠY ork
Ġp ot
Ġst ore
Ġno ise
Ġmean ing
I S
d ing
Ġad vent
Ġdest roy
h ip
Ġw ond
Ġd ust
Ġr ate
Ġr ough
oun ced
Ġsatisf ied
Ġav o
itc hen
ĠC ount
Ġal together
Ġpro ved
Ġbl ow
ict ion
Ġopen ing
Ġserv ants
T ell
m in
Ġha ven
Ġg race
al es
Ġv irt
Ġsupp osed
How ever
Ġsk in
Ġperson al
Ġele ct
Ġpriv ate
! --
S uch
Ġb are
Ġth ro
Ġint rodu
Ġapp re
Ġdisapp eared
ĠGeor ge
ing u
Ġind ivid
oc ked
Ġf aces
Ġp ity
ill e
Ġord ered
Ġinn oc
O U
Ġm ach
Ġwe alth
ĠD av
Ġgr own
Ġpre c
Ġf ier
Ġem p
est ed
Ġal ar
Ġwatch ing
Ġaffect ion
Ġb od
Ġhands ome
Ġe gg
ab les
Ġtell ing
Ġdisc uss
ĠAmeric an
Ġsurf ace
T han
c he
Ġc up
Ġfor ced
Ġun f
Ġs ong
ad es
ĠP er
Ġgl oom
Ġwr iting
ail s
Ġgener ally
Ġstud y
Ġl ot
Ġth reat
Ġread ing
Ġbes ides
Ġmater ial
as hing
Ġgreat ly
Ġdiffere nce
Ġr ode
Ġopp osite
Ġc ow
ĠA t
Ġdes ce
Ġfal se
i pe
Ġthe e
Ġk itchen
Ġimp ro
Ġwe l
ep ing
Ġjud ge
Ġsa v
Ġar g
ĠR e
Ġpass age
Ġsur r
Ġaccom p
Ġmem ory
Ġfle w
Ġg ar
Ġho le
fort un
Ġmeet ing
Ġ ice
Ġs ides
Ġbe ha
oc r
Ġwe ar
Ġat tend
are st
Ġmo ving
it es
ter ing
us hing
Ġal ive
Ġwor ked
Ġpro cess
Ġbuild ing
om an
st em
Ġas ide
ter day
Ġfin ally
a ked
Ġwe eks
if y
Ġpo et
Ġspe cial
ons ie
Ġpa used
Ġsett led
Ġsac r
r id
Ġto w
Ġgr owing
ib ility
Ġexpl ained
Ġrev ol
ag ue
Ġdist inct
Ġpoint ed
Ġdog s
ĠWill iam
Ġhig her
Ġindivid ual
Ġme l
ch ief
athe red
w ood
Ġim per
Ġnor th
Ġmet hod
Ġt akes
ro ad
Ġmove ment
i pp
k nown
Ġp ack
un ch
Ġsc r
Ġfl o
Ġsuff er
Ġinterest ing
ot ed
Ġy e
Ġpr ide
Ġno se
Ġam ount
Ġsm iling
Ġcast le
ĠGer man
ic ated
Ġbre ast
er ved
Ġr ace
a ly
Ġ ess
Ġne arer
Ġun s
Ġc ool
Ġr oof
ĠT o
Ġciv il
b ur
k y
Ġp it
Ġhe ight
Ġcr uel
Ġwork ing
ĠDo ctor
c il
Ġb and
Ġun e
Ġconf idence
Ġpossess ion
Ġeng aged
Ġdesp air
Ġu r
There fore
Ġhon est
Ġdirect ly
Ġdemand ed
Ġf ol
Ġre ck
gg ed
R E
Ġm ain
ut ed
Ġsh oot
ag n
Ġh ide
Ġth orough
ĠB ell
Ġpro ve
ian a
Ġval ue
Ġtast e
Ġagre ed
W as
Ġan cient
Ġde pend
ĠM on
Ġdist ingu
Ġsure ly
Ġsor row
Ġbab y
A T
k er
Ġf ate
Ġl oss
i um
Ġre ceive
Ġpre par
Ġput ting
Ġimag ine
Ġshout ed
Ġwant s
Ġsy stem
On ce
Ġe ld
Ġst ation
Ġind e
r ance
ĠW e
Ġide as
Ġexc it
b ly
Ġhe at
ri but
Ġmoment s
iam ond
ĠQ u
re et
Ġd ue
Ġp or
il ar
Ġfa iled
ĠFr ance
Ġb ill
Ġre jo
Ġst ones
har d
Ġexpl ain
T ake
Ġadd ress
r ight
he st
ant ic
ener al
Ġoccur red
se t
Ġaw are
Ġplay ed
Ġdeg ree
Ġ id
Ġr ise
il es
the less
u zz
us es
Ġv ast
Ġstre ets
Ġdread ful
Ġp hil
Ġpl ant
Ġspe ct
c om
an n
Ġst uff
Ġno body
ĠSt ate
Ġdro p
a ving
c on
Ġa unt
Ġdo ors
ĠH ouse
ĠO ld
Ġpres ently
Ġbu y
Ġprodu ced
Ġfamil iar
Ġmount ains
Ġinqu ired
Ġsuggest ed
c ing
ag ged
Ġrec ord
Ġfre ed
ar a
id ing
ĠUn cle
Ġw ore
ll en
Ġst ock
Ġbus y
Ġsou th
Ġpap a
Ġlangu age
Ġp air
ĠA s
Ġsl a
Ġcle ver
Ġcol or
Ġno dd
Ġsha pe
Ġsee k
ĠJ im
Ġcha mber
p ter
im ate
ĠP h
Ġs in
Ġp icked
Ġbut ter
Ġsm oke
Ġsupp ort
Ġwe ight
Ġtw ice
att ered
Ġaff airs
Ġneighb our
Ġinform ation
Ġinterrupt ed
Ġign or
en n
Ġp ra
am s
Ġevery body
ĠO r
Ġlaw s
Ġobser v
Ġarr ange
Ġsucceed ed
Ġsymp ath
L L
S ir
ul ous
th ur
Ġgr ay
Ġter r
Ġter ror
t here
er red
Ġst at
Ġus ually
per or
hen s
cept ion
ĠChrist ian
Ġlab or
Ġsuffic ient
a it
Ġr ail
ĠE ur
ĠJ ul
Ġser ve
Ġm ort
ĠG u
Ġimp at
less ly
Ġdri ve
Ġequ al
er gy
Ġdro ve
Ġyes terday
Ġtong ue
Ġexcit ement
l in
Ġa ut
ha pp
Ġb ask
es ides
ay ed
am ma
Ġfl at
Ġquar ter
e av
Ġr ising
ro om
ul s
Ġte eth
Ġbrother s
Ġwood s
Ġaff air
Ġsoft ly
Ġoffic er
Ġd am
Ġso cial
ul ation
ĠS e
I T
O r
Ġf ully
Ġfind ing
Ġkeep ing
Ġprison er
ĠJo hn
ir st
Ġthr ow
Ġsw ift
Ġord ers
over n
Ġpossess ed
h old
Ġg athered
os op
ĠJ ane
ign ed
Ġexcell ent
c her
c han
o ard
Ġr ul
Ġord inary
ha nt
Ġacc ident
Be fore
am ing
ri g
ĠM aster
ĠCh urch
Ġref used
Ġfall ing
Ġcompan ions
Ġsold ier
Ġb ull
Ġl od
Ġg ently
ra p
Ġcr own
Ġinter v
Ġp ounds
as ped
ill ing
ab el
Ġl ines
Ġinst antly
ru ction
Ġsix ty
Ġspr ang
Ġse ason
Ġex erc
Ġreg ular
Ġev idence
Ġexc ited
Ġspir its
Ġa ud
en ance
Ġp ill
Ġha te
ĠM or
ard on
ig hed
ack s
ĠL ou
Ġunder t
St ill
onsie ur
l ished
Ġb old
Ġf art
Ġex ec
Ġli es
ĠT r
Ġcl aim
ĠEur ope
Ġse ated
Ġlead ing
Ġhill s
Ġ They
ll y
Ġin j
Ġfar m
Ġend eav
wh ile
Ġcontr ary
s y
Ġd ull
Ġp owers
Ġco ff
Ġter ms
ls ie
Ġce ased
ylv ia
in al
ust ed
Ġob ey
Ġroom s
Ġcar rying
Ġdisc over
Ġresol ved
k ins
ro se
Ġdist ant
Ġmil k
ĠPar is
p ir
he t
Ġc ousin
le x
age ment
Ġappro ached
Ġadvant age
k in
Ġy ield
ĠT hat
ec ause
Ġrequ ired
Ġp os
Ġl iter
Ġn amed
Ġv alley
ĠP et
Ġform s
Ġsqu are
Ġty pe
Ġb le
Ġp arent
Ġjo ined
Ġmention ed
A m
Ġt ask
us ing
Ġlo g
ock s
Ġgi ves
Ġnecess ity
Ġcross ed
A b
Ġre ve
Ġr ushed
Ġapp oint
Ġinst ance
Ġmist ress
Ġoffic ers
Ġrap idly
Ġsplend id
Ġs ought
Ġw icked
Ġd ign
et te
ac les
Ġrep ort
Ġfing er
f ather
ve y
ir th
Ġany body
Ġcur i
Ġpresent ed
Ġcond itions
d er
r ing
Ġsa int
ĠP l
Ġliber ty
ent al
Ġr om
Ġsh own
um ped
Ġreg ret
Ġste pped
Ġsuff ering
r ation
ĠM il
Ġper form
Ġinterest ed
ĠInd ians
Ġacqu aint
Ġnin et
L ike
Ġn erv
ĠG race
ang ers
Ġart ic
IN G
Ġcontro l
Ġd ance
Ġro y
Ġjust ice
Ġadv anced
Ġparticular ly
Ġauthor ity
Ġsole mn
Q u
m ond
u pp
Ġd well
Ġfr uit
Ġmy ster
ist ic
Ġking dom
Ġpri est
Ġpap ers
S ee
Ġl a
Ġde b
ĠP res
ang ed
Ġmag ic
Ġshe ll
ro g
ĠG eneral
Ġun happ
ĠR ed
Ġexam ple
ac le
Ġint ended
Ġun w
Ġsha me
Ġsim ilar
Ġdelight ed
Than k
or a
Ġr ide
ĠS und
Ġor gan
Ġdis g
Th ose
Ġhor ror
Ġsle pt
Ġaw ful
ĠAn n
Ġcab in
m itted
Ġkn ife
ĠG overn
Ġpers u
Ġconsider able
Ġworth y
Ġfool ish
Ġb ore
as m
Ġsh ining
Ġdis m
Ġent ertain
ertain ly
ĠBr it
Ġmist ake
Ġo w
Ġr are
Ġexpl an
Ġconst it
eal ous
Ġextra ord
o f
ĠS outh
ĠL a
Ġforg ot
ĠInd ian
Ġcomplete ly
Ġfart her
m as
o ff
r is
Ġ You
Ġc ases
Ġu pper
ac ious
Ġpro gress
me nd
Ġneed ed
mb ers
Ġgre y
Ġcou ple
Ġt ight
Ġd ouble
ĠF l
ĠAr thur
aj esty
Ġprinci ple
Ġphil osop
M any
Ġt est
Ġkn ees
Ġam az
Ġpict ures
Ġsevent een
ur se
Ġinst inct
Ġcur t
Ġmess age
Ġcuri osity
t w
Ġt empt
Ġh uge
as ant
st airs
Ġpr oof
Ġam b
Ġsatisf action
W ould
Ġa head
re g
Ġy ard
ver t
Ġcall ing
iv al
ĠV al
Ġadv ice
Ġhid den
Ġwit ness
Ġroy al
it able
Ġp ushed
ĠA m
Ġdes ired
ĠK at
Ġsoon er
Ġvo ices
Ġele ven
ĠChar les
B esides
h ost
u ce
ĠG ree
Ġper ceived
so ci
Ġpower ful
Ġclose ly
Ġdanger ous
ĠAmeric a
Ġoccup ied
A ny
y er
Ġ ...
Ġc red
Ġan ger
Ġaff ord
Ġabsolute ly
B ecause
T wo
m ore
Ġm at
ed s
Ġun known
Ġnews p
u x
ar ling
Ġin vent
Ġdo zen
ĠA ND
ĠP aul
Ġgr ant
Ġcare ful
Ġpoint s
Ġclear ly
Ġnatur ally
h ib
im ents
ad ing
ag on
Ġsuff ered
Ġphys ical
E x
P oor
Ġ There
Ġb rief
Ġinter p
Ġhung ry
" --
o is
z y
Ġg le
nt on
Ġmor al
aw s
Ġste ad
Ġask ing
Ġrock s
Ġenc our
Ġevent s
U n
Ġb an
en c
Ġg rief
ain ted
Ġwor st
Ġpl enty
Ġqu eer
ort ion
Ġsha re
Ġthr ust
Ġcont ent
Ġposs ibly
Ġexp ressed
Ġhelp ed
Ġhear ing
Ġinqu ir
i est
us i
Ġres ist
Ġact ually
Ġcor rect
ific ation
Ġregard ed
Ġrepres ent
Ġev ident
t ure
Ġin ha
Ġfor b
res p
Ġwill ing
Ġbeg un
Ġcr ime
Ġem otion
Ġrel ief
Ġfield s
Ar t
Ġwond ered
R e
S h
Ġd ying
ĠS am
Ġfl ower
Ġpol ice
Ġfort un
es e
Ġbr ill
Ġob st
Ġche st
Ġbask et
L E
Ġb or
Ġp an
Ġst ars
Ġr ank
Ġan ge
Ġsa ved
Ġcon qu
ĠW est
Ġplay ing
N or
Ġg ather
Ġdes per
Ġte le
Ġfell ows
Ġhur ry
Ġcomfort able
Ġapparent ly
Ġgrou p
c ked
Ġst ern
Ġme asure
Ġother wise
Ġent h
Ġesc aped
ĠCol onel
Ġn ames
Ġst age
ul f
Ġcount enance
Ġkind ness
Ġsal t
Ġremark able
Ġincre ased
G od
U p
Ġmy st
Ġsh ips
ous ed
ra ph
Ġab andon
Ġmight y
Ġaccept ed
Ġnodd ed
Ġc rying
ing ing
st and
se c
Ġde ck
Ġfl ight
Ġheart s
Ġeager ly
miss ion
Ġo dd
es h
Ġst ared
Ġv ig
Ġfight ing
Ġw ed
oo ps
Ġshe ep
ĠW il
ĠO l
I ON
Ġt aught
Ġm ile
Ġinst r
Ġproceed ed
i ber
Ġt ur
Ġs our
Ġf old
Ġh ol
ak er
Ġlight ed
Ġeduc ation
p or
Ġl ake
Ġst up
Ġcr it
Ġimport ance
ĠNor th
Ġcott age
Ġwork s
Ġrec oll
Ġextraord inary
Ġenth usi
H ad
Ġw id
Ġb irth
Ġfe at
ĠA unt
Ġdis s
ons cious
Ġdep th
Ġinv ol
Ġkiss ed
Ġbod ies
Ġwel come
Ġfreed om
ĠSund ay
M ay
er ous
Ġme at
Ġfour th
Ġfact s
Ġuse ful
Ġaccomp an
i ance
Ġb ra
Ġtr ick
Ġco ast
Ġunc om
Ġpolit ical
i ally
Ġh osp
Ġat e
um ents
Ġbr ain
Ġdis pl
the y
Ġsuper ior
Ġhop ed
Ġf an
Ġc art
Ġp ressed
ir ty
ci p
Ġkind ly
o k
w in
ha ll
Ġd i
an ny
Ġas soci
Ġher o
ĠT ur
ĠW al
Ġdream s
Ġmid st
ĠAl ice
Ġrap id
Ġune as
e ff
Ġa id
Ġs ize
if ice
ĠM art
ĠG l
Ġlo ver
ĠBl ack
Ġbene f
Ġsevent y
Ġru le
Ġhy p
? --
Ġa im
Ġm ult
ac ity
ĠS mith
ĠL aw
Ġro pe
ĠE ar
ab ility
Ġpre cious
Ġcr im
Ġdra g
Ġadm it
ĠEl iz
Ġthro at
; --
as ons
Ġl one
Ġl amp
Ġfl esh
Ġind ign
ĠSt reet
Ġdev il
Ġburn ing
ĠHar ry
Ġfrequ ently
Ġ i
Ġs igh
Ġb al
is her
ad d
ive red
Ġun ex
Ġadv ance
ug ust
Ġsister s
Ġgaz ed
k a
m other
o very
Ġw ings
Ġb as
Ġex ha
ĠB ob
Ġbeg ged
Ġke en
Ġmin ister
Ġgrad ually
Ġinnoc ent
u le
ic ation
Ġbet ray
Ġsing ing
Ġbur ied
Ġdri ven
M ore
y r
ou l
Ġb id
Ġany one
Ġad o
tern al
Ġenem ies
C ertainly
le ction
Ġst retched
Ġr ad
Ġqu al
el t
Ġun fortun
ĠL ittle
Ġbl ank
Ġcloud s
Ġconscious ness
Ġgod s
e em
Ġ z
Ġw ounded
Ġse vere
um n
Ġrem oved
iz ation
Ġser ved
Ġforg ive
ustom ed
Ġda ily
agn an
Ġthorough ly
Ġd w
Ġg est
pe lled
Ġun ivers
Ġbelie f
Ġmis erable
Ġhunt ing
Ġbecom es
Ġmurm ured
A gain
C h
b ar
Ġp in
Ġwe ap
Ġby e
Ġqu ant
Ġplain ly
olog y
Ġimpress ion
Art agnan
Ġa rose
Ġb ought
Ġf et
Ġc it
ure ly
Ġfl our
Ġapp eal
Ġold er
Ġlo ck
Ġimag ination
Ġspec ies
ĠDav id
f l
ha med
st one
Ġen v
Ġadm itted
Ġexper i
wh ich
Ġwat ers
Ġsmo oth
Ġsympath y
E D
Ġc ell
Ġp ause
ur al
Ġhad n
ĠB en
Ġj ealous
ĠF ather
ab eth
Ġgl anced
Ġmar ked
Ġass ert
Ġfair ly
Ġcap able
Ġpract ice
Ġhig hest
Ġrelig ion
Ġexplan ation
A L
D uring
r ate
Ġh om
ag g
Ġthink s
Ġreck on
I C
c ent
f ess
g ment
Ġc ult
all ed
Ġapp l
ons ense
Ġche eks
Ġmer chant
Ġcreat ures
Ġmod ern
ĠSp an
Ġpro ble
ren ce
Ġland s
ĠChrist mas
Ġda wn
Ġm aint
as ing
Ġst ories
ĠC al
Ġj ames
ck now
ĠJ ew
Ġend ed
Ġrep ro
Ġprom pt
a per
b its
Ġa cknow
Ġj umped
Ġtr ade
Ġun able
Ġfam ous
Ġdeep ly
Ġs ank
Ġis s
ĠS ylvia
ĠC r
au d
Ġdis h
Ġch oose
Ġrem ind
Ġcont empt
Ġchar ming
Ġstri ke
T H
t le
in ced
Ġb owed
Ġt ied
Ġw et
Ġre ward
Ġwe ary
Ġex ceed
ig g
au nt
ĠW hen
Ġind iff
Ġjo in
Ġequ ally
Ġwis hes
Ġpros pect
Ġtremb ling
Ġninet een
Ġu g
Ġst iff
Ġsh oes
ĠA b
Ġle vel
Ġar ch
Ġsl ipped
Ġret reat
Ġlar ger
Ġavo id
re y
Ġd iamond
Ġloo se
ĠF or
anc hes
Ġsupp ly
Ġlist ening
Ġfly ing
a pped
Ġ er
ch ie
ĠC or
ast ic
Ġwor n
Ġsome where
Ġrel ations
Ġass ured
Ġas hamed
oy al
Ġsm ell
Ġact ive
Ġappear s
Ġpop ular
ĠMad ame
Ġnerv ous
i able
Ġc ord
om en
if le
Ġfe ather
our t
em ber
Ġout l
Ġrem ains
Ġsound s
Ġobject s
Ġbecom ing
f ield
Ġc ard
Ġim pl
ĠN o
Ġind ust
iz ing
ail ed
Ġfore ign
Ġhast ily
Ġdelic ate
S T
Ġg ained
Ġse x
il ty
Ġtr oops
Ġmagn ific
ha s
Ġg ay
Ġint ention
Ġpro ject
ink ing
er ry
Ġc aut
Ġre nd
ĠM ay
Ġj ew
Ġhand ed
Ġspe nd
Ġste am
Ġgre et
Ġabs ence
Ġarri val
Ġwhis per
Ġegg s
Ġd ared
Ġl aughter
Ġe ating
ud den
Ġent rance
Ġeight y
Ġunc onscious
Ġunhapp y
Ġw est
Ġf ill
Ġp ardon
om s
Ġnot es
Ġme mbers
ĠUn ited
Ġhot el
Ġbott le
e ge
Ġc op
Ġg host
ĠM ajor
um ph
Ġlight s
Ġcor n
Ġexc use
Ġtrave l
Ġgaz e
Ġviol ent
Ġcho ice
n al
Ġme al
Ġgu ilty
Ġneighb or
r ant
re es
Ġst y
Ġfe ast
ĠR uss
Ġsl ave
Ġfriend ship
Ġlone ly
Ġc ave
Ġp ig
at ory
Ġro lled
Ġexp ed
Ġmount ed
resp ond
ent ial
Ġtr uly
udden ly
Ġc ere
Ġp uzz
am m
Ġshe l
ra w
Ġbr idge
ĠD uke
Ġgr ate
ĠE lsie
Ġte nd
umb led
Ġprinci p
Ġacquaint ance
Ġmyster ious
oo ked
Ġwhe el
un ning
ĠH ale
Ġres umed
Ġreturn ing
Ġcor respond
Ġtre asure
Ġref use
Ġsk ill
Ġsign s
Ġobt ained
on n
ul ated
Ġsh ock
Ġdist r
Ġsil k
Ġsix teen
Ġs cience
Ġcom r
Ġvis ible
Ġtreat ed
Ġhop es
Ġstup id
ar ies
ul se
ol n
Ġsp ark
oll ow
Ġevery where
Ġstrugg le
l ow
Ġm our
Ġun us
Ġpr ice
ful ness
Ġconst antly
Ġanx iety
ĠGre en
- '
C ha
Ġt iny
Ġf ought
Ġin formed
Ġe p
Ġy ards
ld om
Ġse ll
ain e
Ġgood s
Ġte acher
ĠTh is
ĠTh om
k ind
Ġm ajor
Ġm ental
it ure
ir m
Ġal oud
Ġsp are
Ġbr anches
Ġfl ung
Ġtri al
Ġut tered
Ġhast e
Ġconv inced
Ġconcer ned
Ġparent s
fess or
Ġt ale
ir gin
Ġfe ver
Ġcons ult
Ġfriend ly
Ġte ach
Ġext ent
Ġabs urd
Ġcap ital
Ġorigin al
Ġcred it
T r
le ase
Ġre b
Ġme as
ĠM ount
Ġman aged
ĠE x
ĠW ar
Ġrec om
Ġrequ est
Ġsett le
Ġmurd er
w ed
Ġw retched
er ves
Ġd er
Ġn ation
ic ate
Ġkn ock
Ġkind s
Ġfore head
Ġprofess ion
Ġtroub led
Ġadvent ure
con om
Ġfeat ures
i ven
p se
Ġb en
Ġfe ared
itt y
Ġwhen ever
Ġam use
Ġfoll ows
Ġprop ortion
Ġmist aken
Ġsaf ety
An other
Ġarr anged
H aving
Ġ err
in ent
Ġthe ory
Ġf ac
or ious
ce an
Ġher s
ac he
ac hes
our se
Ġwho lly
Ġcl ock
ap s
Ġpur cha
Ġunderstand ing
Ġstay ed
ĠPhil ip
Ġl ack
at ched
ish op
Th ough
Ġacc ustomed
Ġconsider ation
ĠPres ident
f all
Ġs ighed
Ġn urse
Ġe ase
Ġr isk
os al
Ġcur rent
G ive
p es
he ld
Ġre du
Ġwith d
out her
ĠA lex
Ġro ll
Ġmind s
Ġvict im
Ġsacr ifice
n at
Ġt it
in ate
Ġb ade
or ous
Ġpr int
Ġsome body
Ġcl o
Ġbo ots
Ġmis ery
Ġmaid en
O M
ha l
Ġd ig
Ġl it
Ġfr o
il ities
ĠN at
Ġinv est
Somet imes
Ġinde pend
Ġsla ves
c an
n el
ĠO f
Ġear l
Ġmar ch
Ġsw im
Ġadd ressed
Ġappro ach
Ġeng ine
Ġl est
Ġr ang
Ġen ergy
Ġrest r
Ġche ek
Ġswe pt
Ġbring ing
Ġfig ures
Ġprov ided
Ġsuspic ion
m es
Ġm al
Ġbe w
ver se
ke ep
ol s
Ġun l
Ġcomp ar
Ġatt itude
Ġmil itary
Ġprof ound
Ġcent ury
Ġeffort s
Ġaston ishment
d o
w ick
Ġh ither
Ġe ast
Ġfr ank
ĠP olly
Ġbl ame
ĠJ oe
Ġshar ply
Ġm ood
ed er
Ġth under
Ġse ldom
Ġint ense
Ġsc he
Ġgl im
iv ity
Ġinst ruct
Ġbre aking
Ġintellig ence
Ġdign ity
C l
T om
b or
o nder
th ree
est ic
ĠC an
Ġv ague
ĠD on
ĠH ow
Ġind ul
ens ive
Ġjud gment
Ġdut ies
ĠEd ward
Ġbrill iant
P e
p ent
Ġn est
ut ation
Ġe conom
ic hard
ri er
Ġfe e
ĠF red
Ġgl ory
Ġdist ress
Ġrel ie
ĠHe len
Ġcontin ue
Ġcond em
Ġprop osed
Ġir r
Ġmill ion
Ġcit iz
' ,
Ġcons ent
Ġrec overed
Ġsound ed
Ġsing ular
ĠGovern ment
m osp
r ated
t hen
Ġp ian
Ġh ut
Ġh int
th is
Ġget s
Ġunt o
Ġbear ing
Ġaffect ed
Ġado pt
S uddenly
Ġm amma
Ġn arr
Ġat mosp
ĠM y
ĠM other
Ġar rest
Ġcons cience
Ġhor rible
up on
Ġfair y
Ġcirc le
Ġappro aching
ĠCom m
Ġresp ons
Ġvirt ue
D ear
o h
Ġw ound
Ġc rew
Ġr age
ud ge
ĠHe aven
Ġreal ized
Ġprinci ples
ĠWh ite
Ġdepart ure
Ġloc ked
Ġeld er
i ot
in ter
Ġw ra
er k
ch o
Ġso b
os en
Ġen orm
ĠR iver
ĠR oman
Ġdes ign
Ġlo ving
Ġset ting
Ġthousand s
Ġpat ient
Ġdelight ful
Ġfirm ly
Ġconn ected
Ne xt
Ġunex pected
Ġg rie
se y
Ġsu p
ĠS qu
os ha
ose ph
ĠW hat
te enth
Ġwa ist
Ġstand s
Ġuse less
---- "
Ġemploy ed
Ġadmir ation
ker chief
Ġsh owing
Ġex hib
Ġfl ag
te nding
ere r
av al
ier re
Ġconce al
Ġsubst ance
d e
Ġm ix
Ġc hat
ut ions
id s
Ġr ig
Ġfl ed
Ġslight ly
Ġclim bed
Ġmut tered
Ġsav age
I R
v ille
Ġf ox
Ġre asons
Ġwh ist
Ġint ent
ĠL y
Ġcl ub
Ġim age
Ġhand kerchief
Ġsw all
Ġdisc overy
oun ce
Ġtra il
Ġgun s
Ġimm ense
Ġhang ing
ĠEliz abeth
Ġp red
Ġn ut
Ġre semb
Ġr ust
our s
ers on
Ġbr ide
Ġpr im
Ġsha king
Ġwis dom
Ġ ident
Ġf are
on str
ly osha
Ġas semb
Ġman if
Ġsp l
pl ess
Ġpre ced
Ġrequ ire
Ġshad e
Ġhes itated
Ġestab lished
Ġdistingu ished
Ġmyst ery
Ġs ons
Ġp ipe
ar f
Ġha m
om p
Ġpl at
Ġcl oth
ĠR ome
cei ving
Ġtrans p
Ġug ly
b oard
Ġ ing
Ġa in
Ġbe ard
et ty
Ġj ump
Ġsome how
Ġcomp osed
Ġinter f
Ġconc ern
Ġann oy
Ġfaith ful
gy pt
Ġrecogn ized
ĠPro fessor
d on
Ġf il
ic y
ĠM ont
Ġob v
Ġem er
Ġgu ests
Ġstart led
Ġdet ect
Ġinf inite
Ġexc han
Ġmid night
Ġstri king
Ġrid ing
Ġincl ined
Ġconsequ ence
ĠThor nton
u f
it or
qu is
Ġfe m
Ġany where
Ġpart ly
Ġinterest s
Ġobser ve
ĠFr anc
Ġappre ci
Ġo ak
Ġn urs
Ġst air
Ġst aring
Ġme chan
Ġfe ed
ra b
ag ing
Ġcont em
Ġsent iment
Ġcomple x
Ġmem ber
EN T
Ġutter ly
Ġrelig ious
ĠLou is
Ġaccompan ied
outher n
it ate
Ġp ant
Ġh ind
ic ip
el ess
Ġun b
Ġgr im
Ġend s
Ġwar ning
Ġreal ity
Ġsuccess ful
Ġprot ect
Ġport ion
ĠKat y
a res
Ġh un
Ġn umb
Ġr ow
Ġfr ag
ĠC he
Ġch osen
Ġnat ive
Ġthir st
Ġpat ience
wh o
Ġpract ical
Ġresult s
Ġagree able
F irst
P r
Ġb ree
Ġm ing
ur ity
Ġsh udd
pe l
ell a
el ia
ĠH am
Ġthan ks
ĠW ith
Ġafter ward
Ġthrough out
Ġwa ves
Ġfin al
Ġb os
Ġf aced
and y
ĠH im
ĠF lor
Ġdel ay
Ġdet ails
Ġbad ly
Ġshad ows
Ġeat en
Ġsens ible
Ġlean ed
Mar garet
Ġprec ise
C on
Ġs ang
Ġto t
Ġd ancing
Ġfr ame
ĠC ity
Ġsp ort
Ġmer ry
Ġdifficult ies
Ġprev ious
Ġdestroy ed
E ach
he ther
Ġwas te
Ġdo ct
It s
Ġpl ate
ĠE gypt
ĠJ es
Ġact ual
Ġste ep
Ġpol ite
ĠSc ot
Ġru in
Ġlean ing
ĠRob ert
Ġsurr ounded
is hes
Ġp owd
st ead
and er
ra ham
Ġtr ack
cl es
Ġyoung er
Ġrest ed
Ġrel ation
Ġsent ence
Ġdef e
Ġwood en
ĠFr ank
Ġdescri bed
Somet hing
a is
l ot
at ors
Ġsh one
ĠM c
Ġkn ocked
ather ine
Ġpo ison
Ġlo ves
Ġser iously
Ġaw a
Ġsort s
ĠEm peror
Ġcoff ee
Ġunfortun ate
Ġquant ity
re m
Ġg ain
ĠB ill
Ġpl ans
ĠG reat
cri pt
Ġcand le
Ġmach ine
Ġgloom y
Ab out
P ro
Ġp oured
Ġr is
Ġpr on
ĠD un
Ġhouse hold
Ġsupp l
Ġdr unk
Ġconf usion
Ġaw ake
Ġra ise
Ġstra w
Ġtor n
inc oln
Ġdisappoint ed
Cha pter
l ong
Ġc ig
ot hy
Ġwe pt
Ġcl iff
Ġwonder ing
Ġtri umph
Ġsens es
Ġann ounced
Ġneg lect
Ġintellect ual
Ġassist ance
h ouse
al ph
Ġcr ack
Do es
Ġincre ase
Ġconcer ning
Ġwed ding
O W
Ġm atch
Ġp ink
ut en
il i
Ġno b
Ġgr asp
Ġsus pect
Ġconn ection
Ġextreme ly
Ġgen ius
Ġexerc ise
Ġprincip al
Ġl ux
Ġor n
Ġdis e
iss ion
Ġass ure
Ġlaw yer
Ġdirect ed
Ġprodu ce
Ġbank s
Ġinterv iew
ĠBrit ish
Ġsty le
Ġatmosp here
L ittle
e el
ot ted
im on
if ted
ĠM rs
Ġman ners
Ġv oy
em s
ol ic
Ġcomp re
Ġche ck
Ġinv ited
Ġsign al
Ġconcl usion
Ġfier ce
Ġb ark
Ġc ared
Ġp ist
at ives
ut ch
Ġre nt
ĠF air
ĠN ature
Ġret ired
Ġchan ges
Ġste ady
Ġhigh ly
Ġtri b
ov itch
he red
Ġp ear
Ġh it
Ġun p
ĠH ans
Ġbl az
Ġthr one
Ġcont ained
Ġco ach
Ġneed s
Ġlear ning
Ġcommand ed
Ġconcl uded
a ult
ar se
ĠC han
ĠT ad
Ġwar ri
Ġfore ver
Ġsleep ing
Ġcoll ect
Ġcre pt
Ġbelong ed
e f
l ie
Ġo cean
Ġg ift
Ġr ush
Ġse es
il st
ick en
Ġcont ract
Ġfar mer
Ġsub s
Ġconst ant
ative ly
arr ass
Ġsuffic iently
Ġaston ished
Ġmel anch
w as
ed y
Ġn um
ĠI r
Ġre ven
ĠS h
ĠM in
os er
ĠP ark
Ġwhen ce
ĠT e
Ġgu ide
Ġref lection
li ament
Ġcent re
Ġrid ic
Ġvict ory
Ġpian o
it z
am a
ĠA ugust
ere nt
Ġtell s
Ġfour teen
Ġvis ion
Ġabs or
Ġlea f
Ġthir teen
Ġdev oted
Ġimmedi ate
Ġslight est
Ġinha bit
P res
l est
Ġp sy
ri ly
Ġex tended
Ġab rupt
ĠB illy
ĠP al
ĠH all
ĠW ood
Ġhel pless
Ġcol onel
Ġsol id
Ġresp ond
Ġsepar ate
Ġvan ished
a ver
b ers
our ing
ĠP ol
Ġch im
Ġbus hes
Ġproper ly
Ġquar ters
Ġdepart ed
a pt
Ġt ax
Ġo il
Ġto ss
Ġha bits
al t
Ġso il
Ġcon ven
ĠS at
Ġthr owing
Ġdes k
Ġsmall er
Ġvis ited
Ġsafe ly
Ġpun ishment
Ġgrat itude
Ġaccompl ished
Ġalar m
Ġmelanch oly
a wn
Ġt ables
ĠL incoln
ĠE ast
Th ree
Ġinst it
Ġgi ant
Ġste al
Ġstrong er
Ġspirit ual
Ġacqu ainted
Ġfle et
Ġemb arrass
x ed
ha nd
Ġc her
as per
Ġsh ows
ie ce
ĠC at
Ġfe ars
ĠA nt
Ġsha ke
ick s
ĠJ ean
Ġpart ies
Ġhast ened
Ġexam ined
Ġdistur b
Ġarg ument
ing ton
or se
le br
if orm
ro s
Ġli br
own ed
Ġpl un
Ġcomp ass
Ġnight s
ĠV en
Ġamong st
Ġide al
Ġtri p
Ġviol ence
Ġtroub les
Ġforb id
Up on
Ġenorm ous
Ġplat form
b ury
ha d
ul ate
ĠM ic
ĠB el
Ġhapp ens
Ġins ult
Ġbeh old
Ġsou ls
Ġcal cul
Ġnin ety
Ġcoun sel
Ġobt ain
Ġappoint ed
ĠFl ore
ĠOl iver
Ġproble m
Ġbos om
uten ant
A S
L e
m ble
o qu
is ions
en ger
ad s
Ġshe d
ĠS n
ĠC ourt
um ble
ther n
Ġpro c
Ġbr ow
Ġar med
ĠJ oseph
Ġcont ri
Ġlead er
Ġdest ruction
Ġdiv ided
Ġknight s
ĠRob in
Ġdesert ed
Ġtow er
Ġqual ities
Ġmagnific ent
j ean
Ġman age
ep s
Ġshould n
ud es
ĠN ight
Ġdel iber
Ġreflect ed
Ġvent ured
Ġelect ric
ĠVal jean
p her
Ġha ted
Ġha unt
ur ance
ĠS te
Ġam id
Ġover t
ĠR ose
Ġper mitted
Ġatt ent
ret ch
Ġho ly
Ġill ust
Ġenjoy ed
Ġpriv ile
Ġsepar ated
stand ing
l o
u ing
u able
re ck
Ġp ier
Ġsu gar
ĠF ort
eng ers
Ġsad ly
Ġprot ection
Ġce lebr
Ġsac red
agged y
E L
S ay
b ow
i ved
Ġt race
ag ger
Ġsec ure
Ġsw ear
Ġpain ful
Ġpain ted
ĠIs land
Ġunus ual
b our
i qu
Ġst out
Ġne at
Ġle ap
Ġcom pelled
ĠD an
Ġfl ash
less ness
Ġcall s
ĠMar illa
ĠBr own
Ġmer cy
Ġut most
Ġattempt ed
Ġbeat en
B oth
G r
b b
g l
Ġm a
Ġp age
ic ian
ir ing
Ġcon vent
ĠN ed
Ġatt ached
amp ed
Ġeffect s
Ġdescri ption
L ady
Ġf o
Ġf ired
ac on
us an
Ġfl ood
Ġcol ored
Ġgrand father
ĠCon st
ĠAd am
ashing ton
Ġimpro ve
Ġsurr ound
Ġignor ant
B l
C E
S ince
U nder
Ġt ent
Ġf ix
Ġc attle
Ġbe held
ĠI N
am ps
pe nded
Ġex ert
ĠS il
os ure
ĠA lyosha
Ġab road
Ġj ob
Ġsee king
Ġey ed
gg y
Ġcomm itted
gr ound
Ġrepe at
Ġburn ed
Ġcheer ful
C ould
e ep
j ud
ur ies
Ġun ple
Ġcoll ege
Ġmark et
Ġdeg rees
Ġshel ter
Ġinvest ig
e enth
Ġb ase
it ating
Ġd arling
Ġe rect
ic a
Ġfor ces
Ġas ce
Ġat tended
Ġno vel
art ed
ĠP en
ĠD ale
Ġstr ict
Ġnever theless
Ġins isted
Ġdesce nded
Ġpuzz led
Ġpsy ch
S hall
Ġs cient
Ġh ollow
Ġl in
Ġl ing
Ġl ion
Ġin ex
id ay
Ġth read
Ġr out
Ġex cess
ĠR ichard
Ġsc ore
So on
Ġhor iz
Ġsim pl
Ġdress ing
Ġpray er
Ġloc al
Ġstead ily
Ġexha usted
Ġunivers al
Ġrend ered
G et
O L
b re
m or
w ork
Ġa x
or ing
Ġe t
if ts
ĠM o
ĠC rist
Ġmon key
Ġcut ting
Ġexcept ion
Ġoffic ial
ĠGr and
Ġcrowd ed
Ġfat al
Ġdistur bed
Ġfan ci
S e
Ġw ing
ar n
an ed
ĠS her
Ġle is
ĠG il
ĠD iana
ĠR o
ud ing
Ġchar m
Ġdisc har
Ġgener ous
Ġsus pected
Ġcoun ter
Ġbitter ly
Ġdevelop ment
Ġfail ure
Ġestab lish
Ġgrate ful
ĠThom as
w hen
re p
Ġr ab
ĠC ath
ud ence
Ġimp r
Ġcar pet
Ġdr ank
li est
Ġprodu ct
Ġintrodu ced
ĠJul ia
Ġdesper ate
ĠWal ter
M ost
d r
l iness
Ġg own
Ġme ad
ri bly
Ġne arest
Ġal ike
Ġint r
ra ge
itt ee
Ġtr ad
Ġlike wise
Ġbo ats
Ġdri ving
Ġimag ined
Ġprob able
t is
Ġhe nce
us k
Ġv ic
ol as
ĠB ab
Ġch ose
Ġgood ness
Ġevery one
Ġcount ries
Ġadd ition
sh ine
Ġdec ide
Ġpen et
Ġmiss ed
Ġdescri be
E AR
L ord
e g
v an
Ġs illy
Ġw agon
om in
Ġg ates
Ġre nder
ĠA ust
Ġqu ality
ity a
Ġour s
iz z
ĠCh ris
ĠSt ep
Ġless on
Ġland l
Ġdirect ions
Ġest eem
Ġobserv ation
keep er
Ġnum erous
M ary
Ġw ave
Ġo d
Ġb uck
Ġp ace
Ġr ic
Ġr ib
ĠS w
un ce
ell e
Ġun iform
Ġread er
Ġcontin ually
Ġmove ments
Ġtra p
ean while
Ġden y
Ġant icip
Ġsour ce
Ġgest ure
s es
in ction
Ġm ud
Ġst uck
Ġse lect
ol ution
Ġj ack
Ġpl ants
Ġsc orn
Ġrec all
Ġche ese
Ġsubject s
Ġpurs ued
; "
Ġb ay
Ġf ulf
oo ped
ord er
og raph
Ġsil ently
Ġca uses
Ġobs c
With out
Ġexper iment
Ġoccas ions
ĠLu cy
Ġaud ience
Ġabandon ed
c ast
e b
Ġo x
Ġb ones
Ġp ound
Ġn onsense
Ġas pect
if ying
Ġsh rie
Ġout er
ĠV irgin
Ġmon ster
Ġdisapp ear
Ġtrave ll
ĠJes us
B et
t ic
is p
Ġp ir
ver ty
Ġapp et
Ġpo verty
Ġres c
Ġent ering
Ġrel ated
Ġfast ened
Ġfat ig
Ġweak ness
Ġmotion less
Ġclo ak
Ġfanci ed
A D
i pping
m at
on ies
Ġp up
al ian
Ġshe et
Ġint im
ĠR alph
ĠJ eff
Ġsc attered
ĠO n
Ġmod er
Am ong
Ġenthusi asm
Pres ently
Ġlibr ary
M ad
m et
m ony
in th
Ġw ake
Ġc unning
Ġl ap
Ġg e
Ġbe ings
Ġr um
ĠH igh
ĠJ ac
Ġwr it
Ġact ed
Ġpoint ing
Ġsun shine
Ġserv ices
Ġbur den
Ġdin ing
Ġdiv ine
Ġwand ered
Ġapart ment
Ġshoot ing
Ġnewsp aper
A M
w hy
Ġt al
Ġp il
Ġv ac
Ġli qu
ist en
Ġwor ship
ĠB ert
ĠG old
Ġdis ci
Ġfl ame
Ġapp le
Ġhum ble
Ġstrong ly
Ġcircumst ance
Ġclass es
Ġvol unt
Ġinstr ument
a us
e ight
s ing
y e
Ġd irty
Ġsh y
ĠB ern
ĠD ra
Ġover come
Ġcha in
.' "
Ġlight ning
ĠAnd rew
Ġsign ific
ĠUn ion
Ġresol ution
Ġdisappoint ment
Ġcontem pl
M eanwhile
b on
Ġha l
Ġas h
ich olas
ie l
ĠM ill
ĠA f
Ġstr angers
ĠO ne
Ġwr iter
app ing
Ġinv itation
Ġfif th
Ġheav ily
Ġquar rel
Ġdisp osed
Ġprison ers
Every thing
bur g
r ough
Ġb und
Ġc ries
Ġp ony
es tern
Ġde arest
um es
Ġcl oser
Ġper ple
.. ."
Ġcomm er
Ġte aching
Ġsens ation
Ġsuggest ion
Ġpock ets
Ġgaz ing
Ġfurn iture
Ġconce aled
Ġmot ive
Ġpref er
Ġhom es
Ġacknow led
Ġcere mony
Ġinhabit ants
n on
Ġa ver
in ity
Ġv en
ell y
ĠW ashington
ress ion
Ġpre cip
Ġass umed
Ġve get
Ġval uable
Ġgrow th
Ġcra w
Ġsail or
Ġbless ed
co at
Ġdom estic
Ġgrant ed
N ay
O ther
Ġa chie
er ite
Ġf isher
as ha
ar ry
Ġn aked
al f
Ġco al
Ġpur ple
Ġhung er
Ġtremb led
ĠSpan ish
Ġrepro ach
Ġdistr ict
Ġtit le
Ġnumb ers
ĠFlore nce
Ġt ick
Ġm ajesty
Ġp ub
Ġn ational
Ġwh ilst
Ġdis ag
Ġdis miss
Ġright s
Ġcol oured
fort une
Ġland ed
Ġpri ze
Ġself ish
Ġwand ering
gu erite
Ġdesce nd
Ġcomr ades
Ġben ch
Ġsche me
H ence
Ġthe at
Ġb ul
Ġto nes
Ġbe ating
Ġe cho
Ġr ange
ac hel
ĠM id
Ġun re
op es
Ġgr in
ĠR aggedy
Ġper pet
Ġcons id
Ġret orted
Ġheart ed
Ġrec over
Ġact s
Ġdel iver
Ġread ily
Ġdra gged
Ġste el
Ġsince re
Ġdisp osition
Ġcra ft
Ġpros per
Ġgra v
Ġming led
ĠIr ish
A cc
S E
Ġf ence
Ġl unch
Ġso vere
ri et
um s
Ġbr anch
Ġser ies
Ġlight ly
Ġcle ared
ĠV an
Ġdef inite
ĠAn na
Ġsum mon
Ġview s
Ġanx iously
Ġtreat ment
Never theless
Ġph r
a fter
Ġwas hed
Ġfr anc
Ġup stairs
ĠP at
ĠP ort
Ġsome one
Ġown er
Ġcr u
Ġbel oved
Ġcons ist
Ġwind s
... ."
jo hn
Ġdrink ing
ĠJack son
Ġcow ard
Ġbor ne
Ġh oney
Ġin ner
Ġab st
ĠB ur
Ġdis gu
Ġch in
ap ers
Ġpart ed
Ġact ions
Ġconf ident
Ġtre mend
Ġinc red
Ġinf ant
umb ling
Ġgrave ly
Ġbeast s
Ġdiscuss ion
S upp
v ation
ĠI f
Ġre aching
Ġr ag
Ġr ude
Ġinc ident
Ġsle nder
Ġwo lf
Ġfin ish
Ġmis fortune
Ġvisit or
Al as
Ġconv iction
ĠDor othy
i ge
k ward
in ally
Ġo h
Ġl ately
Ġl ift
Ġst able
Ġwe eping
Ġnot ion
Ġsa iled
ĠC ha
Ġno on
Ġun m
Ġhead ed
Ġfree ly
Ġprot est
Ġmiss ion
ĠIs abel
Ġur ged
Ġpra ise
Ġswift ly
Ġdise ase
Ġvoy age
f a
z ed
er g
ol t
Ġle ather
ree k
ub b
Ġsw ung
Ġadm in
Ġsad dle
Ġvar iety
Ġmeant ime
Ġfun ny
Ġclim b
Ġstir red
Ġvent ure
Ġbenef it
Ġcult iv
Ġfem ale
) .
T w
f ty
u its
Ġa pt
Ġs ne
Ġc ro
Ġwas h
th os
Ġcons ol
Ġposs ibility
Ġsw ell
Ġaw kward
Ġcreat ed
Ġcoll ar
Ġgovern or
Ġbelong s
Ġcontr ad
Ġmir ror
Ġfol ks
tw enty
Ġdw arf
Ġexped ition
Ġunple asant
l ict
p he
s ome
in oc
er al
on c
Ġd uke
Ġre ar
Ġr ays
ro ll
ĠH ill
Ġpre jud
Ġdist inction
Ġdoor way
Ġhundred s
Ġstart ing
Ġfoot st
Ġeng agement
Ġenter pr
Ġess ential
Ġindiff erent
Ġm ild
Ġin ch
Ġan ch
ĠH aw
Ġper ceive
Ġrem aining
hen omen
Ġgl orious
Ġimp ulse
hes s
Ġcare er
Ġdro ps
Ġhid ing
Ġearnest ly
Ġfol k
Ġange l
y s
Ġf asc
Ġd az
Ġhe ed
ar m
Ġg a
Ġnot ed
ri ot
ĠS ch
ĠM ag
ak ened
Ġfl ut
Ġper il
Ġcomp et
ĠK ate
Ġent reat
Ġpers ist
Ġdel ivered
ĠMar ian
Ġbed room
kes pe
Ġfavor ite
W ait
c ase
Ġw ire
Ġp ond
Ġst ated
Ġse nding
Ġkn ee
ol a
ol en
Ġj oke
Ġen s
Ġthought fully
Ġturn s
Ġaw oke
Ġheaven s
Ġfrequ ent
Ġalar med
Ġexec ution
Ġobey ed
Ġdepth s
Ġexperi enced
Ġfranc s
C har
D ick
E T
P lease
Ġb ond
Ġm ixed
Ġhe ap
an z
ic ity
ĠM ajesty
Ġag es
pl ace
ab out
Ġpre tended
aught ers
uck y
Ġreg iment
Ġunc ertain
Ġsy m
Ġhuman ity
ĠCar ol
oop ing
Ne ither
Ġthreat ened
Ġneighbour hood
Ġartic le
Ġpowd er
M r
O ld
Ġ vel
Ġst om
Ġst aff
Ġso ot
ĠS l
Ġman kind
Ġint end
ĠA rab
ĠD en
Ġen chant
Ġfl ushed
Ġsl ip
ens ion
Ġter m
Ġsto le
ĠAr m
ax im
ĠHer bert
len ess
iven ess
r ain
is l
Ġf er
Ġf und
om ed
ot ions
ĠM al
ĠC atherine
em on
Ġtr unk
Ġpre y
Ġspe ll
Ġfind s
Ġinc hes
Ġeff ic
Ġdoubt less
Ġsto pping
Ġgall op
Ġph ot
Ġarrange ment
ĠGree k
N one
a ur
t te
ha el
Ġf itted
Ġp henomen
Ġg as
ic ing
ĠI re
Ġsu st
Ġab und
ĠP ierre
ĠD ur
Ġob ed
Ġact ivity
Ġpurp oses
ĠIt alian
Ġpull ing
Ġmed ic
Ġguess ed
Ġchim ney
Ġd uck
Ġp aint
ot es
Ġcon vey
ĠM ars
Ġar d
ink led
Ġwhere ver
Ġatt acked
gg ing
Ġwa ved
Ġche ap
rist ram
Ġmis chief
Ġcomple ted
urd ay
Ġbuild ings
Ġconsequ ences
Ġemp has
Ġignor ance
Ġcitiz ens
ĠAf ric
r ous
en a
Ġg ri
qu et
ĠA p
ak s
Ġag ent
ĠD el
Ġdec ision
Ġfear ful
Ġdeep er
Ġtouch ing
Ġpurs uit
Ġpress ure
orth y
Ġamb ition
Ġwid ow
Ġwra pped
Ġmanif est
uf act
Ġabrupt ly
V E
g ent
s pect
in ated
Ġp ars
le ton
ro d
Ġle aped
Ġper formed
Ġcont ents
Ġhar sh
Ġgu est
Ġref erence
Ġmag ist
Ġgrand mother
Ġoccasion ally
Ġcontr ast
Ġfurn ished
Ġsacr ific
Ġaut umn
Ġrelie ved
B r
C a
F ather
R O
l ook
p ri
Ġs an
Ġl un
at a
if ully
Ġthan ked
Ġapp ly
ap a
Ġpass engers
Ġrep utation
Ġinc ome
Ġdep ri
Ġabs ent
Ġdem onstr
Ġtrans f
Ġaccord ingly
Ġintellig ent
Ġattract ed
Ġoper ation
Ġmort al
Qu ite
Ġprecise ly
Ġstom ach
u ced
Ġc as
or ation
ĠM er
Ġman ufact
Ġal ter
ĠA g
Ġpro cl
Ġapp lic
Ġspe cul
Ġcons um
Ġcomm unity
Ġconf used
Ġsle e
Ġglass es
Ġtor ment
Ġfamil ies
Ġdevelop ed
Ġamaz ement
Ġuneas y
Ġdrag on
Ġbetray ed
Ġsup reme
. )
A d
R I
S c
S urely
en es
Ġto day
Ġre ne
Ġsh ru
Ġag ony
ĠR ich
Ġfl ashed
Ġfeel s
Ġins ist
Ġfur y
Ġbreat hing
Ġshout ing
Ġmoon light
ĠSha kespe
Ġpoet ry
Ġpor ch
ĠBern ard
P ut
l ers
o lf
y es
Ġd ried
Ġsh irt
ĠC o
Ġstr ing
Ġsm art
Ġcomp ared
ĠK itty
No body
Ġheart ily
Ġem peror
Ġrespect able
Ġprepar ing
Ġstat ement
Ġinquir y
Ġgather ing
Ġredu ced
Ġb atter
Ġso re
ĠM ark
Ġun ited
Ġpre tend
Ġcha p
og rap
Ġreg ion
Ġbu ff
Ġtri ump
Ġnecess arily
Al though
Ġsmo king
Ġcalm ly
Ġdiamond s
Ġbew ild
Pe ople
Ġfare well
Ġdoct r
Ġrespond ed
ĠCrist o
i ving
he ster
Ġb ust
Ġf ires
Ġc ock
Ġc ities
Ġd aughters
Ġl osing
st ers
Ġwe aring
ol ate
Ġbr id
Ġus ing
Ġfl atter
Ġend ure
Ġmar ble
Ġbus h
Ġexpect ing
Ġshort ly
St r
Ġgall ery
Ġflo ating
ribut ed
Ġrul es
Ġphilosop hy
Ġrecoll ect
Ġfet ch
Ġappl ied
Ġdetect ive
F inally
O ut
u ish
ll a
Ġhe els
an qu
le an
pe ak
os c
ĠT O
ap ole
Ġreason able
Ġstrange ly
Ġincre asing
Ġmess enger
Ġmurd erer
Ġvol ume
Ġrepres ented
Ġinterv als
Ġdisg race
Ġcrit ic
Ġpist ol
Ġf acing
ing er
Ġl ament
Ġn ations
Ġr oses
Ġr oused
Ġk ings
Ġde ed
Ġsh ield
em y
ĠB uck
ĠT ristram
ink le
Ġcl erk
ĠW all
Ġhand le
Ġper mit
ĠJ ones
Ġkeep s
iet h
Ġadm ire
br idge
Ġest ate
Ġclot hing
Ġlab our
Ġchief ly
Ġconsequ ently
Ġweap on
Acc ord
o en
ha w
Ġb at
ed ing
Ġf ed
Ġc oo
Ġp ool
Ġp ains
Ġbe ach
ra it
Ġad vert
ĠJ en
Ġpe asant
Th ink
ĠK en
Ġact ing
Ġrel uct
Ġdef end
Ġtem ple
Ġdecl are
ugg ed
Ġchair s
ĠBar on
Ġstrugg ling
Ġrevol ution
Ġmethod s
Ġartic les
Ġow ing
Ġnewsp apers
Ġfold ed
Ġprompt ly
Ġexceed ingly
Ġearl ier
ĠFranc is
pher d
Ġw itch
Ġb one
Ġm ast
is ible
Ġd ashed
an a
Ġwh irl
Ġher d
ch io
Ġro lling
ĠN icholas
Ġdes ir
Ġsec ured
Ġchan ces
Ġrest ored
Ġreal ize
Ġele ment
Ġconst ruct
ĠEar th
agg ie
Ġscient ific
Ġdisag ree
Ġtremend ous
L isten
M e
m ie
s ix
in ery
Ġb att
Ġm ock
Ġd ate
Ġha th
ro v
ĠS y
Ġint imate
Ġab ility
Ġwor ry
Ġfl ow
Ġbeg ins
Ġdes ires
Ġpres erved
Ġbo il
Ġmar ched
Ġem br
Ġprop ose
Ġtem por
Ġmod e
Ġhither to
Ġhoriz on
Ca ptain
g est
it a
Ġd amp
Ġd anced
ĠC le
Ġch uck
act ory
ict or
Ġgu ards
Ġins p
Ġmet al
Ġground s
Ġele g
uc hess
ĠHen ri
Ġneg ro
Ġhosp ital
Ġmult itude
ĠFred er
Ġcondem ned
Ġleis ure
c ause
u k
Ġa ven
Ġf ount
Ġe ternal
ĠM at
Ġal tern
Ġno is
Ġcomm ission
Ġinc on
Ġopp osition
Ġill ness
Ġenc oun
Ġluck y
Ġappre hens
ocr atic
Ġid le
Ġdispl ay
ĠRuss ian
Ġet c
D e
re ls
it ively
Ġc ure
Ġp ark
Ġin ev
ly le
Ġth ief
Ġr uth
Ġr ifle
ell ow
ose tte
Ġover w
ĠJ ap
Ġlong ed
Ġcomm enced
Ġem otions
Ġrep ent
Ġexp ense
ĠCh ief
par go
Ġopin ions
olog ical
ĠMon te
Ġadopt ed
Ġplun ged
ĠShakespe are
i que
Ġt ide
Ġa pr
Ġs en
Ġc ake
Ġha z
Ġst ates
ac c
Ġwhe els
Ġout ward
Ġle ct
Ġro ast
Ġday light
Ġbl ock
ud ent
Ġcha se
Ġyoung est
Ġfoll y
St op
Ġroad s
Ġconc ent
Ġvisit ors
Ġweap ons
Ġobv ious
inoc chio
O T
R em
m al
Ġt id
Ġs way
nd s
Ġre ject
ĠS ar
os y
ĠL ake
Ġbl oom
Ġres our
Ġsl ain
Ġlast ed
Ġbo ast
aster n
Ġbed s
Ġcap acity
Ġcent er
Ġsens itive
Ġvessel s
Ġdistinct ly
Ġfee ble
Ġsovere ign
C om
G reat
Ġto re
on ed
Ġl an
Ġn erves
Ġg ifts
Ġso fa
ĠS ol
ĠM onsieur
pl ed
ĠW inter
Ġapp ar
Ġstr ain
Ġpres ents
Ġsur re
oub ted
Ġwar n
Ġquestion ed
ĠBr andon
Ġlive ly
Ġdri ver
Ġprov isions
ĠSp ain
Ġremark s
Ġwis hing
Ġcommun ication
Ġuncom fort
ĠIre land
I L
M other
Ġ vers
Ġw ip
Ġf aded
ut or
ĠM ed
ĠB ible
Ġar row
Ġsha ped
ĠR ev
ĠSt r
Ġfall s
Ġra ising
Ġcharacter istic
Ġsatisf y
ĠCar lyle
ĠEd ith
Ġdepend s
Ġremind ed
ĠSat urday
Ġappet ite
Supp ose
U R
r im
Ġto ler
Ġd il
Ġl at
Ġde ce
ĠS imon
ĠS usan
Ġv ivid
Ġgo ver
ig s
el ie
ĠG ood
ag o
Ġen cl
ĠR oyal
Ġtown s
Ġang rily
Ġve il
ĠIt aly
Ġaccompl ish
ĠPh oen
Ġaut om
pir ation
Ġmajor ity
Ġwarri ors
i ated
Ġb ath
Ġm ant
Ġl av
Ġg asped
Ġy onder
ĠS outhern
ĠC ast
Ġal t
Ġbr ings
ĠT w
Ġper mission
oy s
ne ver
ĠN ot
Ġconf ined
Ġaw akened
Ġlay ing
Ġopp osed
Ġdead ly
Ġsecond s
Ġbur nt
Ġobject ion
Ġdream ed
Ġcharacter s
Ġru ined
Ġtrust ed
Ġfortun ate
Ġfeather s
Ġpron ounced
Ġconsid ering
apole on
c ular
Ġt in
Ġf og
Ġhe d
as ion
ar i
Ġas hes
ro ft
Ġde ceived
art s
Ġany way
Ġmore over
ĠW ell
Ġcha pter
Ġacc ur
iver ing
Ġelse where
oon ful
Ġmaster s
Is n
Ġcross ing
Ġsqu ire
ĠNor man
Ġtender ness
ĠGre y
Ġmurm ur
Ġconstit ution
A C
E d
a ire
c er
Ġto mb
ic o
se e
am ation
il ight
ĠA thos
ĠB y
Ġgr acious
Ġdown stairs
Ġpe as
Ġcont ented
In stead
Ġtre acher
ĠMar ch
Ġglad ly
Ġarri ve
Ġexist s
Ġcompl aint
Ġmill ions
Ġprep are
Ġrub bed
Ġliter ature
Ġhol es
Ġhun ter
ĠScot land
ĠRich mond
I G
c est
g s
i en
l ars
u ary
in n
Ġb ars
Ġd u
ve t
Ġre le
ĠS en
ĠC ap
Ġam used
ĠD ar
Ġen l
ĠR om
ĠR achel
ook s
Ġlo fty
Ġmar vel
Ġconf lict
Ġmo ist
ĠMar guerite
Ġless ons
Ġdep os
Ġacqu ired
Ġcott on
Ġpill ow
Ġshell s
Ġresist ance
More over
Tr ue
Ġbree ze
ĠStep hen
Ġash ore
M en
b ack
Ġs ink
Ġf ishing
on ly
Ġg or
ct ions
Ġup right
ĠM itya
ĠD utch
Ġro ots
Ġper man
Th rough
ank s
Ġchar ity
Ġdet ail
Ġir res
Ġregard ing
Ġhat red
Ġpun ished
Ġloud ly
Ġpop ulation
Ġstro ke
ĠCount ess
Ġdwell ing
ois elle
Ġtele ph
ĠCath olic
Ġfootst eps
H as
W hether
on er
Ġp atch
Ġse ar
Ġex ternal
Ġag ed
Ġbr isk
ĠL and
ĠO h
Ġprop osition
Ġperfect ion
ĠInd ia
Ġrecogn ize
Ġprocess ion
Ġprepar ations
enc ies
ĠJap an
v est
Ġto mor
Ġd iver
Ġp ile
Ġp acked
Ġg oss
Ġu lt
us ive
Ġcom ment
Ġcan non
Ġun just
ĠL ove
ab led
Ġcont ain
ang le
Ġrec ent
Ġsun light
Wh ich
Ġappro pri
Ġsum mit
Ġpray ers
Ġmark s
with standing
Ġrob ber
Ġdim in
Ġavo ided
Ġeld est
Ġble w
Ġreve aled
Ġmix ture
Ġabsor bed
Ġtomor row
K eep
M ake
Ġt un
Ġm onsieur
Ġp ine
Ġp ush
id ents
Ġwe ep
ĠS T
ĠS an
ĠC ong
ĠH oll
Ġgr ows
Ġdes erve
ang led
Ġpri ests
Ġbar n
Ġstud ied
Ġmod est
Ġsol itary
Ġstick s
Ġmurd ered
Ġstream s
Ġformer ly
Ġfaint ly
Ġfavour ite
Ġmach inery
Ġrom antic
Ġpersu aded
ĠFair y
Ġadmin ist
Ġoverw hel
b ably
f rom
v ol
re c
Ġc ents
Ġto ps
or ld
or ter
Ġp itch
ic ted
ad a
and s
ĠC oun
os a
pt ember
Ġtim id
ĠL ong
ĠE n
ĠE r
ĠJ er
Ġrem ote
Ġsc enes
int s
Ġcr ou
Ġrep orted
Ġhelp ing
Ġfin est
Ġeas ier
Ġschool s
Ġcre am
Ġscar ce
Ġexam ine
ĠCon f
Ġhist or
Ġphys ician
Ġprevent ed
Ġdeb t
Ġdisg ust
Ġinstr uments
Ġcrim son
Ġbal ance
Ġindust ry
Ġcop y
Ġing en
Ġridic ulous
F r
P ray
Ġfr own
ri gg
ĠM us
ĠM el
ĠC am
em oiselle
Ġun like
Ġcl ut
ĠD ant
ĠH oly
Ġsc old
Ġcont act
Ġcont aining
Ġwant ing
Ġsun k
Ġsch ol
Ġmer it
Ġrequ ires
ract ed
Ġexist ed
Ġgard ens
ĠEnglish man
Ġsail ors
Ġiss ue
Ġmour n
Ġglim pse
Ġintent ions
Ġstair case
Ġtoss ed
Ġbund le
I D
u ine
in ous
in ations
Ġo we
Ġd aring
as hes
Ġha y
Ġst ag
Ġst olen
ul ating
ĠC art
ra g
Ġtr if
ĠT em
ĠJ ust
Ġlong ing
Ġgl ow
Ġmay be
Ġwr ath
Ġhard er
Ġland ing
Ġdoubt ful
Ġbar gain
Ġcry st
Ġpray ed
Ġdeterm ination
Ġincl ination
Ġav ail
ĠJohn ny
Ġpos itive
Ġindign ation
Ġcompre he
oubted ly
l ance
l ock
w ing
re r
Ġf ain
Ġc ards
ic he
Ġth ither
Ġre ceiving
if ting
all a
ge ance
Ġtw ilight
Ġar ise
Ġun ion
Ġcl ergy
ĠF ar
ĠR ep
Ġpe pper
Ġpart ing
Ġsc ru
ob y
Ġins pect
Ġel oqu
Ġinv isible
Ġfur ious
ĠBl ue
Ġenjoy ment
orth os
ĠJohn son
Ġcurt ains
Ġjealous y
Ġris en
ĠVirgin ia
ĠGold en
Ġo ath
Ġf est
Ġp ed
Ġn on
Ġso ber
Ġbr ush
Ġtr ained
ĠE ve
cc a
ĠF ox
Ġapp les
ĠJ ud
Ġlo aded
Ġchild hood
Ġmar ve
ret t
Ġmon arch
Ġadv ised
Ġexam ination
Ġpract ically
Ġneighb ors
pet er
Ġmot or
ĠGerman y
Ġgreet ed
A Y
E n
in o
er a
Ġm ale
it udes
Ġn av
id d
Ġcon ception
us ions
us hes
Ġro ot
ress es
Ġper f
ĠJ une
Ġgl it
Ġlet ting
ang lars
Ġbel t
Ġsupp orted
Ġmind ed
Ġrest ing
Ġexp osed
Ġcor rid
Ġpur se
Ġeight h
Ġdec ent
Ġtor ture
Ġgall ant
Ġrejo ined
Ġimpat ience
Ġimpat ient
Ġphilosop her
Ġinterp ret
Ġhosp it
Ġindepend ent
quis ite
Ġlin en
Ġhal ted
D own
e lf
Ġt ub
Ġd umb
Ġg oose
et ch
ol k
Ġgo at
ĠT H
Ġpart ner
Ġres ign
Ġchan ging
Ġchar ged
Ġtre as
Ġcoll ected
Ġce ase
Ġplan et
Ġbelong ing
Ġlim ited
Ġlim bs
Ġmass es
Ġgar ments
Ġimpat iently
Ġjew els
Ġinstruct ions
Ġarrest ed
Ġtriump hant
Ġdisagree able
Ġencoun ter
i ation
Ġ --
Ġt ie
er ity
Ġb ind
Ġhe ll
Ġn aught
Ġbe ef
se ct
Ġr ushing
Ġr ival
Ġse as
ri ous
Ġpl ot
Ġsp in
Ġbr ains
Ġtr anqu
Ġsc ale
Ġlo ad
Ġhapp ily
Ġsur v
Ġinter ior
Ġstand ard
Ġdec or
Ġsign ed
Ġart ist
Ġfright ful
Ġhop ing
Ġfun eral
Ġpun ish
Ġcoun cil
Ġscre amed
Ġaccomp any
Ġcivil ization
Ġcurt ain
Ġamuse ment
Ġacknowled ged
r ot
r ows
Ġin k
Ġha ired
id able
Ġde af
ul gar
Ġup ward
Ġar oused
Ġro ar
Ġpe ep
Ġgl o
Ġgl ac
Ġind icated
Ġdr owned
Ġass ume
ib ilities
Ġter ribly
Ġtrave lling
Ġmiss ing
Ġpolit ics
Ġcatch ing
Ġpress ing
Ġadvent ures
Ġgrace ful
Ġhide ous
Ġlandl ord
Ġphr ase
a ves
h is
n ces
Ġt ales
Ġd ivers
om on
Ġwas ted
st e
et er
Ġwh ip
Ġne phe
Ġex quisite
ĠS al
ĠB ishop
Ġj u
Ġbr ute
Ġcl am
ĠH y
Ġmust n
Ġstr uct
Ġsl ope
ĠK night
Ġlo vers
Ġsec urity
Ġdr am
the w
Ġhum or
Ġhope less
Ġsn ake
ĠBr other
Ġlad der
Ġfort night
Ġstay ing
Ġann ounce
Ġforest s
Ġlif ting
Ġgen uine
Ġprec aut
Ġess ence
Ġaddress ing
Ġorn ament
Ġreven ge
Ġcelebr ated
Ġnephe w
N E
Ġa st
Ġs ed
Ġw ard
Ġw reck
or able
Ġl oyal
Ġn et
Ġsa le
Ġal tered
ĠB o
Ġdis ple
Ġrem ove
Ġref uge
ĠAmeric ans
Ġhes itation
Ġsearch ing
Ġhurried ly
het ic
Ġdish on
Ġresc ue
H en
S ON
f oot
Ġc aval
Ġto ols
Ġd ed
Ġr asc
ĠB ess
ĠH arr
ĠN an
Ġres ent
Ġimp ressed
ĠV ictor
Ġche cked
Ġtri be
Ġprof it
Ġstrugg led
Ġconduct ed
Ġpot at
Ġbeha v
Ġflo ated
Ġpos itively
Ġuncomfort able
I m
J im
P l
g en
p en
u ously
Ġm ail
it an
Ġf aster
Ġhe ir
ic able
Ġre se
ur st
all s
ĠM aggie
ĠB ay
Ġtr ump
Ġtr aining
ĠR a
ĠN ancy
Ġgl ob
Ġpass es
ens es
Ġwar ned
Ġele ments
Ġdef ence
Ġriver s
gr at
Ġresol ute
Ġplan ned
Ġbell s
Ġcapt ured
Ġstore s
Sh ould
Ġer ror
Ġneighbor hood
Ġexchan ge
Ġaver age
Ġsear ched
U S
c row
o ber
on se
Ġd ense
Ġp ages
as y
Ġr av
Ġsa uce
Ġshe pherd
Ġde em
Ġcon grat
ĠC oll
Ġli kes
um ps
Ġany how
ĠH ol
ach ment
What ever
ens ity
Ġwa x
Ġrel ative
Ġkeep er
Ġmean while
uc ked
Ġbreat hed
Ġsatisf actory
Ġpay ing
Ġprot ested
cell a
ĠWh o
Ġden ied
Ġpref erred
Ġpor ter
Ġinj ured
Ġuncom mon
Ġmedic ine
d in
f e
w yn
Ġw ives
it ute
it ution
Ġd ug
Ġl az
Ġin ward
Ġe re
ir ts
ill s
ri b
ĠS aint
ĠM ex
ĠP ick
Ġcl asped
Ġad just
Ġcount ed
Ġrest less
Ġmo b
Ġsun set
Ġbar bar
Ġleg al
Ġap olog
Ġinqu ire
Ġsevent h
Ġcompl iment
Ġcamp a
Ġlim it
Ġauthor ities
ĠBar b
anch o
isc illa
Ġspect acle
Ġobserv ations
Ġla wn
Ġmeas ures
Ġfatig ue
spect or
ĠPhoen ix
Ġt ig
it ory
Ġd angers
an im
Ġas c
Ġfr ost
ĠM e
ĠB er
Ġbr ook
ĠL uc
Ġcl ung
Ġdis hes
Ġen qu
Ġbl own
Ġsc ra
Ġpass ions
ret on
ĠMar ius
Ġsix th
cri bed
Ġcent ral
Ġpen ny
Ġdemand s
ĠPro v
Ġconqu er
Ġcrim inal
Ġcell ar
Ġmaint ained
ĠDun bar
Ġprivile ge
Ġlan tern
in ence
Ġf ow
Ġe cc
ĠI S
Ġst im
Ġst ooped
ad el
ĠC osette
Ġbr on
Ġcha llen
ber ry
Ġfoll owers
Ġdro pping
Ġadm ired
Ġeng age
Ġwarm th
Ġconfess ion
Ġcheer fully
Ġcover ing
Ġintrodu ce
Ġemp ire
ĠAt l
Ġindiff erence
Ġwithd rew
Ġrig id
" ;
i ency
k i
z ing
Ġg ig
Ġst ret
ur a
Ġan cest
Ġsa iling
Ġbut ton
ul ars
are crow
Ġhas n
Ġoff ering
Ġpo em
Ġacc ess
for th
Ġsub mit
Ġcor ners
Ġpol ic
Ġill um
Ġaccount s
Ġtrans l
Ġmad am
Ġprofess or
Ġsuit able
ĠSe a
Ġentertain ed
Ġvig or
Ġrecoll ection
Ġinvol unt
Ġlands c
Ġrecom mend
Ġswall owed
Ġven geance
Ġsummon ed
I LL
j i
p ort
w art
Ġin her
an ing
Ġth resh
Ġsh o
ge on
ĠM ac
ĠC ross
ĠC orn
Ġli p
pt on
ĠN ow
Ġgl owing
Ġbeg gar
ever al
Ġpres erve
Ġbo ot
Ġcor pse
Ġinf er
Ġdev otion
Ġpar l
Ġtem p
Ġwild er
Ġtor rent
Ġcompl ain
Ġmed ical
Ġkill ing
udd y
Ġundert ake
Ġsolemn ly
ĠAnn ie
Ġange ls
Ġengine er
Ġneglect ed
lean or
O D
V ER
h ire
Ġw retch
Ġm ouse
ing ale
Ġbe nding
le ts
Ġr att
Ġan aly
Ġpo le
Ġcha mp
Ġcons ented
Ġatt ain
aut y
Ġgu ilt
Ġins ol
Ġrun s
Ġhold s
Ġprop osal
Ġcent uries
Ġmad ame
ĠSc ott
Ġoccup ation
Ġty r
Ġemploy ment
Ġrare ly
ĠWil son
Ġthresh old
d a
r ane
Ġm ate
Ġd usk
ar ly
im s
ir med
ct ober
ul a
ge ant
Ġj ar
Ġtr amp
Ġoff ence
ile t
Ġthought ful
Ġcr is
Ġass urance
Ġcertain ty
Ġcur iously
Ġnor mal
ned y
Ġneed n
Ġoccasion al
Ġsol itude
Ġdelic ious
Ġeduc ated
Ġdom in
Ġgrou ps
Ġrail road
Ġcoff in
Ġyield ed
Ġtempt ation
Ġiss ued
Ġcaut iously
ĠAlex and
Ġassemb led
unce lot
ĠJac ob
Ġtheat re
ĠAfric a
b ot
he a
Ġw ages
Ġb red
Ġse al
am ents
Ġk ick
ĠM ur
Ġare n
Ġj olly
ost on
Ġbr ick
Ġtr acks
Ġar ist
Ġim ages
Ġch ur
ĠW here
Ġbl ows
ab b
Ġthr ong
Ġback ward
Ġres idence
Ġbo iled
cept ible
Ġcor rupt
Ġexpect ation
Ġmus ical
Every body
Ġtender ly
Ġpassion ate
ĠAll an
Ġinnoc ence
Ġimpr ison
Ġdaz z
Ġcampa ign
C T
M uch
W ere
b by
r ical
u ity
Ġm ould
Ġm oss
Ġc ir
Ġha ught
Ġst ove
ac co
Ġsu l
Ġso lic
ind er
ĠB ra
un ken
Ġag itation
od or
ag le
ĠL ev
ĠD am
Ġbl owing
ĠF rog
Ġown ed
Ġind ic
ĠK it
Ġsur vey
Ġca res
Ġel bow
Ġnor thern
Ġcol ors
mb re
Ġsn apped
Ġpret t
Ġsum m
Ġpal m
Ġsecret s
Ġtor t
Ġdoll ar
Ġport rait
Ġviol ently
ES T
Ġtemper ature
Ġdistingu ish
Ġbill s
ĠLa uncelot
Ġpurcha se
Ġnarr ative
Ġinterf ere
Ġcomplex ion
Ġperple x
Ġgoss ip
b able
t wo
â Ģ
he m
Ġf anc
Ġc ush
Ġp our
Ġha lt
Ġre ception
ore s
ul es
and al
ind a
Ġal ight
em o
Ġj ury
Ġbr ood
ag ues
ĠT ar
ĠD em
Ġdis d
ĠR og
Ġfl ames
Ġoff ended
ĠN apoleon
Ġcr ushed
Ġhor rid
Ġinc om
Ġspeak s
Ġadv ancing
Ġpol icy
Ġwalk s
str alla
Ġdoll s
Ġbox es
ĠIn spector
ĠEm ily
Ġring ing
Ġhealth y
Ġrail way
Ġcard inal
Ġjew el
Ġmoder ate
Ġenterpr ise
âĢ Ķ
S everal
w ill
Ġb rig
Ġp uff
Ġe h
se ll
Ġdo c
em an
os itions
Ġab oard
ĠL ily
ond ay
ĠR ock
ĠJ os
ĠJ asper
Ġhouse keeper
Ġansw ering
Ġrep ose
Ġmin or
Ġca vern
Ġform ing
Ġform idable
vel ope
Ġexpl os
Ġclear ing
Ġpat ron
Ġrespect s
Ġjud ges
Ġpen cil
Ġce iling
Ġattempt s
Ġresp onse
Ġspeed ily
Ġsong s
Ġwel com
Ġimper fect
Ġspect acles
Ġliter ary
Re ally
Ġfortun es
Ġexperi ences
ĠSpan i
Ġerr and
nat ural
Ġconven ient
Ġachie ve
C ar
J ack
c hard
g n
h ic
Ġt um
Ġs om
Ġw oke
ll o
Ġl ust
ut ter
se en
Ġr ings
Ġse ats
Ġde er
ri a
ri al
Ġman s
Ġint ently
ĠB oston
Ġbr ut
Ġtr ifle
Ġsha ken
ĠW olf
ĠF anny
ire ct
Ġpre l
Ġgl ancing
Ġbo iling
Ġpers isted
for ce
ru ce
Ġhum ili
Ġaw aken
Ġdoubt s
HA T
ov na
Ġstud ent
Ġconv ict
ĠEd ison
Ġdread fully
Ġconfess ed
Ġstir ring
asp ing
Ġbull et
Ġdism ay
Ġdispl ayed
Ġenv y
Ġacknow ledge
ĠNat asha
Ġcompass ion
ĠSil ver
ĠDra ke
Ġpub lished
Ġdismiss ed
osc ow
I M
b l
f old
s omet
u z
nd y
Ġb onn
Ġp atter
es ter
om er
ir k
Ġr uff
Ġnot withstanding
Ġsu llen
Ġwhe at
un ny
um ing
ĠT re
ĠD es
ĠW ind
Th ou
ĠK ent
Ġret ire
Ġple aded
Ġarm ies
Ġdisc our
pr ing
Ġgener ation
be cause
Ġlear nt
ĠFr anz
Ġpar liament
Ġbreat he
cul es
Ġsecret ly
ĠSc arecrow
Ġforget ting
Ġthank ful
Ġmut ual
Ġspec im
Ġkey s
Ġaffection ate
Ġcruel ty
Ġappoint ment
Ġperform ance
Ġeconom ic
ĠGil bert
Ġmead ow
Ġdisci pl
Ġsym pt
Ġmagist rate
Ġparl our
H alf
S p
i as
w l
is er
Ġf ame
Ġto il
Ġl ace
Ġre ign
Ġr agged
ie utenant
ĠS ec
Ġv ulgar
Ġwill ingly
Ġj un
ĠP o
Ġpl ed
Ġyour selves
Ġtr im
ĠT oby
Ġcl ay
Ġdis like
Ġen velope
ab or
Ġjust ified
Ġdes cent
Ġmost ly
Ġchild ish
Ġspeak er
Ġstart ling
Ġremem br
Ġreason ing
Ġprop riet
Ġconc ert
Ġscar let
gr am
Ġsweet ness
Ġcolour s
ĠLe on
Ġbeha lf
Ġscr ut
Ġtight ly
Ġstern ly
Ġmaint ain
Ġsuppl ies
ĠVen us
Ġteleph one
ĠHoll and
E v
N at
e ous
f ly
p ass
y our
y odor
in ating
Ġs ack
Ġo ven
Ġto b
ge red
ĠS pargo
ĠP inocchio
hing s
Ġsp ots
ĠD anglars
Ġfl ock
Ġfl owing
Ġsc or
Ġcons ists
Ġpres ident
Ġhum our
ĠPr ot
Ġart ific
Ġlad s
Ġsens ations
Ġcre ep
ĠAl bert
Ġenjoy ing
Ġlim its
Ġgro ve
Ġbow l
Ġprepar ation
ĠLou ise
ĠFlor a
Ġecho ed
Ġdisgu ise
Ġvel vet
ĠCong ress
I nt
g re
i ate
j ac
s p
u ated
v ag
Ġt our
Ġs ke
Ġw ha
it ect
Ġp all
ar ation
Ġbe ars
Ġr ay
Ġr ational
am is
Ġcon ceived
ĠS av
Ġint e
ĠP orthos
Ġbr andy
Ġtr ous
Ġam iable
Ġcl osing
Ġper t
Ġper sec
Ġind uce
Ġimp uls
Ġcons isted
Ġcount y
Ġrec on
Ġreg ards
Ġpleas ures
ĠHe re
ĠThe se
Ġlarge ly
Ġlead s
Ġtra ged
Ġmed ium
Ġball s
Ġpolit eness
Ġadvant ages
Ġscre am
Ġplant ed
off in
Ġgle am
Ġhyp not
Ġtot al
Ġsimpl icity
ĠSol omon
Ġgor ge
Ġstruct ure
Ġcris is
G E
L ong
e very
ha st
Ġd ict
an ite
at us
ot hes
Ġth umb
ad le
Ġsa ving
Ġde eds
Ġcon ject
ust ace
ĠS m
ĠM oscow
ĠC ent
ra v
Ġcan v
Ġbr ass
ĠR od
ress ing
ap ing
ĠJ an
Ġpre m
ps on
Ġseem ing
Ġrest ore
Ġste ward
Ġplay s
Ġprin ces
Ġra ft
Ġleg isl
Ġdest iny
Ġcommand er
Al so
Ġarr ows
Ġpeace ful
Ġoccup y
Ġimm ort
Ġvol can
Ġextra vag
Ġprev iously
Ġpick ing
bur gh
Ġterr ified
Ġbold ly
reg ular
Ġencour aged
Ġswim ming
Ġrespons ible
Ġrab bit
Ġanch or
Rem ember
ĠSar ah
Ġasc ertain
Ġlandsc ape
F ive
F ort
O ver
i our
n ic
p ing
Ġw ol
ha ve
Ġm athe
Ġl ots
ar in
om b
im er
ĠI van
Ġre in
Ġre vel
all el
Ġup set
ĠA sh
Ġpro sec
Ġsp ur
Ġtw isted
op l
Ġgr ain
ĠE v
Ġnow here
Ġthen ce
ĠW ater
me nded
Ġcons pic
Ġansw ers
Ġhor n
Ġcare less
ib ri
Ġtre mble
Ġinter c
Ġsecret ary
Ġsuccess ion
Ġcre st
Be ing
Ġfle e
Ġdecided ly
Ġbless ing
Ġcomb at
Ġcomb ined
Ġsla very
Ġlod ging
Ġpersu ade
Ġconqu ered
Ġfrank ly
Ġsuppl ied
Ġinstit utions
Ġforbid den
Ġemphas is
Ġchur ches
e ven
m outh
o gg
w r
Ġb ite
Ġd arted
ld er
al o
Ġwh ither
ur able
ie ves
Ġqu art
Ġag ents
Ġag itated
Ġam bit
urn ed
ĠH ard
Ġdis order
ount ed
ĠK e
Ġfound ation
Ġatt ained
Ġfather s
ug s
Ġbig ger
Ġdream ing
Ġbright ly
ĠCl oud
Ġdisp ute
Ġsuper st
Ġcra zy
Ġund oubtedly
ĠPar liament
Ġmaterial s
Ġindividual s
ribut ion
Ġtele g
Ġassert ed
Ġder ived
ĠFreder ick
C H
y ard
Ġw its
Ġb er
Ġb other
Ġc ows
ing e
Ġp ushing
Ġg n
ĠI d
Ġre cei
Ġst are
ad dy
Ġsa ils
Ġbut t
ĠS ancho
ĠB ird
Ġj er
ĠL at
op h
ĠD uchess
Ġgr asped
Ġdis cl
Ġbl oss
ĠR E
Ġfl ies
Ġrem edy
Ġsc ared
Ġres erve
Ġcr umb
ĠK l
Ġcount ess
Ġinc ap
Ġprom ises
ific ations
Ġir re
Ġwild ly
Ġtrave lled
ĠGr ant
Ġeager ness
Ġclim bing
Ġsuspic ious
Ġvirt ues
Ġinj ury
May be
Ġlux ury
Ġjack et
S il
i ents
s man
Ġm ask
it o
or pe
Ġp aces
Ġn ic
ver ted
Ġst ained
il ian
Ġv ault
Ġkn elt
em ents
ĠG raham
Ġtr am
ĠL ight
Ġgl ances
Ġres erved
Ġinter val
Ġmon ot
Ġaw fully
ĠPr iscilla
Ġhur rying
Ġmis er
Ġsurpr ising
Ġblood y
Ġjud ged
Ġcommon ly
Ġrid ge
ĠCon n
Ġcand id
Ġcand les
Ġimpress ions
Ġshop s
Ġinde f
Ġunw illing
ĠSqu are
Ġapplic ation
Ġlect ure
Ġpeas ants
Ġtob acco
N ew
N onsense
R ob
T ad
d ig
o ch
r ade
Ġt ar
Ġt ap
ou ch
Ġd ine
Ġl emon
ar l
ar ge
Ġbe es
Ġre ass
Ġwh it
Ġst amp
Ġwe ighed
Ġr at
Ġr hy
Ġshe lf
Ġv est
Ġv ote
Ġal as
Ġj est
um an
Ġdis in
ĠE llen
ne ath
Ġcont ains
ĠO x
iz es
Ġfound ed
Ġear liest
Ġser pent
Ġrel ax
Ġcare lessly
Ġwonder fully
Ġswe ep
Ġart s
Ġcold ly
Ġir regular
ĠFr iday
ats y
Ġpain ting
Ġequ ality
Ġve x
Ġmem ories
udd ing
AN D
Ġwand er
ĠPe ople
Ġoper ations
Ġarrange ments
Ġmagic ian
Ġtempt ed
Ġinterp osed
Un cle
Ġarch itect
Ġnurs ery
Ġcig aret
Ġobed ience
Ġbewild ered
Ġinsp ired
Ġwip ed
Ġrele ased
H T
k ers
o il
u v
Ġt ip
Ġt enth
ly ing
Ġst amped
il ful
ul ations
Ġsh oe
Ġex agger
est ion
ĠS er
ĠS um
ĠA fter
ĠG en
Ġen abled
Ġch ill
ĠJ ason
Ġcr ash
Ġstill ness
Ġcomm ittee
Ġco arse
Ġrec alled
Ġsw inging
Ġbelie ving
Ġdisc ourse
Ġtre ad
Ġpleas ing
Ġsmall est
Ġbeaut ifully
Ġclose t
be cca
ĠBr ight
Ġspr ings
rie nd
Ġpat iently
Ġcoll ection
Ġsuper in
Ġmad ness
Ġincl uding
Ġremain der
Ġemb race
Ġpurs ue
Ġlie utenant
Ġfurn ish
ett a
Ġrough ly
Ġemp hat
Ġrevol ver
Ġclaim s
ĠPet er
Ġinquir ies
Ġcord ial
Ġpig s
Ġfro zen
Ġcompar ison
Ġric hes
Ġcorrid or
Ġtum ult
E l
E m
a ired
m ir
p hant
Ġ iv
Ġa str
Ġs ins
Ġm as
Ġm art
Ġc ash
Ġc ats
ic an
ur g
Ġr ice
ac ific
Ġsu ited
ĠM ort
Ġv ap
ra ft
ĠB reton
ĠP ers
ĠG all
ĠG len
ĠE leanor
ear s
ĠW ard
Ġback s
ĠN a
Ġsc rap
Ġcont est
Ġind uced
ĠO t
Ġwork men
Ġrep air
Ġdr um
Ġche m
Ġlar gest
ĠAnd y
Ġsn atched
Ġinv al
Ġmus k
Ġest im
Ġprodu ction
Ġang uish
ĠCl ara
Ġrecogn ition
Ġrecogn ised
ĠCom p
Ġpath s
Ġloud er
Ġgro aned
Ġisland s
Ġbrave ly
Ġfier y
Ġthreat ening
Ġreport s
Ġinvol ved
Ġz eal
Ġdw elt
Ġprint ed
Ġspl it
Ġham mer
Ġshudd ered
Ġawa ited
ĠPal ace
Ġshru gged
Ġfount ain
ĠCast le
ĠTem ple
G eor
S peak
e ers
o id
o let
Ġs inking
Ġb ough
Ġf ist
Ġf oul
Ġc ous
ing ham
Ġl ane
ar th
Ġin sect
im ony
Ġr od
if orn
Ġme lt
Ġde fect
res a
ĠA c
ĠA ss
ĠB ald
ĠG al
ĠD iamond
Ġover head
ĠE s
Ġbl ade
ĠF yodor
Ġstr icken
Ġsc rew
iver se
Ġrepl aced
ken ess
Ġbar rel
Ġve hic
ĠCl ub
ĠSp ir
Ġvill ain
Did n
Ġemb ro
Ġhunt ed
Will iam
Ġhes itate
Ġfault s
ocr acy
ĠAm elia
Ġtend ency
Ġannoy ed
Ġawa iting
Ġestablish ment
Bet ter
Ġdoctr ine
Ġinterc ourse
Ġcous ins
B less
C le
e a
f ive
g ive
r ise
Ġs ie
Ġs han
Ġf ert
Ġp ave
ĠS un
Ġfe ature
Ġkn eel
Ġj aws
ick er
Ġimp et
Ġhor r
ph ia
Ġopp ress
Ġbar on
Ġmer c
Ġlow ered
Ġpartic ulars
Ġdest ined
ĠCa pe
ES S
ĠEm ma
Ġtast ed
Ġharm ony
Ġrob bers
Ġmagn et
Ġbag s
Ġsuffer ings
ĠJim mie
Qu ick
enc roft
Ġreb ell
Ġhaunt ed
Ġeleg ant
Ġwilder ness
C ol
E lsie
H a
d ed
p ense
t es
nd ers
er ving
Ġb ishop
Ġf ant
es y
Ġl amb
Ġse ize
Ġcon ceive
ĠM onday
un ks
Ġpl ains
Ġbr ows
ĠD ay
Ġus es
ĠF el
Ġsm iles
Ġspe ar
ĠN emo
Ġsc ent
Ġwhere as
Ġjust ify
Ġdes erved
Ġent it
Ġco pper
Ġco inc
Ġsw amp
Ġref erred
Ġform al
Ġvis its
lic ted
Ġexc iting
Ġpol ished
Ġdecl ined
Ġquar re
ĠAd ams
Ġtail or
err ing
Ġhost ile
ett le
ĠBrit ain
Ġrank s
ĠTur tle
Ġcaut ion
Ġprofession al
Ġwithd raw
Ġrespons ibility
Ġnut s
Accord ingly
Ġinev itable
Ġsurre nder
Ġcaval ry
wyn pl
Ġtrous ers
M an
R A
S it
b o
e au
m od
r ates
w orth
Ġw ounds
Ġf illing
Ġp ip
es c
Ġl ur
ar ia
Ġn iece
at isf
Ġha ul
ot ty
Ġr osy
il ton
ri an
us al
Ġor g
ĠC ham
ĠB offin
ig ning
Ġpro dig
ĠW orld
Ġad apt
Ġsc ound
Ġset s
Ġmother s
Ġdr unken
Ġrel ate
Ġmon k
Ġfact ory
Ġmis under
Ġele v
cri ption
Ġmod el
Ġve xed
Ġvan ity
Ġdiscuss ed
Ġsav ages
Ġimper t
ĠPet ers
Ġafford ed
Ġsevere ly
Ġunconscious ly
Ġmeas ured
Ġcompar atively
Ġcig ar
ĠMic hael
Ġimprove ment
Ġprosper ity
Ġgrav ity
Ġincred ible
ĠRev olution
ĠCoun cil
ĠConf eder
ĠRa oul
ĠPick wick
wynpl aine
' --
J ul
J ean
L ast
T oo
b urn
f ashion
g reg
s is
re ction
Ġb its
Ġc ub
on a
Ġd un
Ġl amps
Ġn ap
ad ok
Ġex tend
Ġare a
Ġpl acing
Ġpro str
Ġtr aces
Ġam using
Ġsha ft
Ġch icken
ci an
act ly
ĠN e
Ġacc ent
Ġte xt
Ġwa ving
Ġconf irmed
Ġref res
Ġmon str
Ġdear ly
Ġsent iments
Ġhear th
Ġpar ish
Ġprov ide
any ard
Ġheaven ly
Ġshore s
Ġver se
Ġpure ly
Ġfier cely
Ġarg uments
Ġvig orous
Ġbid ding
Ġsteam er
Ġwhist le
Ġtransp ort
Ġsurround ing
Ġfisher man
Ġslee ve
Ġincon ven
Ġresour ces
Ġglo ves
adel phia
Ġgig antic
mbre lla
iforn ia
n ut
r oo
r idge
er o
it ors
Ġc u
or ry
Ġl ent
at o
Ġg ang
Ġbe nd
id dy
Ġre form
Ġshe er
ch us
Ġsu ck
ant ial
Ġwor ried
Ġun gr
Ġoff ices
Ġind isp
Ġret ain
ail ing
Ġdisc om
Ġadd ing
Ġcol umn
Ġsou p
sh ips
Ġappro ve
Ġexpress ions
Ġeffect ive
Ġremember ing
Ġsus pended
Ġhast y
ĠBut ter
Ġfun ction
Ġguard ed
Ġproud ly
Ġrob bed
Ġexcell ency
Ġcapt ure
Ġbeha ved
cher s
ĠRuss ia
Ġindepend ence
Ġpreced ing
ĠNight ingale
Ġtravell er
Ġwrit ers
Ġapr on
Ġirres ist
Ġdisd ain
Ġremembr ance
fashion ed
G u
M Y
N ear
R ight
h ile
i pl
u per
in ement
Ġb ord
Ġc ens
Ġth ieves
ir s
Ġher oes
Ġor ange
ĠB or
Ġtheir s
Ġpro long
Ġsp y
ĠH undred
Ġsha red
Ġro ared
ĠE stralla
oy ce
ap sed
Ġcar s
Ġlo af
Ġrec ently
Ġsub du
Ġbre ed
ĠMar cella
Ġdoub ted
Ġele phant
Ġobject ed
Ġsy mb
Ġmus cles
Ġexam ining
Ġrock y
Ġdesp ite
Ġdiv ision
ĠNor thern
rop he
Ġmot ives
Ġsuspic ions
Ġcomb ination
ĠGu y
Ġbrief ly
ĠComm ittee
Ġjump ing
Ġexchan ged
Pro bably
Ġconvent ion
ĠRo ad
Ġdepri ved
ograp hy
Ġconstruct ed
Hen ry
Ġpotat oes
P hil
b oy
c r
i pt
m aster
u gh
v ous
he us
in et
Ġs outhern
Ġst ake
ac inth
ch n
qu es
ĠC ro
Ġv ary
Ġv iv
Ġli keness
art ment
Ġle nd
ig an
op s
ass ad
Ġsl ay
ĠO s
Ġinst ances
ject ion
Ġho arse
land s
ĠV alley
Ġstrong est
Ġdef ense
Ġstud ents
Ġspo il
Ġdeterm ine
Ġbreath less
Ġsitu ated
Ġagre ement
just ice
Ġfavor able
Ġwealth y
Ġmel ted
ĠGovern or
Ġamaz ed
Ġrad iant
Ġspark ling
Ġrout e
Ġtravell ers
Mad ame
Ġrag s
Ġphot ograph
Ġalt ar
Ġwelcom ed
L ove
M onsieur
g ence
t ies
Ġt act
Ġm uff
Ġm ule
it ious
Ġc y
Ġc reek
Ġh ired
Ġg y
st ra
Ġse aled
Ġso ap
ul p
Ġsh ocked
ĠS au
ĠC ard
ĠC ass
ĠC arr
ist on
ĠA my
Ġqu it
ĠL ow
ink ling
ĠD iv
Ġen able
ĠW inc
ĠF le
ĠF our
Ġfl av
Ġdon key
ĠO ak
Ġacc um
here nt
og ue
Ġdisc ont
ĠSt ar
Ġpleas antly
Ġopp on
Ġcirc ular
ĠFr om
Ġstud ying
ĠBl ood
Ġdress es
Ġru ins
Ġproceed ings
Ġsepar ation
Ġreflect ions
ĠPhil adelphia
Ġthro b
Ġimpro ved
Ġrom ance
ĠMil ton
Ġtest imony
Ġbas in
Ġcomr ade
Ġvictim s
Ġfrag ments
Ġdefe at
Ġtrad ition
Ġpup il
eight een
Ġsignific ance
Ġcommer cial
Ġhed ge
Ġperman ent
Ġtig er
Ġconspic uous
F l
S ha
b id
g om
n ings
o cc
r owed
he ard
in er
Ġs hat
ou st
Ġc akes
Ġd irt
Ġp ha
Ġp onies
Ġn ay
Ġe c
ic it
id a
ent ine
ce l
Ġr ows
Ġfr uits
Ġde gr
ĠM a
ĠC hat
ĠG os
ĠT en
Ġcl ust
urn ing
ĠD ep
Ġdis li
per haps
Ġrem orse
Ġsl id
Ġcr imes
ens ions
Ġend less
ret ion
Ġwind ing
Ġreg ions
Ġass ented
Ġcur se
Ġadv ise
ec hes
Ġobser ving
ĠGre gg
Ġprev ailed
Ġreve al
Ġrom ans
Ġcrit ical
Ġmour ning
Ġsob bed
Ġcliff s
Ġtrib es
ĠPark er
Ġproc ured
Ġpir ates
Ġglit tering
Ġmans ion
Ġcanv as
Ġwol ves
L ater
b es
g one
r ating
Ġw estern
re ne
Ġb unch
Ġhe el
ic ians
if ty
Ġse ed
Ġde w
ĠS ome
Ġman agement
Ġv ital
Ġal ert
ast e
ĠB eth
un s
ĠP ri
Ġqu itted
ink s
ĠD ot
Ġro be
ĠR ost
You ng
Ġstr ained
Ġsl ipp
Ġind icate
Ġcour te
Ġacc used
Ġhapp ening
Ġmar s
Ġperson ality
Ġlead ers
Ġcre eping
Ġspo iled
ĠBe auty
Ġcou ch
Ġsword s
Ġdign ified
Ġassoci ated
Ġbas is
Ġresemb lance
Ġprim itive
Ġcompre hens
Ġdeliber ately
Ġstrict ly
bre ak
Ġdischar ge
Ġtal ent
Ġconsol ation
Ġrene wed
Ġinfer ior
ĠOx ford
ĠWinc hester
G l
L D
h or
i ary
o ked
t ime
w ould
Ġw ag
ha ble
Ġb ol
Ġm ute
Ġm axim
it ched
Ġf itting
Ġp ouring
Ġl ions
Ġin cess
Ġin justice
ut ing
Ġfor s
Ġst ately
Ġfr og
il us
ri pp
Ġcon j
ĠS and
Ġv ine
Ġout rage
Ġthere by
ĠB on
ak ers
Ġj ail
ck s
ĠL ang
Ġbl ushed
Ġgreat ness
Ġold est
Ġcha ins
Ġpass ages
Ġhar ness
Ġcar ved
Ġput s
aut ilus
Ġsub tle
Ġext rem
ony ms
ĠAn ge
Al most
Ġstreng then
Ġconv uls
Ġthick et
Ġsol ution
Ġshout s
Ġda res
athe tic
Ġdepart ment
ĠCol umb
ik ov
che on
Ġlod ge
Ġwaist coat
Ġappreci ate
Ġling ered
Ġcontrad ict
Ġbatt les
Ġtempor ary
Ġdeem ed
Ġbron ze
Ġbonn et
Ġartific ial
Ġtraged y
J ane
b ited
d id
it ations
Ġc age
or us
es lie
Ġg ames
Ġg arr
ic ial
Ġse m
Ġsh ine
and a
ard ed
ĠC ousin
lf are
Ġqu ivering
ĠW end
ĠR ay
ount ered
Ġpe ered
Ġback ground
Ġunder neath
ps y
ĠN autilus
ix on
Ġcar pent
Ġwork ers
Ġpres ume
Ġwr ist
Ġnew ly
Ġreturn s
Ġsub l
Ġperson ally
Ġappear ing
Ġdef iance
Ġlow est
Ġconsider ably
ĠAl m
ĠDe v
Ġvill ages
Ġproceed ing
sequ ently
Ġshr ill
Ġshr ank
Ġadmir able
Ġcapt ive
Ġattract ive
Ġbare ly
Ġdism al
Ġuneas iness
ĠJew s
Ġcitiz en
bour ne
Ġleap ing
Ġpup ils
Ġcommer ce
Ġphenomen a
Ġtid ings
Ġdiscipl ine
ĠLat in
Ġentit led
Ġec st
F ar
U T
e le
f our
s uch
u a
z es
Ġo ars
Ġm ap
Ġm ules
on om
ing le
or ney
Ġl ined
ar med
Ġbe fall
ic ient
Ġwe igh
Ġwe lfare
ac re
Ġde ceive
th ren
Ġint ol
os is
Ġcan oe
Ġsp ared
ĠH on
ĠE mp
ĠW y
Ġbl ush
Ġfl u
ull iver
Ġpo ets
Ġfir ing
ne cess
ĠO jo
Ġsur m
Ġrel atives
atch ing
Ġopen ly
Ġcur sed
Ġter min
Ġgener als
Ġgener osity
Ġblack s
Ġhur led
Ġfair ies
br ows
Ġequ ip
Ġsqu ee
Ġcomfort ably
ĠBut ler
Ġcommand s
ĠDe ath
Ġresol ve
Ġenc ountered
Ġwarm ly
Ġincl uded
Ġlord s
Ġintellig ible
Ġrub bing
Ġcook ing
Ġhyp othes
ĠEar l
Ġexha ust
Ġgreet ing
ache lor
Ġpant ing
Ġpolite ly
Ġax e
Ġenchant ed
Ġard ent
ĠKen nedy
Ġdesir able
ĠHenri ette
Ġstag gered
Ġcryst al
Ġju ice
Ġmathe mat
ĠSpir it
Ġmonstr ous
roo ge
A unt
I mp
T ow
W on
e qu
p ha
Ġw aking
Ġn erve
se ven
ent le
Ġsh ower
ant a
ant ine
Ġv ener
Ġv ib
ĠA ng
Ġle agues
um erable
ĠP av
Ġcan e
Ġpr ow
op er
ĠT al
Ġam ple
ĠD r
Ġper ception
ĠJ uly
ĠJ udge
Ġey el
Ġsc andal
Ġent r
Ġser ving
Ġass ault
Ġneed le
Ġra pt
ats on
Ġpar lor
ric ult
Ġaffect ions
Ġclot hed
tern ity
ues day
Ġcompl icated
Ġball oon
Ġsick ness
Ġtast es
Ġconn ect
Ġspread ing
Ġscre en
Ġbod ily
Ġinvent ed
Ex actly
Ġproble ms
bor ne
Ġexhib ited
Ġembarrass ment
izz ie
Ġobsc ure
Ġabst ract
Ġembr aced
Ġappar atus
Ġglob e
ĠHol mes
rane an
ĠProt est
Ġincap able
E LL
U N
b an
b orough
c ham
e ur
m ates
u ation
Ġf ug
on i
Ġh oof
Ġin it
Ġn ails
Ġg ird
Ġg amb
Ġre lease
Ġr ipe
ul ously
ĠC oss
ind ing
ast ing
Ġab ode
ĠG ard
Ġtw ist
ĠE ll
ab ella
Ġper ish
Ġpe er
Ġsc ant
omet er
Ġfa ire
Ġcomp osition
Ġcons pir
Ġwr ites
Ġsupp ressed
Ġsw am
Ġnat ives
Ġdre aded
Ġaw hile
Ġadv oc
ph in
Ġpat riot
Ġbene vol
ĠNor a
Ġcost ume
IS T
ĠDav y
Than ks
Ġattend ants
Ġrejo iced
Ġlod g
Ġexec uted
Ġliter ally
Ġtrick s
ĠCal ifornia
Le ave
Ġselect ed
Ġliqu id
ĠMid dle
Ġpolic eman
ĠSpani ards
gom ery
D es
S im
T hings
n ie
p ool
Ġs ar
Ġs ledge
Ġc ove
Ġc ooked
or ks
Ġp hant
Ġl il
ic ago
Ġwas hing
ĠI m
al ty
Ġr aw
ill ery
Ġse ction
He aven
Ġwho les
ĠP atsy
ĠP acific
Ġpl ague
Ġinto x
ĠL ife
ĠT ree
ĠH or
Ġover fl
ĠW atson
ĠR os
In st
ip h
oth s
Ġrep ublic
ru ary
Ġvo c
Ġexp enses
Ġass ass
Ġass isted
ĠU nder
vers ion
Ġearth qu
Ġappro ved
Ġeye brows
Ġcre ation
Ġcre ate
Ġjoy ous
Ġprot ected
Ġwis er
Ġgrow led
Ġjour nal
ĠCom mission
ĠSo cial
ĠTr ot
Ġrecom mended
Ġrestr aint
Ġident ity
Ġblaz ing
Ġpil gr
Ġga ily
Char les
Str ange
Ġclergy man
ĠRep ublic
Ġtreas ures
Ġcrumb s
Ġsuperin tend
A K
S ure
T ime
b et
i antly
Ġb ased
Ġf uss
Ġto night
Ġbe e
Ġst retch
ur red
ur ation
ad ise
Ġis ol
Ġme als
am in
pp ers
Ġsh rew
ĠM err
itt ered
Ġgo dd
Ġun iverse
ĠL ieutenant
ĠT y
Ġen velop
iz ard
Ġmoment ary
Ġfear ing
Ġexpl ore
Ġpast e
Ġconst ruction
St ay
ines e
Ġprov ision
Ġbank er
Ġfool s
ĠHer cules
Ġtail s
Ġcho pped
Ġintrodu ction
Ġmach ines
ĠRe becca
Ġbeha ve
Ġpack et
AT ION
ĠWe gg
Ġneighbour s
Ġdam age
Ġreckon ed
Ġcult ure
ĠAb raham
Ġdistr ust
Ġconsult ed
nat ured
Ġcultiv ated
ĠDur ham
ĠJapan ese
Ġnaught y
Ġpave ment
F our
H arry
P P
W he
v ant
v ial
Ġw ool
Ġto ast
Ġl ic
ent ieth
Ġre n
ir on
Ġst ing
Ġr ises
Ġme ek
ĠC as
ra el
ĠB re
ĠB ear
Ġqu aint
ĠE ustace
Ġbefore hand
Ġpo nder
ord s
int on
Ġdist ressed
Ġmar rying
ret ty
ale m
Ġinc ons
Ġdra gging
Ġsk ins
Ġfore s
ins on
Ġinv ari
Ġexc urs
Ġele ction
Ġdef in
Ġexcl amation
Ġanim ated
Ġtra g
Ġexist ing
Ġsad ness
Ġaccom mod
Ġwin ning
Ġcourt esy
Ġinn umerable
Ġkiss ing
Ġcat ast
Ġvol umes
isc o
Ġapart ments
Ġcustom s
Ġencour age
Ġencour agement
Ġoutl ine
Ġcorrespond ence
ĠSqu ire
Ġtransp arent
Ġobv iously
Ġemer ged
Ġshudd er
Ġcontri ved
Ġattent ively
ĠSher iff
Ġcraw led
Ġperpet ual
Ġapprehens ion
ĠDar cy
Ġnav ig
ĠAlexand rov
somet hing
ĠComp any
Ġinvari ably
' "
A pp
J o
a ith
w est
Ġs ire
Ġm aj
ar ian
an ia
Ġha w
Ġha re
Ġe agle
Ġre app
Ġwh ir
Ġr ash
ac iously
ight y
ri ages
all ing
us cript
ĠS har
ĠM ouse
ĠM oses
ard ier
ĠC ont
ĠC yr
Ġfe min
ol es
ĠB a
ĠB ig
ĠB ook
ide l
Ġtim ber
Ġbr and
Ġun in
Ġcl aimed
ĠH ay
ff ic
Ġdown ward
Ġwa iter
ss es
Ġref resh
Ġel abor
Ġsun ny
ash ka
Ġinv ite
ane ous
Ġaff irm
Ġbar ric
Ġpat ent
St ep
ĠChrist ians
Ġtem pered
Ġled ge
Ġmouth s
Ġstick ing
go ing
Ġhy ster
Ġdelic acy
Ġliber al
ik o
fortun es
Ġreck less
Ġfarm ers
Ġhol iday
Ġfever ish
Ġswall ow
Ġassemb ly
Ġlux ur
Ġcalcul ated
ĠConst itution
Ġconsum ption
Ġbatter y
Ġvers es
Ġappropri ate
ĠAtl antic
Ġsympt oms
ĠId iot
Ġsubdu ed
ĠPav l
Ġgodd ess
. ,
H ard
I F
L ife
O b
j ames
n or
Ġf oe
on ia
Ġp add
Ġha ts
Ġas ks
Ġst ool
ĠM ull
ĠC re
ĠC amp
Ġman uscript
Ġkn it
un ities
ĠG erm
ag an
Ġtr ot
Ġloo s
ĠT ulliver
Ġcl aws
Ġsha lt
Ġdis aster
Ġdis ob
Ġch ron
ĠW igg
Ġspe cially
ft en
Ġres ort
Ġown ers
Ġimp art
Ġcr ow
Ġcour ty
Ġright eous
Ġcomm it
Ġheart y
Ġte chn
Ġdr ifted
Ġbest owed
Ġwo e
be y
Ġlad en
Ġearth ly
ĠAr amis
ĠY OU
Ġdisapp ro
Ġcommand ing
Ġguard ian
Ġver d
Ġcommun ic
Ġscr amb
Ġstuff ed
Ġstock ings
ĠSam uel
Ġteacher s
ĠScot ch
Ġpear l
Ġdisturb ance
Ġanticip ated
Ġcir cles
Ġhaught y
H old
H ush
O l
S ylvia
T en
g on
l p
l ine
m aid
r ice
u pt
Ġhe n
Ġn our
Ġre ver
Ġst ooping
ro l
Ġwho ever
ĠB etty
Ġpl uck
Ġpl ates
Ġtr unks
Ġun kind
Ġun necess
Ġpr ime
Ġpr udence
Ġcl ad
ĠE very
ĠW hy
ĠF er
Ġfl owed
Ġfl ush
hen ka
Ġspe nding
Ġob li
Ġcr adle
ult ies
Ġhapp ier
Ġte am
Ġgu ided
Ġhor ns
oub t
ĠCh icago
ĠCh inese
Ġmo ves
,-- "
Ġdre ary
vers ed
ane ously
Ġrespect ed
Ġsus pense
Ġstud ies
Ġacqu ire
Ġmaid ens
AR T
Ġhes itating
Ġpeculiar ly
Ġcommun icate
Ġgar ment
Ġstat ue
Ġreve rence
Ġpictures que
Ġinvent ion
Ġassoci ation
Ġindign ant
Ġblank ets
Ġpurcha sed
Ġdig ging
Ġsob bing
Ġmechan ical
Ġthirst y
Ġsteal ing
Ġproc ure
Ġintim acy
Ġsust ained
Ġbrisk ly
Ġrasc al
ĠProv idence
Ġchallen ge
b ows
e h
f ish
h ind
m un
Ġt as
Ġw ars
nd e
Ġb ounded
it he
Ġf its
Ġf ishes
Ġd oth
Ġd ial
Ġg au
id ences
Ġr ot
Ġk icked
ri ety
Ġex ult
us henka
Ġor chard
Ġab y
ĠB ath
ĠB ank
um pt
ĠT or
Ġover p
Ġhand ful
Ġcr ust
Ġear ned
Ġwr ought
Ġsw ing
ĠCh ina
Ġbre thren
Ġdiffere nces
Ġhorse back
Ġmis fortunes
Ġswe at
Ġbar r
Ġforg iven
Ġrequ is
Ġprov ince
Ġdesp ise
Ġdesp ised
Ġcrowd s
ĠFrench man
Ġpun ct
Ġnin th
Ġbab ies
Ġbitter ness
Ġmir th
ĠSe ptember
Ġenthusi astic
Ġindign antly
Ġroll s
Ġcondem n
Ġhun ters
Ġinstit ution
Ġembarrass ed
Ġsincere ly
Ġprejud ice
Ġpars on
IG HT
Ġlodg ings
Ġshrew d
S m
Ġb race
Ġm are
it ably
Ġp ang
le g
ut t
Ġth ine
Ġre verse
Ġst u
Ġr aces
ill ings
am med
Ġsu lt
Ġwere n
ĠS E
ĠS cript
ĠM ax
ĠC elia
ĠB art
Ġpl ac
el a
Ġcl inging
ĠE p
ĠF ore
Ġapp e
ĠJ ove
Ġdes igned
Ġcar go
iv ities
sel s
As k
Ġexp ensive
Ġcor por
Ġread ers
Ġinter nal
ung le
Ġvis iting
Ġlady ship
Ġexcl aim
ĠAr my
Ġdifferent ly
Ġrequ ested
Ġve ins
Ġvar ied
Al ways
Ġfaith fully
ĠWh ich
ĠBar ry
Ġant agon
Ġant iqu
Ġstro kes
Ġfashion able
Ġhonor able
ĠAll ison
Ġmir acle
Ġfalse hood
Ġcivil ized
IT H
Ġunw orthy
Ġdiss ol
Ġminister s
Ġvague ly
Ġgrie ved
Ġpear ls
Ġpier ced
Ġdischar ged
Ġabund ance
Ġconvey ed
Ġtemp est
Ġcigaret te
Ġscound rel
ĠWend y
D av
H ur
Q U
b ation
i ations
m ain
r as
z il
Ġw ig
Ġb isc
Ġf ab
Ġc ough
or ce
Ġp ulse
Ġhe aps
Ġl ame
ic ious
Ġy awn
ent ially
Ġst alk
Ġmy th
Ġne ut
ĠM ess
ĠM ore
ĠM az
ĠC ur
ĠC ON
Ġv ag
ound er
itt e
um ption
ĠL amb
ĠW estern
ĠF ult
Ġback wards
Ġacc us
Ġac id
Ġread iness
Ġhum b
Ġhigh way
oun cing
Ġopp ressed
Ġspr ung
Ġmeet ings
ĠAr k
Ġpain ter
Ġbreak s
Ġtear ing
Ġsqu ir
Ġimag in
Ġsuccess fully
Ġbright ness
Ġwhis kers
Ġtrave ling
ĠIs rael
inc ent
OR Y
Ġfal tered
Ġcho ked
nes day
Ġid iot
Ġrecord ed
Ġendeav oured
Ġamb assad
Ġrepresent ative
Ġpan ic
Ġsuperior ity
add in
Ġlock s
Ġfac ulties
lot te
Ġwarri or
Ġsurround ings
ĠAust ral
Ġshrie ked
Bet ween
Ġreject ed
Ġtreacher y
Ġresent ment
Ġambit ious
Ġcourty ard
B ring
G race
S ec
V ox
a way
b all
m ay
p ress
w all
w ater
Ġt une
Ġt umbled
re a
is en
Ġf ret
Ġto es
Ġp omp
an th
ly n
se vent
Ġse rene
Ġso bs
Ġv ice
Ġli ver
Ġli king
ol o
ĠB rig
ĠP ur
ĠP ack
ĠP encroft
Ġpro ves
ĠL ibri
ĠL anyard
ĠD olly
ĠH oop
Ġgr anite
Ġover l
ĠE ven
ĠE ric
Ġoff ers
Ġoff end
ild ren
ang ing
Ġatt achment
Ġco ats
Ġposs ibilities
oc ation
Ġext ensive
Ġprom ising
Ġprop he
ĠAr ch
Ġed itor
Ġexper iments
Ġrespect ful
Ġdecl ine
Ġcast ing
Ġcal am
Ġstri p
Ġfright en
Ġpray ing
ĠSc rooge
ament al
Ġnice ly
ĠAd mir
Ġdim ly
Ġassist ant
Ġpit iful
Ġterr ific
ĠMor gan
Ġpos itions
Ġow ed
ĠLa ura
ĠMart ha
Ġfet ched
Ġassert ion
Ġelder ly
Ġunre ason
Ġlun cheon
Ġlav a
Ġoverwhel med
ĠDant es
Ġdram atic
Ġteleg raph
ĠLibri Vox
B ob
O S
a vern
b ird
e z
o ons
Ġt rop
re hens
Ġc ured
Ġc rop
Ġl akes
ot el
ce val
ay ing
Ġr opes
Ġat tending
Ġshe ets
ĠM oon
ĠM erc
Ġout st
Ġwor sh
ĠB E
um ns
ig ence
Ġbr im
ĠH ann
Ġbl ast
ci ble
Ġpe op
ert ed
Ġspe eches
Ġsc out
Ġres igned
Ġcomp osure
Ġimp osed
Ġbo red
Ġple ad
Ġac ute
rew s
Ġconf ron
ĠMar ie
Ġtalk s
Ġcol umns
Ġfire place
Ġquestion ing
Ġswe eping
Ġsleep y
Ġappro val
Ġtou ches
Ġpar allel
Ġtem ples
Ġstud io
Ġjoy fully
Ġap ology
Ġdisp osal
ex cept
Ġcompl iments
Ġconcl ude
Ġgrat ification
Ġwond ers
ĠQu ix
ĠChristian ity
Ġwitness ed
Ġfortun ately
Ġobst acle
Ġdesper ately
ok i
Ġwhisper ing
Ġeconom y
Ġinfant ry
ubb orn
Ġfanc ies
Ġvehic le
A B
H app
l a
p ers
Ġf ren
Ġre action
Ġst all
Ġst amm
Ġr ack
Ġr ip
Ġme nd
Ġso ci
Ġex asper
ĠC reek
Ġv iz
ĠP op
ĠP oint
Ġtim idly
Ġbr u
Ġun acc
ĠL et
Ġpr udent
ĠT erry
ĠH al
Ġgr unt
ove mber
Ġch oo
ĠR ab
Ġper se
Ġthr ill
Ġpe ering
Ġrem onstr
Ġwhere in
Ġdes olate
Ġcomp act
Ġcr acked
Ġatt orney
Ġhar bor
Ġhapp iest
get ic
Ġworld ly
Ġchar ms
Ġfour teenth
Ġass ent
Ġref er
Ġinter ven
Ġins ens
Ġcol on
Ġexpl aining
Ġappear ances
Ġprop het
With in
Ġesc ort
Ġhast en
Ġdeal ing
str ong
erv ation
Ġyouth ful
Ġoccur rence
Ġspring ing
urs day
Ġpassion ately
Ġsubst antial
Ġdom ain
Ġcustom ary
Ġattract ion
Ġdust y
Ġnodd ing
Ġpra ised
Ġpill ars
Ġobst inate
Ġsour ces
ĠMart in
Ġkeen ly
Ġretreat ed
Ġirr itated
Ġunexpected ly
about s
Ġcritic ism
Ġpeep ed
Ġcatast rophe
a vert
c as
c ar
h oun
m ers
m ark
o ft
p han
p iece
he art
in ently
Ġw ist
Ġb ri
Ġb ows
Ġto ns
Ġd ined
Ġd agger
es cri
Ġhe ars
Ġin eff
Ġg ait
ic ide
ent ric
Ġre el
Ġre vere
ver ing
if ies
ain ty
ore al
Ġde pended
Ġsh illings
ist ics
ast y
ĠB as
Ġag ricult
Ġsp here
Ġtw entieth
Ġtr aced
Ġen light
ĠF OR
ick et
Ġjust ly
Ġsl ack
Ġhar mon
Ġhar vest
Ġmar ching
Ġsupp osing
Ġsw ore
Ġsur pass
Ġdr ifting
Ġdel ayed
Ġwar rant
Ġins piration
Ġname ly
pr il
Ġsn iff
orn s
Ġfur iously
Ġobser ver
Ġsoft ened
Ġdraw er
Ġgard ener
Ġcomfort ed
Ġsad d
Ġsal ary
Ġwide ly
Ġty pes
Ġneg ot
ĠGeor g
Ġunf old
ĠPer cy
Ġarg ue
Ġdepend ent
ĠVal entine
Ġwitness es
eder al
Ġgrim ly
Ġorn aments
Ġamid st
ĠGrand father
Ġaddition al
Ġpir ate
ĠJeff rey
Ġsacrific es
Ġmanufact ure
Ġcrou ched
ĠCart ha
Ġmarve ll
Ġhospit ality
Ġbehav iour
Ġstret ching
ĠFult on
Ġstamm ered
P apa
i age
Ġ [
Ġb olt
is le
Ġd ot
Ġd ainty
Ġp iled
Ġl ou
ot hered
Ġre igned
Ġst eed
Ġst ubborn
Ġwe arily
ur rection
Ġex ter
Ġex ting
ĠS ign
ĠS now
Ġv ale
ĠA lf
ĠA pril
hed ral
au g
ĠL izzie
Ġcl ue
pl ing
pl ain
Ġsha bby
ĠF irst
ĠR at
Ġfl ask
Ġpo ems
Ġper ched
te rest
Ġcha l
Ġfa iling
Ġcr ooked
ĠK ay
ĠK enn
Ġlo ft
ia h
Ġco in
Ġchan nel
Ġbelie ves
Ġcor p
Ġmin es
ial s
Ġcur ate
iet ies
Ġunderstand s
Ġopp ose
Ġart istic
ĠAr t
Ġed ges
Ġmus cular
Ġrespect fully
Ġrepe ating
cell ency
Ġconv ince
Ġaccord ance
Ġrecogn ise
ĠHer acles
Ġopport unities
Ġattack s
Ġsole ly
ĠAll en
Ġappre he
che t
Ġspect ators
ĠJul ius
Ġcrown ed
See ing
Ġbirth day
Ġdiss ip
ĠTur key
Ġrapid ity
Ġunfortun ately
Ch rist
Ġappl ause
ĠAlex ander
Ġinfinite ly
Ġdoct ors
Ġdefe ated
Ġcoach man
Ġattent ive
Ġcomprehe nd
Ġgorge ous
Ġcu ps
Ġirresist ible
Ġshat tered
Ġfemin ine
ĠQuix ote
ĠRab bit
! ...
A dd
A IN
S mith
a e
o ving
Ġa er
Ġs ly
Ġb ake
ed dy
Ġd ash
Ġl ung
ar oo
Ġe astern
Ġe jac
Ġon ward
Ġre cess
ce nd
ad dle
Ġse am
Ġse ct
Ġfr owned
Ġsh ivered
th ony
Ġex pend
ĠS im
ĠS aw
ĠM abel
Ġman ager
ist ry
ĠA N
Ġpl aster
ort ions
ĠG wynplaine
ĠT wo
pl om
Ġen er
ĠJ ess
ild a
Ġeven ings
Ġsl op
Ġind escri
Ġcar ries
Ġlight er
Ġcur led
Ġsk ilful
Ġsent ences
Ġste pping
ister s
sh ire
ĠBr and
Ġshad es
ĠTom my
Ġdiv ide
ĠSc ar
mit ri
Ġmass ive
Ġshr ub
Ġstorm s
ĠMad emoiselle
ĠPer ceval
Ġattend ant
Ġpack ing
Ġsin ister
Ġlog ical
Ab ove
Ġorgan ization
Ġgle aming
Ġdi plom
Ġhyp ocr
Ġblank et
Ġmerchant s
Ġcere mon
Ġrelie ve
Ġmechan ically
ais y
Ġtables p
Ġcher ished
Ġneat ly
Ġmead ows
ĠMill er
Ġbul k
Ġadvert is
Ġtrif ling
Ġinterpret ation
Ġresign ation
Ġprecaut ion
ĠLev in
ĠDam on
Ġimmort al
Ġbough s
Ġfant astic
C ons
I E
M rs
O ften
b les
i pper
l ace
r at
y ram
Ġt avern
Ġw rest
Ġb aking
Ġb order
Ġm un
ed ed
Ġc ate
Ġd ame
Ġd yn
or al
Ġbe f
ut ive
Ġst ab
Ġst umbled
her s
ie u
Ġor phan
Ġab ol
ĠB enn
Ġpl um
el come
ag ers
Ġover th
Ġover look
Ġfl ashing
ĠJ erry
Ġpre tending
Ġbeg ging
ang aroo
Ġpass ive
Ġright ly
und ered
not hing
Ġdisc reet
Ġass igned
ĠThe ir
Ġbu zz
Ġair ship
ĠU t
Ġexpress ing
Ġstri ving
Ġprov in
Ġgrave l
Ġport ions
Ġpost s
Ġfurn ace
Ġharm less
ĠZ e
Ġfol iage
ĠJim my
Ġpra ir
uls ion
Ġendeav ored
Ġnerv ously
Ġinvent or
ĠTur k
Ġquant ities
Ġknock ing
Ġfac ulty
Ġlack ing
Ġintense ly
ĠCan ada
Ġindul gence
Ġfil m
ĠMont gomery
ĠFranc isco
Ġfeed ing
Ġsport s
ĠBab a
Ġpil ot
Ġgrin ned
Tw enty
ĠArab ella
Ġlaz y
ĠKe ith
ĠNa ples
Geor ge
Ġdisli ked
Ġextrem ity
H ER
O C
b ons
g ard
g age
p ie
u ction
z an
Ġm ol
Ġf uel
Ġh ook
Ġl id
at ically
id ity
ly sses
ĠI nt
ce mber
ay ne
ir y
Ġst if
ad emy
Ġr ider
Ġfr ock
Ġsu its
ĠM ir
ĠM axim
ĠA pp
un ned
Ġgo al
ĠP art
Ġpl ough
Ġpl ane
Ġqu er
ĠT ime
ĠT uesday
Ġam end
ĠF ogg
Ġad j
ĠJ on
ĠN ovember
Ġsl umber
we et
Ġcr ush
Ġret ained
Ġatt ribut
Ġwork er
Ġsub ord
Ġexp and
Ġpur ity
Ġter race
ins more
Ġgener ations
Ġcol ony
Ġjo int
Ġprom inent
Ġsqu e
Ġang le
Ġstri kes
Ġrid den
Ġtor ch
Ġremark ably
Ġcompl ained
ĠWh it
Ġyell ed
Ġmess ages
Ġlord ship
Ġtemper ament
Ġaston ishing
Ġstar ving
Ġshadow y
Ġscr atched
com ing
ĠPh ill
Ġrul er
Ġyield ing
Ġregret ted
Ex c
Ġfold s
Ġmult ipl
ĠNat han
ĠLy nde
Ġannoy ance
Ġillust ration
Ġinvestig ation
Ġasce nd
Ġvac ant
Ġperple xed
Ġbond s
Ġduck s
Ġprocl aimed
ĠCle ment
Ġchuck led
Ġglac ier
Ġannounce ment
ĠRog er
Ev idently
Ġungr ate
Ġbarric ade
? ...
P at
U M
f are
r ained
r uth
u ccess
Ġa we
in arily
Ġm aker
Ġf ainted
en ched
Ġh oll
Ġhe ated
an ley
om ing
Ġbe er
Ġre ared
al og
Ġwh ipped
Ġsu cc
Ġup wards
us alem
Ġman ly
Ġli v
Ġab use
ĠB urn
ĠP ink
ĠP ope
Ġar bit
ĠL eslie
ĠT im
ĠD E
ĠD in
Ġro aring
Ġbl ushing
ĠF e
Ġad or
Ġpart ial
Ġcha pel
Ġgl owed
Ġsl opes
Ġcomp rom
ĠO z
Ġhar bour
Ġser geant
ens ed
ub en
Ġdiff er
Ġdr own
cept ions
Ġcor ps
Ġref ined
Ġsk ull
Ġsk etch
Ġdark er
Ġste alth
ĠMar ia
Ġcontin ent
Ġcontin ual
Ġdet ected
Ġfin er
Ġdec is
Ġdep ressed
Ġdeep est
Ġsign ature
Ġra ven
ĠY et
ĠIs abella
Ġlim p
ĠChar ley
ĠChar lie
Ġcab b
Ġstro lled
Ġelect ed
Ġdesce nding
Ġexerc ised
Ġble eding
Ġninet eenth
Ġproof s
Ġtur f
Ġprospect s
Ġhind er
Pr ince
Ġnob les
Ġfo am
Ġasce nded
Ġproduct s
Ġpenet rated
Ġliqu or
Ġsignific ant
Ġcru elly
Ġtransf erred
Ġgover ness
Ġdepos ited
ĠBess y
Ġfow l
ĠRost ov
Ġintol erable
Ġpilgr im
Ġunnecess ary
Ġtablesp oonful
A LL
C ut
H ans
M aster
T ry
U L
b bed
i ors
w right
Ġt ips
Ġs her
ou gl
it imate
is ation
is ons
Ġof t
Ġd ies
Ġp ic
Ġl ugg
an ned
Ġn igh
Ġbe ck
ic ular
Ġwh im
ur ally
ad o
am ble
ain es
ess ion
Ġk ettle
Ġsh ots
Ġcon sec
Ġex tending
us ively
ĠS on
ĠS ix
ant on
Ġli able
Ġint ensity
ra oh
ĠB ol
Ġle ge
Ġpl ump
Ġpro ver
ĠG irl
Ġbr ushed
Ġtr act
ĠD EAR
ĠD insmore
ĠH IS
Ġsha pes
Ġday break
Ġpre acher
Ġstr ings
Ġsm ote
Ġdes erves
Ġcr ater
ĠO ctober
Ġlight ing
land ers
Ġrest s
Ġcle arer
Ġpleas es
ĠHe l
Ġhum bly
az a
Ġdec re
Ġexc ite
Ġart illery
Ġbur d
Ġred d
Ġmist akes
Ġpar aly
Ġmag az
ĠUn ivers
Ġsal vation
Al ice
Ġprob ability
Ġlab ors
jo ining
ĠIn n
Ġoccur s
ĠChar lotte
ĠHar old
Ġburst ing
Ġstorm y
Ġstro de
Ġadmir ing
Ġfavour able
Ġscr ub
Ġess entially
Ġrecord s
Ġterr itory
Ġrul ed
Ġaud ible
Ġlog s
Ġinstinct ively
ĠPaul a
Ġrestr ain
Ġtrib ute
Ġexcess ive
Ġesteem ed
Ġfund amental
Ġgri p
Ġsan ct
Ġbrid le
Ġencl osed
Ġmant le
Ġadminist ration
ĠHy acinth
Ġtyr anny
Ġperplex ity
Ġinval id
Ġsubl ime
Ġtrag ic
Ġaby ss
M on
P aul
S te
r ude
u er
w oman
in i
Ġthe ories
Ġw ires
Ġb ud
Ġm used
Ġc el
Ġg ulf
ur ous
ur bed
Ġr if
Ġnot icing
Ġsa ge
Ġbut cher
Ġall owing
Ġsh ove
th irty
ĠS oph
ĠM ung
ĠA ven
ĠB et
ĠB al
ĠB umble
ĠB ruce
un ces
um m
ell ed
Ġqu ivered
Ġsp ake
Ġtr out
Ġtr oop
Ġcl apped
ĠH otel
ĠN ik
oss ibly
Ġcour ts
so ever
ĠV incent
Ġinter rog
Ġcur ls
Ġmon op
Ġinc omp
Ġhigh ness
Ġsim ult
Ġext ract
Ġsn uff
ony a
Ġsor rows
Ġest her
Ġbott les
Ġmem or
Ġcourt iers
Ġauth ors
Ġclim ate
Ġneg ative
Ġcost s
Ġwise ly
ylv ania
ĠQu ar
Ġdam ned
Ġundert aking
Ġacquaint ances
tw elve
Ġobst in
Ġappeal ed
ĠCal houn
ĠEx cellency
Ġsettle ment
ĠCan ad
Ġgrie v
Ġpreced ed
Ġtot ally
Ġblaz e
ĠChan cell
Ġcontract ed
aver ing
ĠConst ance
Ġling ering
Ġfulf il
Other s
Ġtick et
ĠFar mer
Ġtrump et
Ġexplos ion
El iz
Ġgarr ison
entle men
ĠWigg ily
ougl as
, )
D or
M ust
M amma
P retty
S ix
b ie
d s
d ri
p ill
s se
t ell
Ġw oo
Ġo unces
er land
Ġb ounds
Ġp ige
Ġl umber
ot ing
Ġst er
ad ays
il ess
qu ar
Ġcon verse
He lp
ĠS pe
ĠS uff
ĠM ass
Ġkn ot
ra h
ra ged
ers ed
ol ine
ĠB all
ĠB ib
un ction
ĠG e
od ge
ĠL etty
ĠD ixon
ass ed
ine as
me an
ang ling
ater pill
Ġcomp are
ever ly
Ġend ured
ub ert
Ġac res
Ġsec re
Ġact ors
Ġdr ift
Ġsub mitted
Ġdisc retion
Ġreg ained
For give
Ġinc or
Ġinc idents
Ġreal ised
Ġstep mother
Ġfoot man
Ġpat ches
Ġpain fully
Ġhair s
Ġrespect ing
ham med
Ġpay ment
Ġtrans form
Ġstri pped
ĠCl are
ĠCa es
ĠGr ushenka
ĠDe an
Ġrob es
Ġmir acles
Ġsymp athetic
ĠDor a
ipp i
Ġpit ched
Ġendeav our
Ġmat ches
Ġinha bited
Ġuneas ily
ĠBob by
Ġsex ual
Ġneighbor ing
Ġunus ually
Ġep is
ĠMount ain
ĠHam ilton
Ġprosper ous
Ġprejud ices
Ġphenomen on
ĠDel aw
Ġbuff alo
Ġconcent rated
Ġautom ob
ĠSen ator
Ġecc entric
Ġancest ors
ĠLeon ora
Ġconject ure
Ġhypothes is
Whe never
' ;
K at
O O
S erve
S low
T E
U ST
c ame
c alled
e ered
p art
r ons
u ate
w orthy
Ġt u
Ġt ack
in or
Ġo y
ou quet
Ġm oust
it ous
Ġf id
Ġf iend
Ġp int
Ġhe m
as se
Ġn ail
Ġha il
Ġg ross
id ers
ur ther
Ġse eds
ro ken
Ġk id
th ought
pe nding
ĠS aul
Ġv ind
ĠA ra
Ġab omin
Ġun qu
Ġun seen
ĠH ur
Ġim itation
ĠW oo
Ġbl iss
ci le
Ġsm oot
Ġpart ners
Ġimp ass
Ġhar p
Ġwork man
gg otty
Ġem inent
vent ion
Ġworld s
ener y
ru ly
Ġconf eder
Ġref rain
Ġfact ories
Ġsle w
Ġform ation
Ġgre ed
oon er
ey s
Ġcut s
Ġran ch
ĠY our
Ġmer rily
St and
Ġdev out
Ġeffect ed
Ġesc aping
Ġdest ination
uss y
medi ately
Ġexam ples
itch ing
Ġinqu is
Ġresult ed
ĠEd win
Ġcost ly
Look ing
Ġreflect ing
Ġtong ues
ĠLu cian
ĠThor pe
Ġcommun icated
OU R
Ġcup board
Ġroof s
Ġur ge
Ġlabor atory
Ġregular ly
ĠEurope an
Ġendeav or
Ġentertain ment
Ġmat thew
Ġinterp re
win ter
Ġcaut ious
Ġconsult ing
Ġsche mes
Ġsingular ly
Ġhint ed
Ġfem ales
Bl ack
Ġlandl ady
Ġflut tered
Ġens ued
ĠAg nes
ĠJen ks
Ġreluct antly
Ġnois eless
Ġclut ched
Ġeloqu ence
Ġindef inite
ĠPeters burg
ĠMull igan
Ġmarvell ous
Ġlung s
c ill
g ood
j amin
r onsie
u vel
v is
z a
Ġa ugust
Ġo unce
Ġb aff
Ġm uzz
ed nesday
Ġf ost
Ġf ern
Ġp ious
Ġp aws
Ġg al
ot ic
Ġe ternity
Ġy ach
Ġre cl
Ġu mbrella
Ġr ug
Ġbut ler
ri ers
Ġall iance
ul ent
ul us
th m
ĠS wed
ĠM aid
ant in
ĠC ow
ĠC ons
ĠC ros
Ġout s
ĠP oly
Ġsha wl
ĠE astern
Ġch orus
Ġhand led
ĠR us
Ġad vers
Ġpe aks
ĠN ever
Ġcont ribut
Ġsl ipping
Ġcar riages
Ġmor als
Ġcomm ence
Ġrec overy
Ġchar med
ĠCh ip
Ġcor oner
Ġtre m
Ġins ign
ĠThe od
Ġair s
Ġgent leness
Ġcontin ues
Ġtri vial
ĠTh ursday
br ay
Ġmus h
Ġtra ps
ĠCl over
ĠDe f
Ġthick ly
Ġthick ness
Ġsnow y
Ġwit hered
Ġspec ific
Ġsubst itute
Ġscre aming
Ġnoble man
Ġcool ness
Any thing
Ġvig il
Ġgest ures
Ġindust rial
Ġwhist led
Ġwhist ling
Ġconcern s
Ġplun ge
Ġprecip ice
Ġeffic iency
Ġabund ant
Sc ar
Ġaven ue
ĠJer usalem
Ġresolute ly
Ġinvolunt arily
Ġprel im
Ġdiscour aged
Ġpropriet or
Ġinte nding
hast ly
ĠFyodor ovitch
Ġungrate ful
uvel in
. ]
B uck
E ng
c ence
d ney
w ere
Ġ Yes
Ġt apped
he ment
Ġs led
Ġw ont
ou lt
Ġb ald
Ġm ice
en et
Ġto ad
ing ed
Ġd ipped
Ġn om
Ġg ale
Ġe man
im ately
Ġre aches
Ġr attle
ke red
am my
Ġfr antic
ro ying
Ġcon form
th orpe
Ġv it
itt ens
un ately
ck y
ag ne
ĠD mitri
ĠW H
ĠW as
ĠR osal
ick ing
ap h
act or
Ġunder ground
Ġcha riot
Ġsc ul
ere rs
Ġgl ided
Ġsl im
Ġimp oss
Ġwr inkled
Ġhor ribly
ĠHe li
Ġhum ming
Ġel bows
Ġsent in
Ġsix teenth
Ġcond es
ĠTh ree
Ġfif teenth
Ġdef ined
Ġaff licted
Ġbar rier
Ġcirc uit
Ġmount ing
Ġexper t
Is abel
Ġarri ving
Ġpossess ions
Where fore
Ġprodu cing
Ġcommon place
Ġmouth ful
ex ter
ĠGr im
ĠDe cember
Ġvi olet
Ġlim b
Ġbab e
Ġlangu ages
Ġclean ed
Ġhost ess
ĠDor is
Ġpot ential
Ġdiscuss ing
Ġwear iness
Ġimper ative
Ġrejo ice
ĠPl ace
ĠGree ce
Ġbor rowed
Ġaim ed
TH ER
Ġcorrespond ing
Ġunl ucky
Ġinstruct ed
Ġsentiment al
Ġnob ility
ĠDan iel
Ġerect ed
ĠBab yl
Ġrib bon
Ġsoot hing
ĠWall ace
Ġdesir ous
elie ve
Ġrese mble
ĠColl ege
Ġinher it
Ġsie ge
Ġfert ile
Ġdares ay
Ġcarpent er
Ġequip ment
ĠChancell or
B ar
B illy
D iana
M or
f ound
f rey
g le
m ans
n orm
y on
Ġt ipt
Ġw reat
Ġb aked
Ġc ul
Ġto oth
Ġd itch
Ġp ite
Ġp ines
Ġh ue
Ġhe al
ar ant
ar ious
at ches
ow ered
im ble
st ood
ĠI ll
Ġre ce
ion ed
Ġfor k
ad ale
Ġr ans
if teen
Ġse qu
ct ic
ro ve
Ġdo d
Ġdo ings
He llo
Ġman hood
ra ble
ound ing
ĠB oy
ĠB ee
Ġj aw
um inous
Ġpl under
Ġsp ed
od d
Ġtw elf
Ġun ique
Ġpr ices
are n
ĠH op
ĠH orse
ĠE ug
ish ness
ĠF isher
ĠR em
ci ences
ick le
Ġfl ocks
Ġhow l
Ġpre ach
ĠN ational
Ġcha mbers
Ġwhere by
ĠO N
Ġop ens
Ġcar av
Ġcount ing
Ġrep et
Ġhome ly
Ġarm our
ru p
Ġdel ir
ĠSt u
Ġche ering
Ġref usal
uth bert
Ġeight eenth
Ġsk irt
Ġfore most
Ġbu ying
Ġaw ait
Ġadm ission
Ġhon esty
Ġbur y
Ġdef ended
Ġobject ions
par able
ĠY an
ĠY ellow
use um
Ġconsider ations
Ġhusband s
Ġcoll e
Ġve hement
Ġtreat y
Ġsend s
Ġchurch yard
Ġmaid s
inc erity
Ġpurs uing
Ġsmo ked
Ġshr ink
Ġpref erence
com be
ann ie
Ġundert aken
ĠEliz a
Ġpoison ed
ĠChan ning
Ġvic inity
Ġfulf illed
Ġveget able
ĠDen is
Ġpars ley
Ġcas ual
Ġsway ed
Ġlat est
Ġgover ned
Ġmoist ure
Ġeloqu ent
Ġspin ning
Ġalight ed
Ġbrut al
wr iting
Ġpip es
Ġindisp ens
Ġsuperintend ent
Ġconfron ted
ĠCanad ian
Ġscul pt
Ġtwelf th
A c
E ver
L Y
U RE
b ell
d own
p hy
v a
w en
nd ered
Ġb acked
Ġf iction
Ġd us
Ġd iam
Ġhe aped
Ġl ime
ot ism
Ġr ud
ac r
Ġat h
ill es
Ġsu ng
Ġdo omed
ĠC ra
Ġkn ives
Ġal oft
Ġno ises
ra wn
ĠA li
un o
el ine
Ġpro hib
ĠG o
ĠG ib
Ġtr ay
Ġtr ades
ĠT est
ĠD og
ĠD arling
ĠH an
ĠH ood
Ġover board
Ġch ival
ĠW ITH
ĠR on
Ġper ceiving
Ġsc ow
Ġsc al
Ġsc iss
Ġwhere upon
iss ippi
Ġsl ices
Ġind ec
ĠO ri
ĠO dy
Ġmor ality
Ġever l
Ġsupp le
aw ber
Ġrep ay
Ġhome ward
Ġsat in
Ġdr ama
Ġgu arant
Ġdisc ern
ery l
oc ity
Ġten ant
Ġbar ren
ĠAn thony
Ġpast ure
rom well
Ġdest roying
ĠAl addin
Ġtrans formed
Ġsal ute
Ġattempt ing
Ġlab ore
Ġmill er
ĠEl inor
Ġsplend or
ĠSha ggy
Ġhonest ly
Ġexerc ises
Ġlog ic
Ġwicked ness
tw as
Ġgle e
Ġcorrect ed
Ġconqu est
Ġtur key
Ġghost s
OM E
Ġfil th
ĠAnt hea
Ġillust rious
Gr and
Ġexert ion
Ġmonkey s
Ġconfident ial
Ġfasc inating
ĠCarol ine
Ġsacrific ed
Ġbust le
Ġbat hed
Ġhaz ard
Ġmant el
Ġult imate
Fr ank
rigg s
Ġvigor ously
Ġmuff led
ĠCard inal
ĠProtest ant
Ġhoof s
Ġsar c
Ġearthqu ake
Ġdefin ition
Ġtas ks
Ġoutst retched
Ġindescri bable
E arly
G entlemen
L ou
M E
g ency
p ut
u cy
w ind
Ġw ider
re cked
ou ched
Ġb ail
Ġb owing
Ġm ent
en ch
Ġto y
on ing
Ġd ub
Ġp oo
Ġp ulp
Ġg ild
Ġg hastly
id ious
Ġon to
Ġas cent
Ġan k
ĠS ur
ĠM ike
Ġno str
ist ak
ol is
ĠB ark
un less
um sy
ough by
Ġqu ad
Ġun natural
op in
Ġcl er
Ġbl ocks
Ġad equ
ert rude
Ġspe ck
Ġgl ist
Ġseem ingly
Ġhere after
Ġfa ils
les i
,' "
iv able
Ġend ing
Ġend owed
Ġdist ribution
Ġrep aired
lt ered
Ġdr ows
Ġrest aur
ĠV ic
ĠSt acy
Ġtre ason
Ġref using
ob s
Ġbeaut ies
ĠMar quis
ĠU lysses
Ġexpl o
Ġart ists
ey ond
cri be
Ġshad ed
Ġest ates
Ġheav ier
Ġdecl aration
Ġrock ing
Ġpet ty
Ġsal uted
Ġdesp atched
Ġacqu ies
ĠSc ra
Ġgovern ments
Ġkiss es
Ġempt ied
Ġsand y
ĠPe ggotty
Ġune qu
Ġaccident al
Ġvalley s
Ġsaint s
asm uch
Ġamaz ing
ĠGree ks
ĠMount joy
Ġresemb led
Ġfrag ment
Ġpist ols
ĠMin ister
aver ley
Ġinsult ed
Ġprivile ges
Ġthread s
Ġhence forth
ĠSw ift
Ġcontempl ation
ĠSch ool
ste in
Ġdazz ling
Ġpatter n
Ġpled ge
Ġscrut in
Ġextravag ant
ĠGen ji
Ġemphat ically
ĠMort imer
Ġembro idered
ĠSau nders
occ up
Ġwhir led
Ġexting u
Exc use
ĠUnivers ity
Slow ly
Ġsciss ors
F red
P ierre
m itting
n els
o king
r ust
r iment
v in
Ġ icy
Ġs ill
Ġw ilt
Ġb achelor
Ġd ata
Ġh ire
ar ath
le m
ir teen
Ġst urd
Ġse lling
Ġfr ail
Ġdo om
Ġup ro
Ġcon verted
Ġex al
ust ra
ĠS anta
ĠA mb
ol ics
ĠP re
ĠP ot
ĠP ont
ĠP ole
ĠG ar
Ġar isen
ĠL enn
ĠT W
ĠT ot
ĠD al
ĠD aisy
ĠW ick
ĠF R
ĠF re
Ġad joining
ĠJ em
Ġsm ith
Ġsc atter
Ġsc ales
cl iff
ĠO ur
Ġcons umed
alk ing
atter as
Ġrep orter
for ward
Ġconf ounded
row ing
Ġcur ved
Ġfin an
Ġtri es
ec o
Ġmist s
Ġpat hetic
Ġmus cle
Ġdraw s
Ġpract ised
ĠCar roll
EN D
itc her
Ġgro an
ns ylvania
ĠSha w
Ġspeech less
ĠAt hen
Ġsorrow ful
IT Y
chan ce
chan ge
Ġdism ounted
Sh ort
Ġmal ign
ĠMy les
Ġtroubles ome
Ġpier cing
eb ruary
Ġshrie k
Ġunm istak
Ġperil ous
Ġcompet ition
Ġeffic ient
ĠHenri etta
Ġcomplaint s
Ġtun nel
Ġschol ars
Ġmourn ful
Ġloyal ty
irect ly
Ġrevel ation
ĠOt to
Ġinsect s
Ġorg ans
Ġprostr ate
Ġprolong ed
Phil ip
Ġcourte ous
Ġwag ons
ĠCoss acks
idel ity
Ol iver
Ġsult an
Ġador ned
Ġindispens able
Ġdus ky
arath ustra
B el
K ing
b ble
f ax
h urst
h uman
m ate
n est
r ont
Ġ x
Ġw ipe
Ġo st
er ies
Ġf erv
Ġc ad
Ġd ome
Ġp ump
Ġp udding
Ġl ac
Ġl atch
Ġl onel
Ġl uke
at hed
Ġha gg
ow ay
Ġre ins
Ġwe eds
am ations
Ġk ite
Ġbut tered
ri v
th ose
pe cial
ĠA ct
Ġwor m
ak ov
ĠP an
Ġpl ucked
ĠG iles
Ġaf resh
ĠL ud
Ġcl umsy
Ġdis ad
Ġnow adays
ish ly
ĠR ow
ap se
Ġsm ashed
Ġgl are
ans y
Ġser ves
Ġend urance
ren ched
av ia
ject ed
Ġins ane
Ġins uff
Ġel apsed
Ġdark ened
Ġsuff rage
Ġcontin uing
Ġunc han
Ġill usion
Ġpat ted
ask a
Ġest imate
Be hind
ĠBut ton
Al ready
Ġtrave ler
Ġgrand eur
ĠGr ay
Ġsuggest ions
Ġsett ling
Ġpost ed
ĠAd ela
Ġutter ing
Ġcand y
Ġinterrupt ion
Ġorigin ally
Ġsplend our
ĠSo ciety
Ġtow ers
Ġband s
Ġrejo icing
ĠGu iche
Ġcompanions hip
Ġundert ook
ĠRed main
ĠGl ass
fl ies
Ġexhib ition
ĠEgypt ian
ĠVen ice
ĠMic awber
Ġveget ables
Ġachie ved
ĠPat ty
Ġslee ves
Ġtreacher ous
Ġmarvel ous
Ġperf ume
Im mediately
Ġimprison ed
Ġawaken ing
Ġspecim en
ĠSec ret
Ġwha le
Ġjer ked
Ġmusk et
Col onel
Ġadapt ed
Ġdiscom fort
Ġvary ing
Ġvener able
Inst antly
Ġisol ated
ĠPack ard
Ġlugg age
dri ver
sse us
quar ters
Ġmush room
' .
A CE
F urther
O H
R ead
i ating
m ar
r ich
Ġt ro
he ll
Ġs its
Ġm um
Ġd art
Ġp yram
Ġin fect
an es
Ġbe am
Ġy oke
Ġas yl
Ġwh ites
Ġnot ions
Ġher ald
oo per
ter y
Ġse cl
Ġsu icide
pp ino
ĠS omet
ĠS ister
ĠM as
ĠC ad
ast on
ĠA rist
ol ay
ĠB ry
Ġle ve
ig ible
ĠT han
Ġcl ump
ĠW itch
ĠF ield
Ġfl aming
oy le
ĠJ erv
Ġthr ice
act ions
Ġsc enery
Ġres isted
iss y
Ġind isc
Ġbo ards
Ġrep rodu
Ġrec onc
Ġarm or
Ġchan ced
mer ing
Ġhel m
Ġconf irm
Ġcur ve
Ġca using
Ġpol es
Ġquick er
Ġhorse men
Ġcompan ies
Ġmis chie
Ġsight s
Ġmod esty
Ġfav ored
ledge by
Ġdeal t
Ġve ter
Ġjoy s
Ġtrave led
ĠSp enc
Ġaccept ing
ĠWh ile
Ġty p
ĠHar riet
Ġearnest ness
Ġrub ber
ĠLu k
Ġhonour able
ĠDav is
Ġgar ret
Ġmain ly
Ġbull ets
Ġdisg usted
Ġphilosop h
Ġgle amed
Ġhero ic
Ġwest ward
Ġspark s
Ġfee bly
Ġinterf erence
Ġappreci ation
cast le
Ġtal ents
Ġdisci ples
ĠHaw kins
ĠAp ost
Accord ing
ĠOh io
Ġadminist ered
Ġprecaut ions
Ġinvolunt ary
Ġmonot on
Ġkneel ing
Ġmaj estic
ĠShar p
Ġchron ic
ĠFore st
Ġneut ral
ĠAdmir al
Ġcorp oreal
Ġdyn am
Ġrif les
Ġinsign ific
Ġdiam eter
eco q
B eyond
C he
R un
a i
g ate
g iving
h in
p oint
r ants
t ical
u ctor
w ich
Ġ âĢĶ
in qu
Ġs ate
Ġo min
nd a
Ġb acon
en cing
Ġd anc
Ġp aw
Ġp upp
Ġh ood
Ġh ound
an na
Ġg ust
Ġg aining
ut able
Ġsa m
Ġshe ltered
Ġsh illing
ĠC ord
Ġv ines
em et
os h
ist ration
Ġj elly
ĠP ha
ĠP apa
Ġsp oon
Ġsp urs
ĠG ord
ĠL iver
ĠT ower
ĠT HAT
Ġcl atter
ĠD own
ĠD ouglas
Ġus ur
ass es
ĠH are
ĠE ury
Ġbl uff
ĠF itz
ĠF ebruary
ick ers
ĠJ am
Ġcha nt
Ġbet rot
Ġcomp ens
air y
Ġdr ug
Ġsub ur
Ġrel ent
Ġbre ach
Ġmo or
Ġmon aster
ĠMiss issippi
Ġdoub led
Ġjo ining
Ġblack ness
Ġhon ored
Ġbur gl
Ġdev ice
Ġdev ils
Ġcap s
Ġprodu ces
ĠCl ay
Ġap ost
Ġpen it
Ġviol in
ev itch
ylv ie
Ġgrace fully
Ġalar ming
Ġunf it
rid ges
Ġscr atch
Ġflo at
Ġmyster ies
Ġdeb ts
ĠYou ng
Ġtur ret
Ġrad iance
Ġprompt ed
Ġmal ice
Ġindul ge
Ġwrit ings
Ġcontrad iction
ĠArm strong
ĠMus cular
ĠBarb ara
Ġecc lesi
Ġtort ured
Ġbrood ing
Ġdoc uments
Ġsom bre
Int o
Fort unately
ĠHard ing
Ġscramb led
umpt y
Ġpeop les
Ġlou ng
Ġejac ulated
ĠWoo zy
Ġmuzz le
Scar cely
Ġrepet ition
ĠOdy sseus
Ġdisad vant
ĠLuk ashka
C ount
i ac
p ro
s ky
Ġa ught
Ġa version
re am
Ġc am
Ġc ask
Ġto ilet
Ġd iet
Ġd ances
Ġn un
Ġbe ams
st ill
Ġre nown
Ġr ugged
Ġher mit
ac it
ch in
Ġk in
all ie
Ġsh ift
Ġsh ifted
ĠS ax
ĠM en
ĠM et
ĠM amma
nt il
ĠC y
ĠC raw
art e
ĠA re
Ġab norm
Ġle v
Ġcan al
ĠG a
Ġun ity
ĠL uck
Ġam mun
ĠH igg
ĠH alf
Ġover coat
ĠR ugg
ĠJ ar
oll o
ĠN ell
Ġhead long
Ġfa wn
ĠO NE
Ġshall ow
gg er
Ġser mon
Ġmar gin
Ġcount less
Ġco ax
vent h
Ġho pped
Ġsur geon
ars on
the se
Ġrel ics
ĠV rain
Ġass ail
Ġmon ument
Ġsk et
Ġbest ow
Ġfact or
Ġev ils
Ġmet ap
att ie
Ġide als
Ġhope ful
Ġdet est
Ġexpl od
Ġexpect ations
Ġprop ortions
Ġspr ay
ĠAr n
ug n
Ġdev ote
Ġcap ric
Ġpal p
Ġbright er
Ġjoy ful
Ġcompl ac
Ġrich ly
sequ ent
Ġweak er
Ġoblig ation
Ġinflu ences
Ġbread th
Ġstrugg les
ĠGer da
Ġutter ance
Ġhy d
Ġhang ed
Ġgra pes
Ġver ge
Ġstar ved
ĠZ arathustra
ĠPer haps
Ġprocess es
Ġheat hen
ĠPh ronsie
Ġbask ets
Ġdam n
Ġrul ers
Ġconstit uted
Ġstead fast
Ġrepresent atives
ĠCal iph
ĠAlex ey
Ġindul ged
Ġdesign s
Ġclub s
Ġrust y
Ġgrasp ing
Ġsubs ist
Ġridic ule
ĠBel g
ĠPen rod
Ġpsych ology
ĠMo hammed
Ġofficial s
Ġox en
Ġvolunt eer
Ġperpet ually
Ġfasc inated
Ġflut tering
ĠCarol ina
ĠWall er
ĠJen ny
Ġrepent ance
Ġencl osure
Ġaccur acy
Ġhistor ical
Ġingen uity
Ġavail able
Ġphilosopher s
Ġtub e
ĠVictor ia
Ġrav ine
Ġcongrat ulate
Ġarist ocratic
ĠKent ucky
Ġrecei ves
Ġbutt ons
Ġrhy thm
ĠGall oway
Ġsymb ol
Ġoppon ent
ĠGos pel
Ġbefall en
ĠEmp ire
Imp ossible
Ġgird le
Ġconspir acy
Jo hn
Ġchal k
Eliz abeth
Ġsecre cy
ĠCaes ar
ĠJerv is
Ġammun ition
A G
A nt
B ack
C or
D r
G eneral
K now
L ight
S yn
b ish
h l
i per
l ings
m atic
t ieth
u h
y a
Ġt ed
Ġa pe
Ġw har
re qu
Ġb ubb
Ġp ork
ut uz
et ime
Ġr iv
Ġr ipp
Ġan alog
ri ve
ri el
Ġall ies
ĠS pr
ĠS onya
ĠC aval
ĠA T
ol m
Ġj ug
au gh
Ġtw inkling
ĠL ab
ĠT us
ĠH ubert
ine a
Ġgr ains
Ġim itate
ĠE ames
Ġch ick
ĠW ednesday
ĠR oc
Ġper ch
Ġper ceptible
Ġpart ially
Ġwhere fore
Ġhead quarters
Ġcr ushing
Ġcons cient
Ġatt ributed
man n
Ġem inence
Ġpers piration
Ġsw itch
the l
ĠCh uck
Ġsk irts
Ġround ed
Ġperson age
oun ge
Ġinf all
ĠU r
Ġsound ing
Ġsign als
uff in
Ġpret ence
Ġfort s
Ġforg iveness
Ġdri pping
Ġleg itimate
Ġcross es
Ġcal f
owd er
Ġsweet ly
arent ly
Ġplan ning
Ġlif etime
Ġstop s
Ġrev ived
Ġthy self
Ġhabit ual
Ġcontro lled
Ġsubst ances
Ġstar ve
Ġbag gage
Ġarg ued
fortun ately
Ġnorth ward
Ġdiscover ing
Ġorgan ized
Ġcabin et
Ġentertain ing
ĠLaw rence
Ġreward ed
Ġsmell ing
Ġsex es
Ġmagnific ence
Ġtravel ers
Ġgrie ve
Ġrust ling
Ġmechan ism
Ġbark ing
Ġblaz ed
Ġdeliber ate
Ġattent ions
Ġnovel ty
Ġrab bits
Ġgallop ed
emy on
Ġcoo lly
Ġwhirl wind
Ġnegro es
Ġdece ased
Ġingen ious
Ġtranqu ill
Ġdisple ased
ĠHarr is
Ġimprison ment
Ġcush ions
Ġdoc ument
Ġspecim ens
Ġsuperst ition
Ġber th
ĠAc ademy
atisf ied
ĠColumb ia
Ġeyel ids
Ġenvelop ed
Ġelabor ate
ĠGerm ans
Ġfren zy
Ġener getic
Ġquer ied
ĠPhill ips
aterpill ar
Ġautomob ile
ĠHeli um
ĠHop kins
Ġexal ted
Ġmonoton ous
utuz ov
A ST
F are
O F
W omen
b ro
b us
b ted
n ame
o ir
o cious
p ole
s ince
Ġt ies
Ġt iss
Ġt ense
in als
Ġs cept
Ġs incerity
Ġm ales
Ġf ath
Ġc ripp
es acre
Ġl ounge
an ity
Ġg ap
ve red
Ġon ion
Ġse lection
il ney
Ġdo ve
Ġdo st
qu ite
Ġsh orter
ĠS erv
ĠS pring
ĠM all
ĠC are
ous ing
Ġthem e
ĠB unny
Ġgo ats
ĠP ut
ĠP all
ĠP itt
Ġpl ank
ag in
Ġtr otted
Ġar ising
ĠT eddy
ĠD O
ĠH ad
ĠH ER
Ġsha ggy
Ġsee ks
Ġover heard
ear ing
ĠR uff
ab ilities
Ġfl attered
Ġhow ling
ert on
ĠN E
There upon
Ġgl or
ber ries
Ġdes ol
Ġsl ice
Ġmen ace
Ġind ist
Ġser f
Ġdist ributed
Ġple ading
Ġgot ten
Ġact ivities
Ġsw oon
Ġsub sequent
Ġdisc onc
ĠSt one
Ġconf inement
ib al
Ġhum ility
Ġsun rise
ph ick
Ġjo king
Ġreal m
Ġdep ression
Ġdoubt fully
Ġhon ors
Ġred eem
Ġaff l
Ġpa using
Ġsight ed
Ġsch ooner
Ġsy ll
Ġmus lin
Ġpen alty
ON D
Ġarr ay
Ġoccasion ed
ĠCar leton
Ġsuper fl
Ġproceed s
Ġfun ctions
Ġhall s
ĠWill oughby
Ġpost p
AR D
Ġrev iew
Ġund ist
Ġsick ly
Ġprincess es
Ġobt aining
ĠMad am
Ġvain ly
Ġcustom er
Ġcustom ers
Ġvirt uous
Ġinde bted
Ġrecord ing
ĠAs ia
Ġtele gram
Ġinvol ve
Ġenv iron
Ġexceed ing
Ġunl ocked
Ġconven ience
ĠSte ven
Ġtrad itions
Ġobsc urity
Ġdisgu ised
erg us
ĠArm adale
Ġfer ocious
Ġrene w
Ġnois y
Ġsway ing
Ġaccur ate
Ġenl ar
Ġtranqu il
rib ute
Ġanaly sis
Ġsurvey ed
ĠSilver bridge
ĠButter fly
Ġwholes ome
Ġunreason able
rehens ible
ĠCartha ge
Ġlonel iness
emet ery
Syn onyms
H aven
M itya
P art
b a
c us
c ony
f it
g a
p ence
s m
y ers
Ġt il
Ġt ents
Ġo pt
ed e
is ms
Ġf ists
en ny
Ġto e
Ġd uration
or ne
ll ow
Ġh ounds
Ġn aval
Ġn asty
Ġe cl
ve ying
ay lor
Ġas pir
Ġse izing
Ġfr amed
il p
Ġde pl
Ġde mean
Ġsh iver
Ġcon greg
Ġex ile
ĠM ist
ĠC H
our n
Ġal ien
ol ph
ĠB eryl
Ġpl ent
ĠL orry
ĠT er
ĠT ill
Ġdis f
Ġdis reg
Ġim pelled
ĠW oman
ĠW averley
ĠF ledgeby
ĠR oy
ab oo
Ġfl ows
Ġper ished
ap es
Ġpe eping
Ġcha st
Ġsc ri
Ġsl iding
Ġimp osing
Ġmor n
Ġinst ruction
ict ions
Ġrec ru
Ġnat ures
Ġreg iments
Ġmon ks
Ġcond uctor
Ġext inct
Ġes pecial
Ġalong side
Ġsto red
Ġmer its
Ġdem on
Ġdev ices
Ġcharacter istics
Ġexcept ing
Ġsweet est
Ġtrave ls
Every one
Ġchief s
Ġmill s
inc ing
Ġfut ile
Ġgro om
Ġdelic ately
Ġshr oud
Ġimpress ive
ĠPe g
Ġgrat ify
bur st
Ġur gent
Ġid ol
Ġneighbour ing
Ġrepresent ing
ĠEar le
Ġbal cony
ĠThom pson
Ġexhib it
Ġresemb ling
Ġident ical
ĠFrank lin
ĠAugust ine
Ġod ious
Ġrib bons
Ġdemonstr ation
Ġbat hing
Ġresour ce
ĠWinter bourne
Ġbehav ior
Ġillum inated
Ġinsol ent
ĠScott ish
ĠWind s
ĠCent ral
Ġcandid ate
Ġvex ation
Ġprodig ious
Ġincess antly
Ġfaire st
ĠHor ace
ĠCommission er
Ġfab ric
Ġepis ode
Ġmoust ache
ĠRus sell
Ġimposs ibility
Ġrece iver
Ġeverl asting
Ġextingu ished
C ont
I AN
a ite
g ery
o iled
Ġ ."
Ġt ough
Ġt int
Ġw ink
ou let
Ġc ert
Ġc yl
Ġd uly
Ġp ane
Ġp ots
Ġl ain
Ġl ump
an o
Ġbe ak
Ġon ions
Ġst oop
Ġr acing
Ġr ushes
Ġan ec
ke e
Ġse wing
Ġsu nd
Ġk ins
ĠS ult
Ġv otes
Ġkn itting
em en
ĠB udd
Ġle gged
ig ne
ĠP RO
Ġpl aint
Ġag g
Ġsp aces
Ġsp raw
ĠG un
ĠG asc
Ġbr ink
Ġbr icks
ĠL l
ĠH art
ĠH ud
ine au
ĠF awn
ab y
ile y
Ġpo ll
te xt
Ġmay or
Ġcons erv
Ġret iring
Ġacc idents
sw orth
Ġdist ract
Ġsec uring
Ġco vers
Ġdr ooping
Ġkind red
xt on
Ġpresent ing
Ġfin ishing
Ġele vation
Ġprop riety
Ġbes ee
umb ered
Ġsever ity
Ġexpress ive
Ġpar ag
Ġequ ipped
Ġworth less
Ġaccount ed
Ġjud ging
Ġpublic ly
ĠCl avering
Ġpract ise
Ġsol ved
Ġgrow l
Ġlif eless
Ġconcl usions
key e
Ġcho king
Ġmotion ed
Ġblind ed
ĠRe uben
Ġpit ied
Ġsupport ing
Ġcrown s
ĠMil burgh
Ġla un
Ġla ure
Ġow l
Ġencour aging
Ġban ished
Ġobst acles
Ġwid th
add les
Ġpin ch
ĠBen jamin
aunt ed
Ġwheel ed
Ġreb u
Ġprofound ly
Ġconceal ment
ĠChe esacre
Ġbree ches
Ġtax es
Ġcher ry
Ġrout ine
Ġpenet rate
Ġcontempl ated
Ġcraw ling
Ġmission ary
Ġdaz ed
aur ice
Ġaltern ative
De ath
Ġrobber y
Ġdimin ished
ĠMex ico
Ġadjust ed
Ġsul ph
Ġsumm ons
Ġscrut iny
Ġarchitect ure
ĠFel ix
Ġcoinc idence
Tow ards
ĠTal bot
Ġexcurs ion
Ob jection
ĠMaz arin
Sec ond
ĠHoop driver
Ġprair ie
Ġdecis ive
ĠChip m
Ġnostr ils
Ġrestaur ant
ĠLenn ox
OH N
Ġanec d
ĠHud son
; '
F ew
O P
T ON
c ils
d ale
j ah
m ons
n owing
v able
Ġt ank
Ġt acit
Ġo re
ou ri
Ġb i
Ġm uddy
Ġc od
on ian
Ġp est
an ter
Ġha ck
Ġe ve
Ġe th
Ġre ly
Ġfor d
Ġfor cing
Ġst em
Ġst unned
Ġwe ars
Ġr am
Ġr aging
Ġan ew
Ġme ets
Ġfr y
Ġso ck
Ġk itten
Ġall usion
ĠM ow
ant i
Ġv irgin
ind le
Ġli vel
os o
ist r
ist ant
un ci
ĠP ast
Ġcan oes
au x
ĠG host
ĠL O
ĠL ike
ĠT ilney
ĠH unt
ĠH ugh
Ġsha m
ĠE X
ĠW ing
ĠW hether
Ġhand writing
Ġbl unt
ĠR ub
Ġfl ank
ĠJ eh
ious ness
Ġstr ang
Ġsm othered
oll en
ber g
ark a
ater ial
ath y
Ġlast ing
ower ing
Ġsec urely
Ġsw orn
Ġrepl ace
Ġhard ened
Ġchar ges
Ġsil ken
ĠCh opin
Ġwar med
Ġconf idently
Ġass uming
Ġmin ers
az e
Ġbus ily
Ġfore f
Ġvis ions
Ġfear fully
Ġexc used
Ġexc uses
ĠTh ou
uff y
Ġbar red
ony m
br al
Ġhus h
Ġpartic ip
Ġprof its
Ġshad y
Ġeng ines
Ġtra ffic
Ġtra versed
umber land
Ġsuccess ive
Ġcre v
iter ranean
Ġund o
ĠBe cky
Ġrepeated ly
urs ed
Ġones elf
Ġrepres ents
Ġpeculiar ity
Ġcontro vers
Ġthreat en
ocr ates
Ġattend ance
Ġmel od
Ġpack age
Ġsouth ward
Ġdiscover ies
Ġinstinct s
Ġban ners
Ġsmooth ly
Ġrend ers
Ġlit ter
Ġrestr ained
ĠPen nsylvania
Ġod or
Ġveget ation
ĠCha uvelin
Ġpersist ent
Ġfund s
Ad am
Ġreluct ant
ĠSy dney
ĠMed iterranean
Ġmourn fully
Ġscru p
Ġinspect ion
Ġdisple asure
ĠJan uary
Ġrecei pt
Ġbloss oms
Rob in
ĠCham ber
Ġrefres hed
Ġcomprehens ion
ĠLang more
Ġsem i
ĠAlm ighty
Hard ly
Ġtechn ical
ĠKenn eth
ĠNathan iel
Ġyach t
Ġtrem ulous
ĠDef arge
Ġasyl um
B ert
J oe
K ate
M ajor
M ENT
N ature
P ossibly
R ichard
T Y
T aking
W r
f en
f olk
l ig
Ġt ires
he um
in ch
er on
Ġb iting
Ġf oes
Ġc ot
ing es
Ġp ion
ll er
Ġha ze
Ġg um
Ġbe ads
ut her
ly mp
Ġst ew
ac ies
ch oes
Ġsh ivering
ĠM ord
ĠM itc
ĠM aud
ant ime
nt y
ĠC ome
Ġv ow
Ġv ices
Ġint rig
Ġno d
ĠA lt
Ġab ide
ĠB ad
ĠB everly
Ġqu e
Ġqu iver
Ġqu oted
ck er
Ġbr ist
Ġar ises
ĠT ess
!" --
ĠD a
ĠH ope
Ġgr umbled
Ġgr otes
ĠE lf
ĠW ILL
Ġhand y
ĠR aff
ab riel
Ġad ored
ud off
ĠJ oyce
Ġlook out
ft s
cl ing
cl oth
ĠV es
ĠSt anley
Ġconf ided
Ġmin er
oc olate
ĠAnd rea
har ton
Ġsn ap
ĠU p
ĠBr id
ĠBr ad
Ġpri or
Ġspr inkle
Ġcirc ulation
Ġir ony
ek hl
Ġdem ocratic
Ġsubject ed
Ġdev oured
Ġpar rot
ĠBl oom
Ġang les
ĠCl ark
ones ome
Ġtop ic
ĠDe er
IN D
Ġforth with
Ġsevent eenth
rs us
Ġneck lace
olog ist
Ġloc ated
Ġloc ality
ĠBe at
Ġden ial
Ġattack ing
Ġgrat ified
Ġgrad ual
Ġdistur bing
ĠCount ry
min ster
OU S
Ġplant ation
Ġterr ors
Ġdam sel
Ġexec ute
Un less
Ġcorrect ly
Ġemotion al
Ġdawn ed
ĠMount ains
ĠComm ons
Ġnurs ing
Ġcontem por
Ġunb roken
Ġelectric ity
Ġinex press
Se ven
Ġselfish ness
Ġgrin ning
Ġswell ed
Ġdoctr ines
Ġwhirl ing
Ġmock ery
Ġhaz el
Ed ward
Ġdecor ated
Ġenqu ired
Ġratt ling
Ġchamp ion
ĠKl aus
ĠConn iston
Ġrelax ed
Ġexagger ated
ĠSum ter
Ġiv ory
ĠPers ian
Ġhaul ed
Ġthrob bing
Ġecst asy
Ġblacks mith
ĠMerr ick
Ġincons ist
Ġreapp eared
Ġcorpor al
Ġoverl ooked
ĠHann ah
Ġviz ier
Ġexpend iture
Ġsturd y
ĠSpenc er
Ġinsignific ant
Ġenviron ment
ekhl udoff
A U
B Y
F OR
O ff
P ass
W onder
a ved
c a
e pend
i hil
l on
l orn
n ity
o ors
t a
Ġt utor
Ġs ite
Ġm ature
Ġc emetery
or ic
or ters
Ġp itcher
at ers
om a
Ġe b
ic ane
im a
Ġre cip
Ġwh ims
Ġst ump
Ġst ature
Ġr aid
Ġr ains
Ġr aced
Ġse asons
ome y
th ne
est one
ĠS id
ĠS ocrates
ĠM ead
ĠM agn
ĠC ere
ĠC uthbert
our ge
Ġv ile
Ġli b
ĠA h
ĠB road
un ches
um a
Ġpl ung
Ġpro gram
ĠG ret
ĠG ertrude
Ġbr oth
od ox
Ġun he
Ġun ce
Ġun aw
Ġun anim
ĠL ay
ĠL ee
ect or
Ġam ate
Ġcl asping
Ġdis l
ĠW ol
Ġpart ition
ĠN OT
int o
Ġatt ire
Ġent ers
Ġfar ms
Ġem ig
av y
Ġlove liest
ia zz
for ced
Ġrel ating
Ġconf erence
Ġche ered
ER S
up iter
oot s
ins ic
Ġcontin uous
Ġreal ise
Ġinf irm
Ġdec ay
be ing
Ġsing er
ern ation
ĠY or
ĠY ale
Ġconst ernation
Ġproper ties
Ġpar cel
Ġrespect ive
Ġdecl aring
ĠBl uff
Ġview ed
ĠGr amm
erv ille
Ġdiv orce
Ġdrink s
ĠCom rade
ĠEl m
Ġhy mn
ĠLe g
yn ch
Ġwond rous
min istration
Ġheight s
Ġexcited ly
Ġdeb ate
Ġow es
Ġconstit utes
Un fortunately
Ch ris
Ġappeal ing
Ġpopular ity
Ġshel ves
Ġshock ing
Ġep och
Ġerr ors
Ġredu ce
Ġflag s
Ġmanif ested
Ġnob lest
Ġovert ake
Ġod our
ĠMid winter
Ġsne ered
Ġflut ter
Ġuncertain ty
Ġmagist rates
Ġspecul ation
Ġinev itably
Ġfrown ing
Ġschol ar
Ġinher ited
Ġimpuls es
Ġiv y
Ġastr onom
Ġchem ical
ĠDiv ine
Ġpha se
Ġmathemat ics
ĠBre nda
Ġverd ict
Ġantiqu ity
Ġambassad or
ĠAustral ia
Ġceremon ies
Ġprovin ces
Ġlege nd
Kat y
Ġupro ar
Ġreconc iled
Ġexplod ed
OHN SON
ĠMitc hell
K itty
L aw
P ardon
R Y
R ather
S end
U ntil
a had
b al
c ery
g ue
h ound
h ips
j ay
l ishing
m ot
m ont
t ically
v oc
w igs
Ġt el
Ġt rod
Ġt ucked
Ġw are
Ġb ully
Ġf ile
Ġc ust
Ġp iles
Ġh ove
Ġl y
Ġl uminous
at han
Ġre ct
ir ch
Ġr heum
Ġan te
Ġsa g
ight ly
Ġso aked
ul sed
Ġsh uff
us ha
ĠM ans
ĠC e
ĠC romwell
Ġfe ud
ra its
Ġthere of
ol and
Ġj am
Ġj ude
Ġpl aus
ĠG ate
Ġun pr
ĠL ion
ĠL oc
Ġpr icked
are rs
op old
Ġcl enched
ĠH etty
ĠE aster
Ġch ir
ĠF inn
Ġapp rent
ĠJ avert
ne x
Ġrem oving
Ġspe ars
Ġsc aff
Ġsl ide
Ġhead ache
ĠK il
ub ble
Ġsupp ress
Ġac he
Ġsw ollen
Ġsub ter
land o
Ġhard est
Ġhard ships
ĠSt ory
ĠHe ll
Ġsk illed
Ġform ula
Ġinf am
be ard
Ġlaw yers
ĠTh orn
Her bert
Ġfoot ing
Ġtruth s
Ġdem ocracy
ov a
ov al
Ġpar as
Ġimag inary
Ġve iled
Ġdesp ond
Ġwin ked
iter ated
Ġtreat ing
Ġoccup ations
AR Y
Ġshut ting
udd led
Ġfirm ness
Go ing
Ġsand s
Ġallow ance
ĠThen ardier
Ġoper a
IS H
Ġgloom ily
Ġstation ed
Ġlod ged
Ġperform ing
Ġunhapp iness
Ġconstit ute
Any how
Ġban quet
ĠMart ian
ĠMart ineau
yr inth
Ġretreat ing
Ġcord s
Ġstupid ity
Ġmal ady
Ġappreci ated
Ġoak s
Ġnurs es
Ġprotect ing
Ġpron ounce
ĠTe resa
Ġwing ed
Ġleis urely
ĠCath olics
ĠBert ram
Ġconsist ent
ĠMarian ne
ĠBuck ingham
Ġrevolution ary
Ġroast ed
Ġscra pe
Ġratt led
ilet t
ndy ke
Ġgn aw
ĠGal ahad
ĠConfeder ate
Ġrequis ite
Ġbisc uit
Ġsquir rel
terest ed
Ġadvertis ement
ĠTurk ish
Ġprover b
Ġburd ens
ĠAven ue
Ġsimult aneously
Ġbail iff
ĠScra ps
Ġhagg ard
Fare well
ĠRuff ord
Ġparag raph
Ġscaff old
A ren
D EAR
I VE
N ight
S n
T S
U nd
a ac
i kes
o at
o ad
p in
p an
r ue
t ake
v ard
Ġa ug
Ġb apt
Ġb omb
is hable
Ġf res
Ġf idelity
en ne
Ġd uchess
Ġp aced
ll is
Ġh ull
Ġg asping
le ans
ic ent
id o
ĠI ce
ir ley
Ġst ain
Ġst ables
Ġall eg
Ġup l
ĠS ylvie
ĠC HA
Ġman e
Ġout burst
ĠB ag
ĠB ool
Ġj ur
Ġj ungle
ĠP ine
Ġtw ins
Ġun im
Ġun int
ĠT urn
Ġcl apping
Ġgr aciously
ĠE nd
ĠE ver
ĠW ild
Ġbl amed
ĠJ ob
Ġthr illing
Ġstr aining
ere nces
Ġcomp artment
Ġimp ost
When ce
Ġmar sh
av as
Ġco gn
oub les
Ġca ves
Ġsk im
Ġsk irm
!' "
Ġinv asion
Ġreason ed
Ġmil it
Ġpa ved
br ick
Ġfort ress
Ġsum s
Ġglad ness
Ġstra it
oor oo
Ġsuccess or
Ġcre ed
ĠEnglish men
Ġaffect ing
Ġval ued
ĠCar l
arch y
Ġsuper natural
Ġoblig ations
Ġsitu ations
Ġvict orious
Ġcourage ous
Ġprev ail
Ġbless ings
Ġmot ions
Ġrub bish
Ġtow el
Ġdespair ing
ĠBell e
Ġstat ements
ĠTr addles
ĠMil an
ĠMil ady
ĠAm az
Ġfold ing
Ġenthusi ast
Ġcontempt uous
Ġspark led
Ġeast ward
Ġirr itation
Ġcollect ing
Ġreven ue
itz erland
Ġrib s
Ġbay on
ĠHigh ness
Ġswell ing
Ġentreat ed
Me antime
Ġaltern ately
Ġsen ior
Ġscold ed
Ġdivers ion
Ġchamp agne
Ġcush ion
ĠTar zan
Ġprem ises
Ġprosec utor
Ġber ries
Sil ence
Ġhorr ors
Ġmerc iful
Ġmagnet ic
Ġconvention al
Ġstrengthen ed
Ġexhaust ion
Ġphant om
ĠAlexandrov na
Ġcalam ity
ĠMir iam
ĠNik olay
ĠCros bie
ĠLiver pool
Ġecclesi ast
Ġsuperfl uous
ĠSteven s
Ġgrotes que
ĠBool ooroo
" .
M er
M art
T urning
c raft
f ied
j or
k ily
r un
s ham
v ik
x ter
Ġa ching
Ġb attered
it ches
Ġf ib
Ġto ys
Ġd ashing
Ġn ets
om o
Ġg asp
ot ent
Ġe go
al m
ur t
Ġse w
am or
Ġfr ig
Ġso ph
Ġde xter
ul c
qu er
Ġor che
ĠC OM
Ġal pha
ers en
Ġthere in
ĠB ow
ĠB ates
um mer
ĠP im
Ġcan n
Ġsp an
Ġaf ar
od s
Ġun self
ĠL ena
Ġpr ick
ĠF al
Ġfl ing
Ġfl ashes
Ġpo pe
Ġsc are
Ġcont ributed
ever sham
Ġind oors
ĠO ver
ĠK arl
ĠK utuzov
Ġfound ations
Ġlo an
Ġcomm ons
iv ol
Yes terday
Ġrep ast
Ġact or
Ġsw ar
Ġnat ured
Ġgi psy
Ġstre wn
ĠCh il
Ġhel met
Ġconf ine
Ġass ailed
Ġmo le
Ġev ap
ĠGod frey
amp h
Ġadv is
Ġdet ained
Ġdet ailed
Ġopp ression
Ġsign ify
Ġdef iant
Ġnecess ities
ern on
ern al
Ġspr inkled
Ġbad ger
Ġspir ited
ug al
Ġbig gest
Ġobject ive
Ġdev ast
Ġpossess ing
Where ver
ĠBl ake
Ġfre ight
Ġsuper b
Ġsuper f
Your s
Ġty rant
ĠPar fen
ĠBe au
Ġstream ing
Ar thur
Ġmut tering
Ġprofess ed
Ġstro ve
Ġgra ves
Ġsubst it
ĠAll ah
Ġmir ac
Ġpot ent
OU LD
Ġthreat s
ĠWilliam s
Ġmel ody
RE D
Ġbutter fly
ĠJul iet
Ġmort als
Ġinj ure
Ġconstit u
Ġinstinct ive
Ġdesper ation
Ġassoci ate
ĠCor onel
Ġimpl ied
Ġimpl ored
ĠNo ah
Ġcurrent s
Ġpowd ered
ĠTe brick
Ġdeliber ation
Ġhoriz ont
Ġpenet rating
Ġrender ing
ĠAust in
ĠAust ria
Ġric hest
Ġdeliver ance
Ġsoot he
ĠDen zil
Ġtorment ed
Ġflatter y
uk oki
Ġcrou ching
ĠHarr ington
Ġuncommon ly
Ġdazz led
Ġhorr ified
ĠCyr il
ĠSign or
Ġattribut es
Ġpic nic
Ġprelim inary
Ġsentin el
ĠTest ament
ĠRon ald
Ġadequ ate
Ġfinan cial
Ġted ious
ĠChipm unk
Ġtel esc
C atherine
D el
D oubt
E ither
H ar
U ND
c un
c har
g ory
m are
m ary
v y
w alk
w hether
Ġt ame
Ġw ither
Ġw recked
re rs
Ġb ount
Ġb oss
it ives
Ġc able
Ġc ode
Ġto ol
or row
Ġl ashed
Ġl oses
Ġin asmuch
Ġbe et
ut y
Ġe choes
id ance
st ro
ir g
Ġfor lorn
Ġr owed
Ġnot ary
Ġher bs
ac ock
oo re
am ond
Ġfr ivol
il iar
Ġk enn
Ġdo gged
and om
Ġcon vert
pe lling
est ial
ĠS k
ĠS ara
ĠS andy
ĠM E
ĠM iko
ant ing
ĠC aterpillar
Ġv on
Ġli ly
Ġout come
ĠP and
ĠP ower
ake m
Ġsp un
Ġsp ied
ag les
ĠT aylor
ĠD exter
Ġen erg
Ġch ocolate
ĠW ales
ĠR es
ĠR ak
ĠR ail
ount able
Ġoff ense
Ġper pend
ap arte
Ġstr ay
Th om
Ġgl ittered
Ġres ume
ĠO lymp
ĠK irk
ix t
Ġend uring
Ġsupp osition
Ġwa iling
Ġchan nels
aut iful
Ġgu idance
Ġrepl ies
Ġfew er
ĠV as
Ġwar fare
Ġconf erred
ib b
Ġneed les
Ġsuff ice
Ġcountry men
Ġjo ints
app y
Ġdeep ened
Ġtri gger
Ġexcl usively
Ġbar ber
ĠFr itz
Ġstra p
Ġtra itor
Ġfav oured
Ġsense less
Ġcomfort ing
Be hold
Ġsal oon
Ġpurpose ly
Ġconv incing
Ġwis est
Ġpriv ately
Ġshut ters
Ġinflu enced
ĠAd ministration
Ġcalm ness
Mar ius
Mar illa
Ġpop ul
Ġinterrupt ing
ĠLe opold
ĠPe pper
ĠPe ppino
Ġcommun ities
Ġpoet ic
Ġuns uccess
set t
ĠJul ie
ĠGu ards
IT E
ĠPl ato
Would n
ĠAm ory
Ġobst ruct
Ġchest nut
Ġbra very
Ġbra vest
Ġassoci ations
Ġassoci ates
Ġrelations hip
Ġcord ially
Ġoutl aw
ĠGreen ow
Ġwithd rawn
Ġshudd ering
ĠRobert s
lest on
ĠPol ice
Ġovert ook
ĠSw itzerland
Ġanticip ation
Ġtick ets
Ġphr ases
Ġcoward ly
Ġchimney s
ĠKen wigs
Ġmast ered
ĠMat thew
Ġappar ition
Ġautom atic
Ġconstitution al
ĠCam bridge
ĠMex ican
Ġprett iest
Ġske leton
Ġinte gr
Ġpersec ution
Ġvolcan ic
Ġwhit eness
ĠAss istant
Ġrebell ion
ĠDep artment
Ġslipp ers
Gl ad
Ġlil ies
ĠPavl ovitch
Dav id
Ġprophe cy
Ġvale t
ĠSaw yer
Ġmonop oly
Ġabomin able
Ġinterpre ted
Ġnoiseless ly
Ġbaff led
mans hip
Ġrans om
Ġcarav an
ĠSecret ary
Ġtyp ical
Ġphilosoph ical
ĠHigg ins
Ġchick ens
Ġindist inct
Ġforef inger
Ġalpha bet
ĠParfen ovitch
Ġperpend icular
A P
A way
B elieve
C r
C all
D E
D ay
F ear
G ot
I ES
L ean
i ard
m ust
r m
u ition
Ġa per
Ġa isle
in ny
Ġs ession
Ġo val
er ation
er ment
Ġb icy
Ġm akers
is y
Ġc yn
Ġhe res
Ġl ark
Ġn ought
at ures
Ġha iled
Ġe aves
et to
al ter
Ġwe ird
il ius
Ġk ittens
," --
Ġall uded
qu ise
Ġcon cess
th ink
th irteen
ĠS abb
ĠM olly
Ġout fit
ĠA RE
Ġle ver
ĠP oor
hed ro
ĠG aw
ĠG riggs
ĠL ind
ĠL ook
ĠT oll
ĠT ito
Ġam os
Ġcl ing
ĠD is
ĠH orn
ĠH erm
Ġgr ind
Ġgr ated
ĠE lder
ĠW ord
ĠF err
Ġad orn
Ġoff e
Ġapp alling
Ġpre st
Ġpre aching
Ġpre text
Ġrem oval
Ġcha sed
Ġsc ope
Ġimp enet
ĠO st
Ġcons ole
Ġacc use
Ġpres ervation
ors hip
atter s
iv il
Ġdist ances
Ġdist orted
Ġlove liness
Ġco als
Ġboy ish
Ġkind led
Ġgi ants
ĠV e
Ġexp ose
Ġexp osure
Ġdel usion
Ġche ery
Ġread s
Ġter med
Ġins in
Ġdra ught
Ġel astic
ĠMar l
Ġpower less
att en
Ġbed side
Ġjo kes
Wh ite
Ġsn akes
Do ctor
ĠBr idge
Ġhur ts
Ġtri als
Ġbes et
Ġmus ing
Ġpar ch
Ġpal aces
Ġut ility
Ġpay s
Ġquar rels
Ġwat ches
Some body
jo ined
Ġsol ve
Ġann ual
Ġobl iv
Ġincl ude
vere nd
Ġspot ted
EN CE
ĠBar n
ĠRob inson
Ġmut ton
Ġdevelop ing
ĠThor ndyke
af e
Ġimpro per
Ġimper ial
Ġuns us
ĠOr leans
ĠGu est
Ġbull s
Ġrecoll ected
Ġproject ed
Ġcop ies
Ġmillion aire
Ġrust le
Ġemer gency
Ġfix ing
Ġexert ed
Ġexcess ively
Ġsimpl est
Ġdisappear ing
Ġdisappear ance
Ġconsist ing
Ġcoward ice
Ġphot opl
Ġsan ction
Ġdepri ve
Ġbatter ies
Ġtrif les
Ġtriumphant ly
Ġinsol ence
CT ION
Ġhumili ation
Ġrefres hing
Ġdiscont ent
Ġslipp ery
Ġfrog s
ĠAnge l
Ġscant y
App arently
Ġrefresh ment
Ġloos ened
Ġaccus ation
sevent een
Ġinsens ible
ĠBenn et
Ġredd ish
ĠStu art
Ġchival ry
Ġmischie vous
Ġbetrot hed
Ġtranquill ity
Ġundist urbed
ilp hedro
Ġdisf ig
ĠSult an
ĠCere bral
F ine
G re
M ont
O B
O pen
P h
P re
T O
T ruly
U E
c ry
d ia
f irst
f ifty
g ie
h o
m aker
p o
s c
v on
y gen
Ġt ipped
Ġa le
Ġa us
Ġw rigg
Ġm os
Ġto ken
on ic
Ġp amph
ar ity
ut ton
Ġe ats
Ġre eds
ion ette
al us
Ġas p
Ġst ony
Ġst ages
Ġr iot
Ġr oubles
Ġr andom
Ġse ren
Ġse ctions
Ġfr aud
Ġall ey
Ġdo se
ich ikov
ul ch
qu ois
th ly
He len
ĠS el
ĠM od
ĠM AN
ĠM aurice
res ent
Ġor bit
ĠC AN
lf ord
ist ory
ĠB ard
ell ing
ell ows
ort s
Ġcan yon
Ġpro se
ĠG ra
Ġtw igs
Ġtr ains
ĠL inton
ĠL odge
ĠL ecoq
Ġcl aw
ĠH A
Ġsha ved
Ġgr ade
ĠW AS
ĠF ull
ĠF ord
ĠF ergus
Ġad ore
Ġfl own
Ġcame l
ĠJ upiter
Ġpe cun
Ġpre cept
Th or
Ġrem n
ĠN ickle
Ġcont ing
Ġgl aring
ark er
anc he
Ġind ication
ĠK al
ĠK ings
ĠK angaroo
Ġnight mare
Ġcar ing
Ġte asp
Ġrep ugn
Ġboy hood
ĠV ill
Ġcare lessness
Ġcor al
Ġins urrection
Ġdra per
Ġsk ies
Ġinf ancy
Ġele venth
Ġbar rels
ec ided
Ġorder ly
br ook
Ġfine ly
Ġpar adise
Ġpossess es
ric ate
Ġequ ival
Ġsaf er
Ġfront ier
gin a
ĠInd epend
ax ter
Ġpet ition
Ġprov iding
cha l
Al ong
Ġresol utions
hys ical
Ġneck s
Ġemb arked
Ġreply ing
Ġphys i
Ġphys ically
Ġevent ually
Ar ound
Ġlangu id
Ġvan ish
Ġdim ensions
Ġblind ness
Ġaccompl ishment
Ġgar b
ĠMon ica
Ġphil anth
Ġaccident ally
Ġhate ful
Ġpersu as
Ġtempt ing
Ex cept
Ġinquir ing
Ġforb ear
Ġreckon ing
Ġexped ient
Ġfrank ness
Ġchat tering
Ġident ified
Pr in
Ġris ks
ĠBel inda
bb les
Ġresc ued
Ġcraw l
Ġrecover ing
Tw ice
Ġdwarf s
Ġobed ient
Ġprocl aim
Ġflatter ing
Ġbloom ing
Ġsurre ndered
Ġdece it
Ġoverwhel ming
Ġfest ival
ĠRog ers
ĠJos iana
ĠSec ond
Ġvolcan o
Ġtar get
Ġelev ated
Ġimpert inent
Ġinconven ience
Ġsuck ing
ĠRay mond
Ġsquee zed
Des p
Ġmeek ly
Ġnour ishment
Ġobli ge
Ġstu pe
ĠArk ady
Ġworsh ipped
Ġexter ior
ĠUt op
Ġmultipl ied
Ġarbit r
Ġincomp rehensible
Ġobstin acy
Ġunqu estion
occup ied
Fred er
Ġmonaster y
Ġtires ome
Ġamate ur
ĠNickle by
A ss
A bs
C ertain
C omp
G rant
I V
K e
M us
R ec
b od
b ster
d am
j an
l it
l ier
p ose
p owder
t han
u ber
u ating
u ption
w ar
y m
Ġ X
Ġt art
Ġt ang
Ġt angled
er by
Ġf ading
Ġp ater
es ide
Ġhe red
Ġl am
Ġl uc
an se
Ġn ick
Ġbe ans
Ġbe arer
le igh
ic ans
ce ls
Ġfor fe
Ġwe b
Ġr amp
Ġr otten
Ġr anged
Ġis le
oo ke
." --
ro quois
pp y
Ġsh ines
and ra
and ah
th ia
th odox
ie re
Ġex h
ĠS ed
ĠS ic
ĠM un
ard y
Ġv oll
Ġno ve
ra ved
ĠB u
ĠB ull
un ct
ĠP el
Ġpl ight
ort on
Ġag gress
ure au
Ġsp acious
ĠG arr
Ġtw inkled
Ġun armed
op her
ect ual
ĠT roy
Ġover came
ĠE t
Ġch ina
ĠW harton
Ġhand ling
ĠF in
ĠF uzz
ud ged
Ġthr ows
Ġpe ak
Ġpre ached
Ġbeg g
ber y
int ana
Ġind ig
Ġcr isp
Ġpass enger
ĠO cean
Ġcar p
Ġlo ath
Ġdist racted
Ġcount s
Ġte nded
Ġwa its
Ġsw ine
Ġsw arm
uck ily
Ġside ways
Ġrel atively
Ġsil very
ĠSt ill
Ġmin ing
Ġref inement
Ġter rier
Ġins pir
Ġless er
Ġcol onies
Ġplay er
ets y
be fore
Ġsound ly
ĠTh ough
Ġpri zes
Ġbes ie
Ġmist y
Ġed ition
Ġstra gg
Ġmer riment
ĠChrist ie
Ġpal er
Ġpal ms
Ġsatisf ying
Ġcast les
Ġsqu ad
Ġprov oked
Ġinqu est
Ġpen n
Ġdisp ersed
Per fect
Ġhat chet
Ġarr anging
ĠIs aac
Ġmention ing
Ġimm aterial
ĠBe ast
Ġphys icians
Ġbound ing
AN CE
Ġcou ghed
ĠEl phick
Ġemploy er
Ġconce it
Ġmagn itude
ĠMan n
Ġdesert s
Ġoper ate
ĠPer kins
Ġtow ering
Ġflo ors
Ġpit iless
cil ess
ium s
uls ive
Ġpill ar
Ġsolemn ity
Ġpersu asion
Ġexplan ations
Ġvig our
Ġaim s
IC E
Ġstiff ly
Ġer uption
Ġoutl ines
Ġabsurd ity
Ġfox es
Ġprim ary
ĠFlor ina
Con sequently
ĠDun can
ĠChan nel
ĠSat an
icks burg
reck les
Ġpier ce
ĠIsland s
Ġinvestig ate
Ġasce nding
ĠMo haw
Ġbuck et
Ġric her
Ġscorn fully
Ġga iety
ĠAfric an
Ġgri pped
ĠAp ollo
Ġprocl amation
Ġsore ly
Ġfount ains
Ġult imately
ĠBo oth
Ġtrump ets
Ġpled ged
Nat urally
Ġrein force
opl ane
Ġnic er
Ġemphat ic
Ġmas cul
Ġdefect s
Ġbaron et
Ġfug itives
Ġnavig ation
Ġdisob ey
Ġbarr ister
ĠScript ures
Ġplac id
ĠBrig itte
Ġtrop ical
ĠAlf red
Ġslop ing
Ġcomprom ise
OO K
Ġfern s
Ġpotential ity
Ġinherit ance
Ġwreat h
Ġcul pr
Ġgild ed
Ġabnorm al
ĠHalf man
Ġdisreg ard
ĠGret el
ĠYor ke
Ġpopul ace
ĠArkady evitch
A g
A lyosha
C han
H OW
M ike
S w
S et
S pe
S aid
S pargo
T e
b il
b orn
c od
c ont
f ifteen
i ences
o a
r ified
s ay
Ġt et
Ġt umb
Ġt aunt
he res
he arted
in us
in ois
Ġs ane
Ġs ciences
Ġw al
Ġw agg
Ġo t
er ned
Ġb aw
Ġm att
ed ies
Ġd y
Ġd um
Ġp ension
es per
es ley
Ġl ance
Ġl ull
Ġl onesome
Ġn it
at um
Ġg erm
Ġg aunt
ic c
im o
im et
Ġth igh
se ts
ĠI roquois
et ies
Ġst or
am pered
ro lled
qu iet
Ġsh ifting
ĠS U
ĠC row
Ġman oe
Ġv oted
Ġkn ots
em or
ĠA nton
Ġthere after
ol ved
Ġwill ow
ĠB ere
ĠB ens
ĠB axter
Ġcom edy
Ġj et
ĠP ost
ĠP ansy
Ġqu ot
Ġpro x
Ġpro ving
ĠG ould
ĠG ren
Ġaf t
od a
Ġtr u
Ġar ched
ĠD est
Ġro oted
Ġdis b
Ġover s
Ġover se
ĠW akem
per ial
Ġbl and
Ġbl under
ĠF landers
ĠR unning
ĠR oland
ick ering
Ġfl ann
Ġsm ugg
Ġcha os
Ġsc an
Ġind ol
Ġcr uc
ĠK n
ĠK adok
Ġcour ses
Ġent ry
Ġcomm od
ub by
Ġac hed
Ġwater fall
Ġdisc ord
ĠV ent
ĠSt ri
Ġref erring
ott o
Ġcur ves
Ġlay er
har ine
Ġstart s
Wh ose
Ġreason ably
Ġexpect s
Ġfur t
Ġbur ial
Ġdef y
Ġill eg
Ġcold ness
Ġmer ciless
Ġwatch ful
Ġcomple t
by e
by ter
Ġtra its
ask oln
Ġmod es
Ġdin ners
Ġforward s
Ġbright ened
ĠAl ma
Who ever
Ġrid dle
head ed
Ġmad man
Ġgrow ling
Ġincl ine
Ġyouth s
Ġweak ened
Ġpun ch
Ġhunt s
Ġcat hedral
Ġbell y
ĠEm mon
Ġwit ches
Mar guerite
Ġhabit ation
Ġign ored
Ġhang s
ĠSha ll
Ġlower ing
ees e
Ġcapt ains
Ġuns peak
AT E
Ġfamiliar ity
ĠGl uck
Ġmult ip
Ġbelief s
Ġcell s
Ġindust rious
Ġgrate fully
Ġep ist
Ġcredit ors
Ġben ches
Ġprint ing
keep ers
Ġchat ter
Ġsavage ly
Ġrust ic
Ġing red
Ġinterf ered
ĠHam pton
Ġcalcul ations
AS S
Ġexert ions
Ġinex pl
Ġgown s
Ġfulf ill
Ġox ygen
ĠOn ly
Ġfisher men
Ġdefinite ly
Ġcultiv ation
Ġenchant ment
Ġsust ain
ĠDur rance
ograp her
Ġreluct ance
six teen
Ġwip ing
ĠSen ate
ĠJust ice
Ġinspect or
Ġhospit als
Ġornament ed
ĠBarb icane
anim ity
Ġscra ps
Ġfow ls
Ġchallen ged
Ġsho em
Ġkick ing
Ġjun ior
Ġtram pled
Ġmiser ably
Ġquarre lled
Ġflav or
Ġfug itive
Ġchoo sing
Ġstif led
ĠMaxim ilian
ĠJon athan
Ġliv id
Ġbeck oned
aza ar
Ġadvers ary
Ġcler ks
Ġomin ous
Ġwhar f
ĠPut ney
Ġenlar ged
jor ie
ĠSabb ath
Ġpecun iary
Ġmascul ine
askoln ikov
' ?"
B oys
H or
I P
M il
M ine
N OW
P ol
P inocchio
S am
b i
b oys
c ox
d ers
d ling
m uch
r um
u cc
Ġt umble
Ġt umbling
Ġthe ater
Ġs ized
ou ver
Ġf ade
Ġc ed
Ġc amps
Ġh ooks
as ingly
Ġg inger
ot he
ot le
Ġe g
ic ism
im i
se il
Ġst ress
Ġst ations
ur ious
Ġr im
Ġr ats
Ġan ts
if to
Ġfr ied
il a
ul king
Ġup side
ĠS ue
ĠS old
ĠM illy
ĠC her
Ġfe lic
Ġli bid
Ġal oof
em ic
ĠB ri
ĠB rist
Ġle ague
Ġcom ic
han y
ĠP rop
Ġqu ote
ort ing
Ġsp ade
Ġsp asm
ag u
Ġtw in
Ġtw ig
Ġun av
ĠL ob
are th
ĠT in
ĠT art
ĠT hy
Ġam iss
Ġcl over
ĠH ome
ĠH ave
ĠH ook
ĠH ug
ĠH ester
Ġdis ord
Ġen act
Ġbl ot
ĠR oss
ĠR ead
ĠR oper
Ġfl ounder
Ġunder gone
ft on
Ġcha plain
Ġgl ared
Ġdes iring
Ġlet s
Ġcomp ose
ew is
Ġimp udent
we nd
ĠO ut
ĠO ther
ĠO ff
ĠK ara
iz zy
Ġear ning
Ġacc ursed
Ġatt ach
Ġdist aste
Ġnew com
Ġwa il
Ġsub mission
Ġgu iding
not e
Ġhard ness
Ġexp anse
ĠHe ad
Ġmet als
Ġhope lessly
Ġdet ain
Ġplay ers
Ġdec ency
Ġdep ot
Ġgre edy
Ġinv iting
Ġadm on
Ġsecond ary
Ġhur ric
Ġhorse man
Ġclear ness
Ġexcl usive
Ġfoot pr
Ġcirc us
ĠAr chie
Ġappro ving
Ġprof itable
Ġconc ili
Ġeng aging
Ġtra iling
An ne
ugg ing
Ġdelight s
Ġfast en
Ġcomfort s
Be at
Ġstri ve
Ġpict ured
Ġstraight ened
ĠSp ilett
Ġarr ayed
Ġlab yrinth
Ġdiv inity
Ġaccept ance
Ġtrust ing
Ġjourney ed
Ġtall er
Ġsucceed ing
Ġrain bow
OR D
with out
Ġstro ked
Ġstro king
ĠMan or
Ġgen ial
Ġhost ility
Ġspeed y
Ġhonour s
IS S
Ġimper ious
ĠSe ven
ĠPres byter
Ġshame ful
Ġafford s
Ġpan es
Ġodd s
ĠWil cox
Ġdi ary
Ġunivers ally
Ġflour ish
agg ering
ĠAb bey
Ġprincip ally
Con st
Ġplate au
Ġlux uries
eel ing
Ġcalcul ation
Ġimprove ments
Ġpsych ic
Ġexception al
Ġfatig ued
Ġge ography
Ġtheat rical
Ġexecution er
rim ony
Ġclut ching
ĠDant e
Ġscru ples
Ġbind ing
din and
Ġrecommend ation
ĠCorn wall
ĠJan et
Ġestim ation
Ġmelt ing
Near ly
Ġbol ts
Ġbenevol ence
Ġhaw k
Step hen
Ġrever ie
Sm all
Ġexasper ated
Ġapprehe nded
ĠScar let
ĠZe us
Ġcabb age
Ġsher iff
Ġmagaz ine
Ġcel estial
Ġsmoot hed
Ġvehement ly
Lou is
Ġment ally
Ġank le
ĠBry ce
ĠGord on
Ġdesol ation
Ġcongreg ation
ĠWinds or
ĠGramm ont
Ġenerg ies
Ġimpenet rable
Prin cess
) ;
B re
F lor
J eff
M ix
P ER
R alph
S ing
V EN
c ade
d al
d ust
g ers
l aid
n is
r ations
s pring
w orks
in ished
Ġs ash
Ġo mitted
Ġb ould
Ġb ang
Ġb itten
Ġb ait
Ġb irch
Ġm it
Ġm oth
Ġm ammy
Ġc ement
on ge
Ġd ing
Ġd uel
Ġd addy
Ġp ins
Ġp airs
Ġh ive
Ġl ink
ay e
Ġhis sing
Ġas under
ur ated
Ġse p
ro it
Ġde leg
ul u
Ġsh irts
ĠS ower
ĠS cience
ĠS weet
ĠM usk
ĠM oore
ant ed
ĠC ant
ĠC au
ĠC ott
ind eed
em per
ĠA cc
Ġab hor
ĠB under
ĠB apt
Ġj erk
Ġgo in
Ġqu oth
el ief
Ġsp ont
Ġsp oonful
Ġbr ack
Ġtr uck
Ġar ches
Ġun g
Ġcl ient
ĠD ad
Ġus hered
ĠH omer
ĠH atteras
Ġen raged
ĠE thel
ĠW ald
ĠF ro
ĠF antine
ĠR ain
ĠR addle
ab s
Ġper v
ĠN eel
Ġsl ugg
Ġfa red
Ġcomp ressed
anc ouver
Ġimp ose
Ġsomet ime
Ġmor nings
Ġwr ung
Ġser mons
Ġheart less
Ġmar quise
Ġco co
Ġrec ourse
Ġarm cha
Ġdr ought
Ġexp ired
oub led
Ġmo aned
Ġpoor ly
Ġfore see
amp a
sh ot
Ġsn ub
Ġfear less
Ġinv ested
Ġunc overed
Ġhon oured
Ġfort itude
Ġappro bation
Ġmist rust
Ġdraw ers
An sw
Ġship w
gr ad
gr own
Ġdeal er
Ġve in
ĠInd ies
ming ton
Ġtor ches
Ġce ases
Ġgrand son
Ġsuggest s
Ġsuggest ive
IN E
Ġthick er
Ġann ihil
Ġcrowd ing
ĠIs le
ĠWill is
Ġpost ure
ĠChar ming
ĠChar leston
Ġdescri bing
Ġemb ark
Ġclim ax
Ġbound ary
rop olis
Ġspite ful
ĠDick ie
Ġgro ves
gu ard
Ġshr ine
Ġgra pp
Ġtroub ling
Ġcott ages
Ġadmir ably
Ġintrodu cing
ĠTo omey
Ġshoot s
ĠMon a
Ġrecord ings
Ġclever ness
Ġstat ues
Ġseason ed
Ġdwell ings
Sh ut
Ġbor row
ION S
Ġcrim inals
Ġsigh ing
Ġgest ic
Ġflour ishing
Ġhom age
Ġcontempt ible
Ġassured ly
Ġfeast s
Ġpuzz le
Ġcorrespond ent
Ġmood s
erk o
Ġham m
Ġtransp orted
Ġpant ed
ĠHim self
ĠWood man
Ġtoss ing
ros c
Ġcontri ve
Ġhaunt s
Ġpsych ological
Ġvic ious
ĠJac ques
Ġcru ise
Ġcro ps
Ġfasc ination
Ġbewild erment
Ġbrid ges
ĠStr ong
Ġdil ig
ĠRom ayne
Ġscold ing
Ġmarve lled
En ough
Ġstret ches
Ġindic ations
ĠJos ie
Ġhumili ating
Nat asha
Ġpall or
every thing
Ġmonot ony
Ġstamp ing
Ġmart yr
Ġcash ier
ĠGlen c
Ġdun geon
Ġtext ure
Ġhoarse ly
Ġflu id
Ġbenevol ent
ĠMiddle ton
Ġaccommod ation
Ġrighteous ness
Ġbru ised
Ġagricult ural
ĠClare nce
ĠTheod ora
Ġtipt oe
Ġguarant ee
Ġfilth y
Ġpulp it
Ġunequ al
Short ly
Ġinsuff icient
Ġpyram id
Ġaffl iction
iazz a
ĠPand ora
Ġinexpl icable
ĠNeel ie
B en
C ap
F inding
J os
J oseph
M ight
O OD
R ep
S how
c ould
h ouses
r ick
t les
v o
w ent
Ġs ow
Ġs angu
er b
ou g
Ġb rew
Ġm attered
Ġf erry
Ġd ough
Ġd ip
Ġd ia
Ġp au
Ġp ens
Ġp uls
Ġp ussy
Ġp oult
Ġhe ns
Ġhe aved
Ġl ass
an x
Ġn ests
ow ler
id ays
Ġwas ting
Ġth undered
st heus
se mble
ĠI l
Ġst ren
ur ate
Ġr amb
ac ic
Ġan ci
Ġat ro
if er
Ġde ception
Ġde uce
Ġdo ck
Ġne ur
Ġsh oved
ge e
pe ls
ĠS kin
ĠM Y
ĠC ler
ĠC rab
Ġ" '
Ġal ms
Ġwor ms
ĠB Y
Ġle e
Ġcom mend
Ġcom pel
ig ger
ort ment
ose y
el ope
Ġpro ff
ĠG ene
Ġaf ore
Ġun it
Ġun se
ĠL ane
ĠT own
ĠT ifto
ĠD id
ĠD ol
ĠD ub
Ġus age
Ġgr uff
Ġgr udge
Ġday time
Ġch illed
ment ed
ng aria
ĠF eversham
Ġfl irt
Ġoff spring
Ġpe ers
Ġpe el
Ġstr ife
Ġunder go
ise ly
In side
Ġjust ification
Ġdes erving
oss ess
Ġsl ate
ĠK ar
ĠK id
Ġcar bon
Ġbo g
ren ces
Ġple a
Ġdiff ered
mer dy
ple nd
Ġunt ouched
Ġvo id
Ġhel ps
ĠSt ock
Ġmin eral
Ġmo an
Ġkeep ers
Ġtre mor
Ġadd s
Ġinter n
Ġcur l
pr om
ĠMar ionette
Ġwo ven
Ġneed less
Ġsuff erer
Ġbed stead
Ġdet achment
Ġreal ization
Ġprom ote
Ġunc on
Ġunc ont
Ġquick ened
Ġthir tieth
ĠY ard
St ri
Ġeffect ually
Ġcap it
Ġesc orted
Ġut il
An na
Ġmod ified
Ġsqu at
Ġscar f
ĠAl an
Ġap olo
Ġvar ieties
Ġval iant
Ġweek ly
ĠNor ah
Ġforget fulness
Ġthird s
Ġinfl ict
Ġpost erity
Ġmed itation
Ġrev ive
Ġcloud ed
ĠCol bert
Ġbeast ly
Ġshr inking
ruct ive
nes see
Ġver anda
Ġvan qu
Ġmurm uring
Ġcommun ion
Ġaccompl ice
Ġfond ly
Ġaffection ately
ĠPer ci
Ġwear ied
AT ES
Ġkingdom s
Ġtempt ations
ĠPaul ine
Ġban ner
Ġbrill iantly
Ġbra zen
Ġcart s
ĠBob o
Ġunivers ity
Ġexceed ed
Ġforeign er
Ġproject ing
Ġproject ile
Ġghost ly
Ġmal icious
ĠDon ald
Ġemer ald
Ġsubs ided
ĠAugust a
lo at
Could n
Ġinex per
OL D
Ġvic ar
Mad am
Ġvolunt ary
Ġharsh ly
Ġalter ation
Ġeleg ance
Ġcomment ed
Ġcomprehe nded
Ġglit ter
Ġdishon est
Ġcorrupt ion
Ġindic ating
Rob ert
Ġdisin terested
ĠPeter kin
ĠEs qu
Ġimpet uous
Ġbord ers
Ġviv idly
Ġoppon ents
Ġentr usted
Ġintox icated
ĠSocial ist
ĠFer dinand
ĠBart on
Ġappe als
ĠMerc er
Ġrevere nt
ĠGeorg ia
ĠDin ah
ĠFe ather
ĠSuff olk
Ġdelir ium
ĠFR OM
Ġunmistak able
Ġdanc ers
John ny
Ġtiss ue
Ġcyl inder
ĠRub y
onym ous
Ġplaus ible
avas or
Ġorche stra
Ġtelesc ope
Doubt less
Ġparch ment
Ġseren ity
Ġequival ent
Ġmanoe uv
ĠBere ngaria
merdy akov
B ad
D is
F riend
I X
S l
S ave
T ill
b en
c ation
c ott
n ine
r ad
u an
w orm
y et
Ġa ust
Ġo mn
it ans
it ative
it iveness
Ġd ar
Ġd ess
Ġd aint
Ġp ail
Ġp acing
es us
Ġhe ark
as er
ar ic
Ġin land
at ism
Ġbe ats
Ġbe aming
st ep
ay er
ur ston
ad ac
Ġr ouse
Ġr aged
ke ll
Ġfr ames
Ġso j
il ion
il oqu
Ġdo ves
Ġsh red
Ġcon tend
Ġex it
ĠS us
ĠS ub
ĠS uper
ĠC up
Ġfe athered
Ġare as
ist ered
ĠA R
ol ks
Ġab ject
Ġab ilities
Ġwor rying
ĠB us
ĠB less
ĠB oots
um per
ry s
ĠP y
ĠP or
ĠG ulf
Ġun h
ĠH and
Ġgr aces
Ġgr amm
Ġen ig
ĠE ight
ĠW ren
Ġhand ing
Ġbl ight
ĠF ido
ĠR ound
ĠR oom
ab ond
ab ille
ci a
Ġfl int
Ġthr illed
Ġpe nd
Ġstr and
Ġstr ung
ĠN ile
Ġsc ented
Ġob e
Ġhead ing
Ġcr ude
ĠO ct
Ġatt ribute
Ġcar n
get ically
Ġcomm otion
Ġsupp ression
Ġrep airs
Ġco ins
Ġdr ums
Ġside walk
Ġrel ish
ual ity
Ġass umption
Ġcor ro
Ġmin i
Ġche que
Ġinter cept
Ġcur ly
Ġinc o
Ġinc ense
Ġhum ane
Ġname less
Ġfore going
Ġfam ine
Ġsn ug
ĠU pper
Ġgre ase
Ġexpl icit
Ġquick ness
Ġprop os
rie nds
Ġsleep s
Ġfoot ball
umb ers
Ġpat ients
ov ah
Ġpar ap
Ġexcept ions
Ġsus ceptible
Ġsweet heart
Ġchair man
Ġtrans mitted
ĠCl aus
Ġpet tic
Ġsal ad
Ġacqu is
joy ed
Ġwrong s
val ier
Ġconvers ing
Ġdemand ing
Ġmed itated
pic ious
ĠCon seil
Ġmess engers
Ġimm ov
