{"<s>":0,"<pad>":1,"</s>":2,"<unk>":3,"!":4,"\"":5,"#":6,"$":7,"%":8,"&":9,"'":10,"(":11,")":12,"*":13,"+":14,",":15,"-":16,".":17,"/":18,"0":19,"1":20,"2":21,"3":22,"4":23,"5":24,"6":25,"7":26,"8":27,"9":28,":":29,";":30,"<":31,"=":32,">":33,"?":34,"@":35,"A":36,"B":37,"C":38,"D":39,"E":40,"F":41,"G":42,"H":43,"I":44,"J":45,"K":46,"L":47,"M":48,"N":49,"O":50,"P":51,"Q":52,"R":53,"S":54,"T":55,"U":56,"V":57,"W":58,"X":59,"Y":60,"Z":61,"[":62,"\\":63,"]":64,"^":65,"_":66,"`":67,"a":68,"b":69,"c":70,"d":71,"e":72,"f":73,"g":74,"h":75,"i":76,"j":77,"k":78,"l":79,"m":80,"n":81,"o":82,"p":83,"q":84,"r":85,"s":86,"t":87,"u":88,"v":89,"w":90,"x":91,"y":92,"z":93,"{":94,"|":95,"}":96,"~":97,"¡":98,"¢":99,"£":100,"¤":101,"¥":102,"¦":103,"§":104,"¨":105,"©":106,"ª":107,"«":108,"¬":109,"®":110,"¯":111,"°":112,"±":113,"²":114,"³":115,"´":116,"µ":117,"¶":118,"·":119,"¸":120,"¹":121,"º":122,"»":123,"¼":124,"½":125,"¾":126,"¿":127,"À":128,"Á":129,"Â":130,"Ã":131,"Ä":132,"Å":133,"Æ":134,"Ç":135,"È":136,"É":137,"Ê":138,"Ë":139,"Ì":140,"Í":141,"Î":142,"Ï":143,"Ð":144,"Ñ":145,"Ò":146,"Ó":147,"Ô":148,"Õ":149,"Ö":150,"×":151,"Ø":152,"Ù":153,"Ú":154,"Û":155,"Ü":156,"Ý":157,"Þ":158,"ß":159,"à":160,"á":161,"â":162,"ã":163,"ä":164,"å":165,"æ":166,"ç":167,"è":168,"é":169,"ê":170,"ë":171,"ì":172,"í":173,"î":174,"ï":175,"ð":176,"ñ":177,"ò":178,"ó":179,"ô":180,"õ":181,"ö":182,"÷":183,"ø":184,"ù":185,"ú":186,"û":187,"ü":188,"ý":189,"þ":190,"ÿ":191,"Ā":192,"ā":193,"Ă":194,"ă":195,"Ą":196,"ą":197,"Ć":198,"ć":199,"Ĉ":200,"ĉ":201,"Ċ":202,"ċ":203,"Č":204,"č":205,"Ď":206,"ď":207,"Đ":208,"đ":209,"Ē":210,"ē":211,"Ĕ":212,"ĕ":213,"Ė":214,"ė":215,"Ę":216,"ę":217,"Ě":218,"ě":219,"Ĝ":220,"ĝ":221,"Ğ":222,"ğ":223,"Ġ":224,"ġ":225,"Ģ":226,"ģ":227,"Ĥ":228,"ĥ":229,"Ħ":230,"ħ":231,"Ĩ":232,"ĩ":233,"Ī":234,"ī":235,"Ĭ":236,"ĭ":237,"Į":238,"į":239,"İ":240,"ı":241,"Ĳ":242,"ĳ":243,"Ĵ":244,"ĵ":245,"Ķ":246,"ķ":247,"ĸ":248,"Ĺ":249,"ĺ":250,"Ļ":251,"ļ":252,"Ľ":253,"ľ":254,"Ŀ":255,"ŀ":256,"Ł":257,"ł":258,"Ń":259,"Ġt":260,"he":261,"Ġa":262,"in":263,"Ġthe":264,"Ġs":265,"Ġw":266,"re":267,"Ġo":268,"nd":269,"ha":270,"er":271,"ou":272,"Ġb":273,"Ġm":274,"ed":275,"it":276,"is":277,"Ġf":278,"Ġc":279,"en":280,"Ġto":281,"on":282,"Ġand":283,"Ġof":284,"ing":285,"Ġd":286,"or":287,"Ġp":288,"ll":289,"es":290,"Ġh":291,"Ġhe":292,"as":293,"Ġl":294,"ar":295,"Ġin":296,"an":297,"Ġn":298,"at":299,"Ġha":300,"om":301,"Ġg":302,"Ġbe":303,"hat":304,"le":305,"ot":306,"ut":307,"ow":308,"Ġe":309,"ic":310,"Ġy":311,"ve":312,"id":313,"ld":314,"Ġwas":315,"ly":316,"im":317,"Ġth":318,"st":319,"se":320,"gh":321,"Ġthat":322,"ent":323,"Ġit":324,"Ġyou":325,"ĠI":326,"Ġon":327,"Ġre":328,"ce":329,"ver":330,"et":331,"Ġu":332,"ay":333,"ion":334,"ir":335,"al":336,"ith":337,"Ġfor":338,"Ġhis":339,"Ġas":340,"Ġwh":341,"Ġwith":342,"Ġst":343,"The":344,"ght":345,"Ġwe":346,"ur":347,"ad":348,"Ġr":349,"Ġnot":350,"Ġis":351,"Ġhad":352,"Ġher":353,"ac":354,"her":355,"oo":356,"Ġan":357,"Ġsa":358,"ould":359,"Ġat":360,"ter":361,"ill":362,"ke":363,"if":364,"Ġse":365,"Ġhim":366,"Ġme":367,"am":368,"ain":369,"ight":370,"red":371,".\"":372,"Ġshe":373,"Ġfr":374,"ch":375,"'s":376,"ct":377,"Ġsu":378,"ro":379,"ess":380,"Ġso":381,"il":382,"ore":383,"Ġhave":384,"Ġk":385,"pp":386,"ome":387,"Ġmy":388,"Ġsaid":389,"Ġbut":390,"Ġde":391,"ri":392,"all":393,",\"":394,"Ġall":395,"Ġdo":396,"ich":397,"ul":398,"Ġup":399,"qu":400,"Ġby":401,"Ġne":402,"Ġsh":403,"and":404,"ge":405,"Ġcon":406,"th":407,"Ġthey":408,"pe":409,"Ġwhich":410,"He":411,"Ġfrom":412,"Ġthis":413,"ie":414,"Ġwere":415,"Ġex":416,"us":417,"Ġwhe":418,"ust":419,"ble":420,"est":421,"ĠS":422,"ĠM":423,"ard":424,"ant":425,"Ġone":426,"res":427,"nt":428,"very":429,"Ġor":430,"ĠC":431,"Ġfe":432,"lf":433,"ous":434,"our":435,"Ġman":436,"Ġ\"":437,"ation":438,"Ġthem":439,"Ġv":440,"Ġkn":441,"ind":442,"ood":443,"Ġli":444,"out":445,"Ġal":446,"Ġwho":447,"Ġint":448,"Ġno":449,"Ġare":450,"em":451,"Ġwould":452,"os":453,"ra":454,"ist":455,"ers":456,"ked":457,"'t":458,"art":459,"ast":460,"?\"":461,"Ġout":462,"ong":463,"ound":464,"ĠA":465,"Ġthere":466,"ol":467,"Ġab":468,"Ġwor":469,"Ġwill":470,"one":471,"ĠB":472,"Ġle":473,"itt":474,"Ġcom":475,"ak":476,"un":477,"han":478,"Ġj":479,"Ġgo":480,"ate":481,"It":482,"um":483,"ig":484,"Ġtheir":485,"ough":486,"ive":487,"Ġbeen":488,"ell":489,"pt":490,"self":491,"own":492,"ry":493,"ven":494,"ame":495,"ĠP":496,"hed":497,"ack":498,"Ġpl":499,"Ġcould":500,"Ġwhen":501,"reat":502,"ther":503,"But":504,"ake":505,"Ġwhat":506,"Ġqu":507,"ace":508,"ort":509,"Ġcan":510,"Ġyour":511,"Ġag":512,"ose":513,"ost":514,"ide":515,"ity":516,"ure":517,"ck":518,"el":519,"hing":520,"Ġif":521,"Ġpro":522,"Ġtim":523,"au":524,"Ġany":525,"Ġsp":526,"ĠG":527,"Ġaf":528,"Ġbr":529,"od":530,"ag":531,"Ġtw":532,"Ġinto":533,"Ġtr":534,"Ġar":535,"Ġmore":536,"Ġun":537,"Ġloo":538,"ĠL":539,"Ġpr":540,"nder":541,"Ġsome":542,"are":543,"Ġdid":544,"ep":545,"op":546,"Ġvery":547,"ect":548,"ittle":549,"Ġknow":550,"ĠT":551,"Ġam":552,"ved":553,"way":554,"ink":555,"ite":556,"!\"":557,"Ġcl":558,"urn":559,"ĠD":560,"ought":561,"other":562,"ice":563,"Ġlike":564,"Ġlittle":565,"Ġtime":566,"Ġus":567,"fore":568,"Ġabout":569,"ass":570,"Ġtoo":571,"ĠH":572,"Ġother":573,"ine":574,"able":575,"pl":576,"Ġsha":577,"ence":578,"ered":579,"Ġro":580,"Ġgr":581,"Ġsee":582,"ies":583,"Ġdis":584,"And":585,"Ġthan":586,"Ġover":587,"Ġday":588,"ade":589,"Ġim":590,"Ġen":591,"ĠE":592,"ove":593,"Ġagain":594,"cc":595,"Ġnow":596,"Ġhas":597,"Ġch":598,"ance":599,"ear":600,"ree":601,"Ġthen":602,"ĠW":603,"ally":604,"ish":605,"ment":606,"per":607,"Ġhand":608,"ng":609,"ond":610,"Ġmr":611,"ather":612,"wn":613,"She":614,"Ġbl":615,"ĠF":616,"ĠR":617,"Ġshould":618,"ab":619,"You":620,"ress":621,"ci":622,"Ġad":623,"Ġgreat":624,"ick":625,"Ġonly":626,"ud":627,"Ġupon":628,"Ġsay":629,"ty":630,"Ġfl":631,"ff":632,"Ġdown":633,"ire":634,"age":635,"ings":636,"ount":637,"Ġmust":638,"ied":639,"uch":640,"Ġoff":641,"Ġafter":642,"Ġgood":643,"--":644,"Ġthink":645,"ile":646,"Ġapp":647,"Ġbefore":648,"ull":649,"Ġtwo":650,"Ġpo":651,"ving":652,"Ġper":653,"oy":654,"Ġmade":655,"ife":656,"Ġour":657,"ap":658,"ue":659,"Ġcame":660,"ves":661,"ĠJ":662,"Ġthr":663,"Ġlong":664,"Ġpe":665,"ful":666,"Ġhow":667,"Ġits":668,"Ġpre":669,"act":670,"ward":671,"Ġold":672,"ild":673,"ried":674,"Ġmuch":675,"Ġback":676,"ious":677,"Ġfir":678,"Ġstr":679,"ions":680,"ne":681,"ert":682,"ord":683,"Ġsm":684,"Th":685,"ary":686,"Ġnever":687,"oll":688,"te":689,"Ġway":690,"Ġthought":691,"ated":692,"Ġrem":693,"ness":694,"Ġunder":695,"Ġevery":696,"led":697,"Ġcome":698,"Ġey":699,"ave":700,"ps":701,"Ġpart":702,"Ġlook":703,"Ġsuch":704,"hen":705,"ady":706,"Ġwent":707,"Ġbec":708,"Ġspe":709,"ft":710,"ĠN":711,"Ġcha":712,"ach":713,"me":714,"Ġsc":715,"There":716,"Ġcont":717,"ere":718,"ise":719,"Ġgl":720,"Ġeven":721,"cl":722,"Ġfirst":723,"They":724,"ning":725,"Ġseem":726,"Ġwhere":727,"Ġmay":728,"Ġhimself":729,"Ġwell":730,"Ġbet":731,"In":732,"old":733,"Ġ'":734,"What":735,"Ġres":736,"Ġbeg":737,"ily":738,"Ġown":739,"iss":740,"ber":741,"Ġob":742,"ans":743,"ark":744,"Ġjust":745,"Ġdes":746,"Ġget":747,"Ġthese":748,"Ġmight":749,"oss":750,"Ġlet":751,"omet":752,"ouse":753,"int":754,"Ġaway":755,"ened":756,"Ġhere":757,"Then":758,"ang":759,"Ġsl":760,"Ġhead":761,"Ġmake":762,"ater":763,"Ġmen":764,".'":765,"Ġfa":766,"Ġturn":767,"Ġcomp":768,"anc":769,"ew":770,"Ġke":771,"ever":772,"We":773,"Ġthrough":774,"Ġdon":775,"Ġind":776,"Ġimp":777,"Ġeyes":778,"we":779,"Ġcr":780,"Ġpass":781,"Ġbel":782,"ĠO":783,"ath":784,"ared":785,"Ġlast":786,"Ġshall":787,"ĠK":788,"ause":789,"iff":790,"Ġop":791,"Ġcons":792,"iz":793,"Ġlife":794,"ip":795,"ook":796,"ign":797,"Ġwithout":798,"Ġnight":799,"less":800,"Ġtell":801,"Ġwant":802,"Ġcour":803,"Ġcall":804,"..":805,"hes":806,"This":807,"Ġmost":808,"Ġret":809,"Ġsomet":810,"pect":811,"Ġfound":812,"ople":813,"Ġear":814,"Ġacc":815,"Ġatt":816,"Ġtake":817,"ons":818,"Ġword":819,"Ġstill":820,"Ġsaw":821,"Ġent":822,"Ġasked":823,"Ġwom":824,"ix":825,"ible":826,"Ġhouse":827,"Ġroom":828,"Ġlooked":829,"iend":830,"thing":831,"hy":832,"Ġnothing":833,"'ll":834,"Ġyear":835,"Ġright":836,"les":837,"ory":838,"Ġhar":839,"Ġcar":840,"Ġfriend":841,"Ġlo":842,"ase":843,"Ġput":844,"Ġwork":845,"Ġpres":846,"Ġyoung":847,"Ġmor":848,"ult":849,"Ġface":850,"Ġpeople":851,"Ġwr":852,"Ġthose":853,"Ġhapp":854,"Ġtook":855,"aking":856,"Ġbeing":857,"Ġchild":858,"Ġplace":859,"gg":860,"alk":861,",'":862,"ince":863,"Ġser":864,"get":865,"Ġmany":866,"ors":867,"If":868,"That":869,"ens":870,"sw":871,"atter":872,"When":873,"Ġonce":874,"oment":875,"No":876,"Ġmoment":877,"man":878,"oth":879,"Ġthree":880,"Ġcomm":881,"Ġanother":882,"Ġsame":883,"irl":884,"ition":885,"Ġfar":886,"owed":887,"pped":888,"Ġheart":889,"cess":890,"ted":891,"Ġever":892,"ently":893,"Ġbo":894,"Ġansw":895,"iv":896,"ner":897,"Ġfather":898,"med":899,"ian":900,"Ġend":901,"ertain":902,"igh":903,"ways":904,"ub":905,"Ġdist":906,"Ġmar":907,"ren":908,"Ġem":909,"Ġnew":910,"av":911,"Ġleft":912,"Ġple":913,"ock":914,"Ġsupp":915,"Ġgoing":916,"Ġlight":917,"Ġlove":918,"aw":919,"Ġmind":920,"Ġseemed":921,"ished":922,"ody":923,"Ġac":924,"Ġset":925,"rew":926,"Ġwhile":927,"Ġdoor":928,"Yes":929,"Ġfind":930,"Ġcount":931,"so":932,"Ġgot":933,"ower":934,"Ġthing":935,"Ġte":936,"Ġrep":937,"ia":938,"Ġwa":939,"Ġthings":940,"und":941,"den":942,"ret":943,"Ġinst":944,"Ġgirl":945,"Ġtold":946,"ling":947,"Ġsomething":948,"Ġsec":949,"ject":950,"ss":951,"Ġheard":952,"lt":953,"Ġalways":954,"Ġdiff":955,"Ġfoll":956,"air":957,"ict":958,"Ġgive":959,"Ġco":960,"Ġrec":961,"vent":962,"Ġsoon":963,"ched":964,"here":965,"Ġyet":966,"Ġhome":967,"ows":968,"ank":969,"Ġact":970,"ained":971,"Ġpers":972,"sel":973,"ced":974,"Ġsat":975,"Ġfeel":976,"Ġarm":977,"So":978,"Ġthough":979,"ations":980,"As":981,"Ġquite":982,"ged":983,"Ġboy":984,"Ġfell":985,"Ġposs":986,"Oh":987,"Ġworld":988,"aught":989,"Ġreturn":990,"ting":991,"Ġchan":992,"Ġho":993,"Ġsw":994,"Ġsur":995,"Ġhands":996,"mer":997,"uck":998,"for":999,"Ġmother":1000,"ical":1001,"iver":1002,"Ġknew":1003,"At":1004,"aut":1005,"Ġdr":1006,"Ġwind":1007,"ple":1008,"ither":1009,"ully":1010,"Ġwoman":1011,"Ġbelie":1012,"Ġnat":1013,"Ġkind":1014,"Ġdone":1015,"ars":1016,"Ġgi":1017,"Well":1018,"ired":1019,"Ġsub":1020,"Ġmrs":1021,"land":1022,"ool":1023,"Ġgu":1024,"ail":1025,"ined":1026,"Ġcourse":1027,"Ġrest":1028,"Ġside":1029,"ener":1030,"not":1031,"cept":1032,"Ġbegan":1033,"ru":1034,"the":1035,"Ġhor":1036,"Ġstre":1037,"Ġunt":1038,"ited":1039,"Ġyears":1040,"Ġrel":1041,"most":1042,"ual":1043,"Ġrepl":1044,"Ġagainst":1045,"Ġbecause":1046,"Ġbetter":1047,"fect":1048,"og":1049,"Ġhard":1050,"Ġwater":1051,"iness":1052,"Ġeach":1053,"Ġchar":1054,"Ġdisc":1055,"ross":1056,"Ġcle":1057,"Ġfew":1058,"Ġturned":1059,"Ġenough":1060,"Ġvo":1061,"ĠV":1062,"Ġcare":1063,"Ġsil":1064,"ised":1065,"Ġexp":1066,"oub":1067,"ĠCh":1068,"Ġord":1069,"Ġcried":1070,"Ġbre":1071,"Ġhel":1072,"Ġdel":1073,"ĠSt":1074,"How":1075,"ale":1076,"Ġdoes":1077,"Ġwar":1078,"Ġconf":1079,"Ġreg":1080,"Ġnear":1081,"Ġfour":1082,"Ġhalf":1083,"Ġseen":1084,"Ġass":1085,"ier":1086,"'m":1087,"Ġcor":1088,"Ġcertain":1089,"Ġgave":1090,"Ġmin":1091,"Ġmo":1092,"xt":1093,"ib":1094,"gether":1095,"aid":1096,"row":1097,"Ġche":1098,"aken":1099,"Ġfelt":1100,"Ġreplied":1101,"Ġhour":1102,"On":1103,"atch":1104,"Ġmatter":1105,"Ġkeep":1106,"Ġtre":1107,"Ġref":1108,"ial":1109,"For":1110,"Ġpleas":1111,"Ġmyself":1112,"ĠHe":1113,"Ġmorning":1114,"Now":1115,"Ġalso":1116,"Ġwhole":1117,"haps":1118,"Ġsure":1119,"Ġpur":1120,"aster":1121,"Ġocc":1122,"ense":1123,"Ġcalled":1124,"ott":1125,"?'":1126,"Ġread":1127,"Ġadd":1128,"His":1129,"osed":1130,"Ġinter":1131,"enty":1132,"ason":1133,"Ġstood":1134,"ular":1135,"Ġopen":1136,"Ġtoward":1137,"owing":1138,"ob":1139,"Ġcur":1140,"ween":1141,"Ġmon":1142,"'ve":1143,"Ġinc":1144,"uth":1145,"Ġca":1146,"iet":1147,"Ġherself":1148,"ute":1149,"Ġdear":1150,"Ġpoint":1151,"Ġter":1152,"Ġanything":1153,"een":1154,"ating":1155,"oud":1156,"Ġins":1157,"ery":1158,"Ġhelp":1159,"eed":1160,"Ġunderst":1161,"fully":1162,"ces":1163,"Ġsmall":1164,"My":1165,"ks":1166,"Ġhum":1167,"oke":1168,"Ġdra":1169,"ction":1170,"Ġlar":1171,"selves":1172,"oc":1173,"Ġel":1174,"Ġeight":1175,"Ġmean":1176,"Ġbetween":1177,"Why":1178,"Ġboth":1179,"Ġwords":1180,"Ġname":1181,"Ġvoice":1182,"Ġsk":1183,"ĠThe":1184,"ER":1185,"rave":1186,"Ġalmost":1187,"Ġuntil":1188,"Ġpoor":1189,"unt":1190,"Ġbeaut":1191,"Ġnor":1192,"ung":1193,"Ġbest":1194,"Ġdark":1195,"Ġfact":1196,"ange":1197,"Ġsent":1198,"pr":1199,"az":1200,"Ġlooking":1201,"Ġdays":1202,"ents":1203,"Ġsle":1204,"Ġste":1205,"Ġbus":1206,"ned":1207,",--":1208,"ĠMar":1209,"up":1210,"undred":1211,"Ġquest":1212,"Ġsix":1213,"oot":1214,"Ġeff":1215,"Ġfore":1216,"Ġstand":1217,"ont":1218,"ird":1219,"ures":1220,"mr":1221,"its":1222,"Ġround":1223,"oney":1224,"Ġdre":1225,"Ġbrought":1226,"Ġfam":1227,"Ġhear":1228,"To":1229,"Ġwo":1230,"Ġev":1231,"ĠGod":1232,"ates":1233,"ĠMiss":1234,"Ġcannot":1235,"dden":1236,"ins":1237,"Ġtalk":1238,"ured":1239,"Ġhaving":1240,"Ġhundred":1241,"amp":1242,"Ġneed":1243,"Ġlau":1244,"Ġtogether":1245,"Ġking":1246,"Ġless":1247,"Ġnext":1248,"Ġbu":1249,"Ġamong":1250,"Ġbro":1251,"Ġwhite":1252,"Ġanswered":1253,"Ġfeet":1254,"Ġpower":1255,"Ġaw":1256,"ĠAnd":1257,"Ġgone":1258,"Ġmet":1259,"Ġrather":1260,"Ġsudden":1261,"Ġwhom":1262,"ately":1263,"erest":1264,"Ġhowever":1265,"Ġuse":1266,"Ġgener":1267,"Ġpresent":1268,"Ġcol":1269,"All":1270,"Ġform":1271,"ister":1272,"Ġair":1273,"Not":1274,"Ġsuff":1275,"Ġgent":1276,"Ġvis":1277,"ressed":1278,"Ġspeak":1279,"Ġperson":1280,"du":1281,"Ġsun":1282,"aint":1283,"ached":1284,"Ġfive":1285,"Ġlay":1286,"als":1287,"Ġbeh":1288,"Ġfull":1289,"Ġhigh":1290,"Ġinterest":1291,"att":1292,"Ġcontin":1293,"but":1294,"iled":1295,"Ġbelieve":1296,"Ġbed":1297,"Ġadv":1298,"Ġide":1299,"ph":1300,"Ġtaken":1301,"nded":1302,"fort":1303,"Ġhope":1304,"har":1305,"Ġcountry":1306,"ering":1307,"Ġrun":1308,"used":1309,"Ġsim":1310,"Ġwife":1311,"Ġdoub":1312,"Ġcond":1313,"Ġland":1314,"Ġletter":1315,"Ġstart":1316,"ief":1317,"Ġsou":1318,"Ġdet":1319,"Ġfall":1320,"Ġplay":1321,"Ġjo":1322,"Ġtill":1323,"cei":1324,"ĠEng":1325,"Ġlarge":1326,"Ġmoney":1327,"Ġsince":1328,"ention":1329,"Ġserv":1330,"ains":1331,"Ġdire":1332,"oun":1333,"mb":1334,"ken":1335,"Ġpassed":1336,"Ġreal":1337,"Ġinf":1338,"Ġask":1339,"ĠPr":1340,"Ġfire":1341,"iting":1342,"Ġblack":1343,"Ġext":1344,"Ġgentle":1345,"Wh":1346,"Ġwonder":1347,"aim":1348,"Ġdiffere":1349,"Ġtwenty":1350,"Ġfin":1351,"ield":1352,"akes":1353,"ison":1354,"uring":1355,"Ġprom":1356,"Ġ(":1357,"Ġes":1358,"Ġalong":1359,"Ġclose":1360,"sh":1361,"Ġsn":1362,"ets":1363,"ĠU":1364,"!'":1365,"app":1366,"Ġdec":1367,"ably":1368,"Ġremem":1369,"rist":1370,"ying":1371,"Ġchildren":1372,"ued":1373,"Ġwish":1374,"body":1375,"Ġalone":1376,"Do":1377,"be":1378,"ene":1379,"vel":1380,"Ġbehind":1381,"Ġunderstand":1382,"illed":1383,"Ġdro":1384,"fter":1385,"ny":1386,"Ġsound":1387,"Ġdeath":1388,"ided":1389,"ton":1390,"ident":1391,"lic":1392,"Ġthemselves":1393,"Ġfear":1394,"Ġtrue":1395,"ash":1396,"Ġdep":1397,"Ġopp":1398,"eared":1399,"Ġground":1400,"Ġgre":1401,"Ġsir":1402,"Ġinv":1403,"Ġothers":1404,"Ġexc":1405,"Ġexpl":1406,"ousand":1407,"Ġbrother":1408,"Ġunc":1409,"ten":1410,"Ġdoubt":1411,"Ġleave":1412,"ific":1413,"Ġbook":1414,"ude":1415,"Ġreally":1416,"Ġthousand":1417,"Ġadm":1418,"Ġreason":1419,"Ġhold":1420,"rying":1421,"aces":1422,"Ġstrong":1423,"Ġquestion":1424,"to":1425,"Ġeas":1426,"ments":1427,"iful":1428,"orn":1429,"Ġexpect":1430,"ceed":1431,"alked":1432,"vers":1433,"Ġdead":1434,"Ġappear":1435,"Ġlaw":1436,"bed":1437,"Ġindeed":1438,"'re":1439,"ually":1440,"'d":1441,"Ġdeep":1442,"ities":1443,"Ġshort":1444,"Ġpol":1445,"Ġcoming":1446,"ĠBr":1447,"Ġquick":1448,"Ġgiven":1449,"Ġsecond":1450,"Ġhur":1451,"overed":1452,"ides":1453,"Ġwhy":1454,"Ġtri":1455,"Ġhorse":1456,"ĠTh":1457,"anger":1458,"Ġcompan":1459,"Ġmis":1460,"cy":1461,"One":1462,"Ġlady":1463,"Ġobs":1464,"Ġbody":1465,"Ġprin":1466,"Ġswe":1467,"Ġsing":1468,"Ġsign":1469,"ĠSir":1470,"Ġleast":1471,"Ġhon":1472,"Ġperhaps":1473,"hn":1474,"ready":1475,"Ġele":1476,"ane":1477,"empt":1478,"Ġaround":1479,"Ġcase":1480,"Ġreturned":1481,"ized":1482,"li":1483,"Ġsort":1484,"Ġmil":1485,"irc":1486,"-\"":1487,"aced":1488,"Ġfur":1489,"ceived":1490,"Ġpri":1491,"Ġelse":1492,"Ġfif":1493,"ants":1494,"Ġart":1495,"ider":1496,"ctor":1497,"Ġitself":1498,"aughter":1499,"HA":1500,"Ġused":1501,"race":1502,"that":1503,"Ġbur":1504,"Ġprop":1505,"Ġoften":1506,"osition":1507,"ptain":1508,"Ġfriends":1509,"Ġwalk":1510,"Ġclear":1511,"Ġdef":1512,"Ġkept":1513,"Ġwon":1514,"Ġabs":1515,"uff":1516,"Ġnecess":1517,"oon":1518,"Ġheld":1519,"HE":1520,"ern":1521,"imes":1522,"Ġwood":1523,"ances":1524,"ee":1525,"over":1526,"Ġspr":1527,"Ġalready":1528,"Ġred":1529,"men":1530,"Ġtable":1531,"Ġevening":1532,"Ġaff":1533,"ls":1534,"Ġpa":1535,"Ġlive":1536,"Ġlist":1537,"Ġlear":1538,"Ġstep":1539,"nce":1540,"Ġdidn":1541,"Ġperfect":1542,"Ġill":1543,"TER":1544,"ey":1545,"ger":1546,"ience":1547,"Ġten":1548,"Ġlad":1549,"Ġlost":1550,"Ġexcl":1551,"Ġbar":1552,"rie":1553,"Ġeverything":1554,"Ġmeet":1555,"Ġearth":1556,"ony":1557,"ught":1558,"ec":1559,"Ġbad":1560,"Ġsto":1561,"Her":1562,"Ġbecame":1563,"Ġpret":1564,"Ġsea":1565,"outh":1566,"ĠAn":1567,"Ġfair":1568,"Ġra":1569,"Ġgold":1570,"Ġwhose":1571,"Ġsleep":1572,"king":1573,"Ġbes":1574,"Ġfoot":1575,"Ġcirc":1576,"Ġbring":1577,"Ġtimes":1578,"Ġsight":1579,"After":1580,"Ġson":1581,"Ġmount":1582,"Ġspir":1583,"Ġbeautiful":1584,"Ġnature":1585,"ĠAr":1586,"Ġpossible":1587,"ug":1588,"Ġcut":1589,"Ġbig":1590,"Ġmeans":1591,"Ġorder":1592,"ĠKing":1593,"form":1594,"br":1595,"teen":1596,"Ġanswer":1597,"Let":1598,"Ġobject":1599,"Ġquiet":1600,"Ġbit":1601,"Ġsurpr":1602,"ouble":1603,"Ġobser":1604,"Ġfort":1605,"Ġappro":1606,"Ġready":1607,"ped":1608,"With":1609,"Ġstrange":1610,"Ġsuddenly":1611,"Ġpast":1612,"cious":1613,"Ġlea":1614,"Ġcold":1615,"Ġforg":1616,"Ġknown":1617,"Ġthir":1618,"Ġsays":1619,"par":1620,"iously":1621,"Ġtowards":1622,"umb":1623,"Ġmaster":1624,"Ġir":1625,"Ġbegin":1626,"Ġmaking":1627,"Ġwithin":1628,"Ġspoke":1629,"ages":1630,"ĠFr":1631,"Ġbusiness":1632,"Ġmist":1633,"iew":1634,"ingly":1635,"Ġpie":1636,"Ġdifferent":1637,"cri":1638,"Ġsum":1639,"Ġran":1640,"uc":1641,"Ġsever":1642,"Ġglad":1643,"Ġed":1644,"Ġwall":1645,"ety":1646,"Ġstra":1647,"Ġwindow":1648,"Ġsch":1649,"ney":1650,"Ġeither":1651,"Ġdog":1652,"Ġfollowed":1653,"Ġsy":1654,"Ġabove":1655,"Ġhus":1656,"ime":1657,"Ġtou":1658,"Ġidea":1659,"ats":1660,"ts":1661,"Ġacross":1662,"ĠY":1663,"Ġable":1664,"Ġtherefore":1665,"Ġdiffic":1666,"oor":1667,"Ġtruth":1668,"ek":1669,"itting":1670,"Ġmanner":1671,"lish":1672,"eth":1673,"ient":1674,"airs":1675,"Ġtown":1676,"Ġwomen":1677,"Ġconst":1678,"ative":1679,"antly":1680,"CHA":1681,"Ġreached":1682,"aimed":1683,"Ġstay":1684,"Ġhuman":1685,"Ġpat":1686,"ility":1687,"ster":1688,"Ġexper":1689,"Ġdream":1690,"orm":1691,"Ġarms":1692,"Ġbecome":1693,"Ġlonger":1694,"Ġmid":1695,"PTER":1696,"Ġmer":1697,"Ġfamily":1698,"CHAPTER":1699,"Ġdem":1700,"Ġfine":1701,"Here":1702,"Ġexpress":1703,"St":1704,"use":1705,"Ġwatch":1706,"Ġcomple":1707,"acter":1708,"ov":1709,"Ġseveral":1710,"Ġsubject":1711,"utes":1712,"Ġopened":1713,"Ġwanted":1714,"Ġwhether":1715,"Of":1716,"Ġmus":1717,"isf":1718,"Ġlow":1719,"urd":1720,"itted":1721,"Ġdev":1722,"Ġsuppose":1723,"Is":1724,"Ġroad":1725,"Ġtried":1726,"ines":1727,"Ġsit":1728,"Ġought":1729,"Ġarri":1730,"Ġhappy":1731,"Ġcharacter":1732,"Ġlead":1733,"Ġthus":1734,"bit":1735,"Ġdri":1736,"Ġproper":1737,"Ġyourself":1738,"ution":1739,"ĠChrist":1740,"Ġpain":1741,"Ġpretty":1742,"ublic":1743,"Ġeffect":1744,"Ġstory":1745,"Ġleg":1746,"Ġtaking":1747,"Ġcap":1748,"Ġconsider":1749,"Ġhair":1750,"Ġrequ":1751,"Ġmonth":1752,"ead":1753,"Ġappeared":1754,"by":1755,"rom":1756,"Ġsor":1757,"Ġsister":1758,"Ġpar":1759,"Ġrose":1760,"Ġsoul":1761,"band":1762,"ract":1763,"ards":1764,"Ġpartic":1765,"Ġlaugh":1766,"alth":1767,"Ġeye":1768,"Ġrespect":1769,"Ġprof":1770,"Ġdirect":1771,"Ġesc":1772,"owers":1773,"ley":1774,"Ġdisapp":1775,"erm":1776,"Ġsoft":1777,"Ġmove":1778,"Ġremember":1779,"Ġanim":1780,"Ġfellow":1781,"Ġpossess":1782,"Ġbreak":1783,"Ġdaughter":1784,"ric":1785,"Ġshad":1786,"Ġcontinued":1787,"Ġnatur":1788,"Ġwalked":1789,"Ġmag":1790,"Ġfree":1791,"ote":1792,"Ġconc":1793,"Ġbreat":1794,"Ġmere":1795,"raid":1796,"urch":1797,"Ġcross":1798,"Ġpal":1799,"Don":1800,"cial":1801,"Ġhappened":1802,"Ġut":1803,"ham":1804,"Ġcreat":1805,"Ġeng":1806,"Ġequ":1807,"ush":1808,"ushed":1809,"Ġtem":1810,"Ġ.":1811,"eng":1812,"Ġslow":1813,"Ġsold":1814,"Ġexcept":1815,"Ġtra":1816,"ices":1817,"Ġhusband":1818,"ination":1819,"Ġsatisf":1820,"Ġsus":1821,"umber":1822,"Ġdraw":1823,"Ġcarried":1824,"ccess":1825,"Ġstud":1826,"ask":1827,"Ġsaf":1828,"An":1829,"ement":1830,"Ġpurp":1831,"ians":1832,"ms":1833,"ased":1834,"Ġest":1835,"Ġheav":1836,"Ġdecl":1837,"aven":1838,"Ġcast":1839,"Ġeat":1840,"idence":1841,"cul":1842,"ches":1843,"Ġbear":1844,"ames":1845,"where":1846,"Ġexclaimed":1847,"Ġmod":1848,"Ġcal":1849,"otion":1850,"owd":1851,"Ġshow":1852,"Ġafraid":1853,"Ġblood":1854,"Ġtear":1855,"une":1856,"Ġduring":1857,"Ġfav":1858,"Ġyes":1859,"what":1860,"Ġdin":1861,"Ġsqu":1862,"ĠLord":1863,"Ġexist":1864,"ising":1865,"Ġsecret":1866,"Ġoccas":1867,"nding":1868,"ugg":1869,"Ġfeeling":1870,"though":1871,"Ġschool":1872,"ah":1873,"Ġfight":1874,"lled":1875,"hil":1876,"Ġcent":1877,"Ġdelight":1878,"Ġforward":1879,"riage":1880,"dle":1881,"Ġimag":1882,"Ġwild":1883,"Ġdest":1884,"iam":1885,"Ġentered":1886,"iling":1887,"Ġminutes":1888,"Ġadded":1889,"Ġfast":1890,"Ġhung":1891,"side":1892,"uss":1893,"medi":1894,"Ġtree":1895,"Ġsens":1896,"ots":1897,"Ġcity":1898,"lect":1899,"Ġdoing":1900,"Ġcoll":1901,"Ġworth":1902,"Ġriver":1903,"aj":1904,"Ġsuccess":1905,"Ġbright":1906,"Ġdanger":1907,"ift":1908,"Ġfront":1909,"Ġsaying":1910,"ror":1911,"itude":1912,"By":1913,"ĠUn":1914,"Where":1915,"Ġaccount":1916,"Ġprodu":1917,"Ġpay":1918,"arr":1919,"These":1920,"Ġimport":1921,"ury":1922,"ĠBl":1923,"Ġbird":1924,"Ġview":1925,"Ġfig":1926,"Ġthinking":1927,"Ġfre":1928,"aged":1929,"Ġcre":1930,"son":1931,"Ġship":1932,"Ġang":1933,"Ġsense":1934,"Ġhot":1935,"Ġgard":1936,"Ġintell":1937,"aret":1938,"Ġscar":1939,"gr":1940,"ump":1941,"Ġsweet":1942,"iar":1943,"Ġcomfort":1944,"Be":1945,"Ġsad":1946,"Ġsmile":1947,"ledge":1948,"ope":1949,"Ġdress":1950,"Ġhast":1951,"Ġjud":1952,"Ġchair":1953,"Ġregard":1954,"Ġrepe":1955,"Ġdeal":1956,"Ġlived":1957,"ĠAl":1958,"Ġcommon":1959,"gin":1960,"Ġve":1961,"ler":1962,"Ġled":1963,"arent":1964,"Ġtrouble":1965,"Ġseems":1966,"Who":1967,"Ġstopped":1968,"Ġexam":1969,"Ġsometimes":1970,"ĠBut":1971,"ĠEnglish":1972,"Ġvisit":1973,"oint":1974,"Ġtrans":1975,"Ġstate":1976,"Ġhours":1977,"tered":1978,"Ġpublic":1979,"ges":1980,"Ġself":1981,"you":1982,"vern":1983,"Ġseven":1984,"Ġanx":1985,"Ġrock":1986,"dd":1987,"wh":1988,"Ġjoy":1989,"...":1990,"Ġparticular":1991,"ĠQ":1992,"itch":1993,"Ġgeneral":1994,"Ġtry":1995,"ĠInd":1996,"Ġstri":1997,"Ġaffect":1998,"Ġaccom":1999,"Ġwhis":2000,"Ġspirit":2001,"ax":2002,"well":2003,"day":2004,"ening":2005,"Ġcommand":2006,"Ġquar":2007,"rupt":2008,"Ġgentleman":2009,"Come":2010,"ĠCl":2011,"Ġap":2012,"Ġoffic":2013,"Ġlate":2014,"ĠCa":2015,"icked":2016,"Ġdrew":2017,"Ġpet":2018,"Ġprov":2019,"Ġsal":2020,"Ġinqu":2021,"cha":2022,"resh":2023,"Ġsilence":2024,"ones":2025,"oof":2026,"Ġimmedi":2027,"Ġpen":2028,"Ġdesp":2029,"ize":2030,"Ġpict":2031,"ature":2032,"rible":2033,"Ġmouth":2034,"ply":2035,"Ġclot":2036,"Ġlater":2037,"Ġacqu":2038,"Ġvar":2039,"Ġgrew":2040,"ming":2041,"Ġcause":2042,"ality":2043,"Ġeighteen":2044,"Al":2045,"ghed":2046,"Ġnews":2047,"Ġreceived":2048,"Ġentire":2049,"Ġjohn":2050,"Ġglass":2051,"Ġwin":2052,"Ġquickly":2053,"Good":2054,"tern":2055,"Ġchange":2056,"ON":2057,"Ġrid":2058,"Ġcertainly":2059,"ored":2060,"ically":2061,"ĠIt":2062,"Ġshar":2063,"meric":2064,"Ġcaught":2065,"Ġtor":2066,"Ġparty":2067,"ously":2068,"Ġdisp":2069,"Ġtrave":2070,"Ġwat":2071,"iment":2072,"Ġfurther":2073,"Ġdut":2074,"ified":2075,"ism":2076,"Ġnearly":2077,"head":2078,"Ġtrees":2079,"Ġpurpose":2080,"eal":2081,"joy":2082,"Ġcomes":2083,"Ġblue":2084,"Ġhardly":2085,"inct":2086,"Ġbene":2087,"Ġstruck":2088,"ex":2089,"Some":2090,"oes":2091,"Ġstraight":2092,"Ġbott":2093,"ĠSp":2094,"Ġprot":2095,"Ġpract":2096,"ĠTom":2097,"wards":2098,"iter":2099,"pper":2100,"Per":2101,"Ġlaid":2102,"pend":2103,"Ġce":2104,"Ġtop":2105,"Ġhat":2106,"let":2107,"Ġprison":2108,"Ġgrand":2109,"Ġnecessary":2110,"str":2111,"ilt":2112,"ĠAmeric":2113,"ĠGr":2114,"Ġgirls":2115,"ĠEngland":2116,"uct":2117,"Ġago":2118,"Ġarr":2119,"ager":2120,"Ġoccasion":2121,"oe":2122,"Ġprob":2123,"Ġfield":2124,"ĠMary":2125,"garet":2126,"Ġplain":2127,"Ġgreen":2128,"Ġdoctor":2129,"Ġfing":2130,"aining":2131,"Ġval":2132,"Ġliving":2133,"Ġearly":2134,"Ġattempt":2135,"ĠLady":2136,"read":2137,"Ġbank":2138,"ĠNew":2139,"Ġpull":2140,"Ġstreng":2141,"attle":2142,"Ġresult":2143,"Ġnumber":2144,"Ġmem":2145,"Ġsugg":2146,"Ġsuggest":2147,"Ġpock":2148,"Ġattention":2149,"ĠCar":2150,"ancy":2151,"Ġchance":2152,"Every":2153,"Ġlab":2154,"mp":2155,"Ġage":2156,"anced":2157,"Ġpleasure":2158,"Ġcry":2159,"Ġhill":2160,"Ġlaughed":2161,"Ġcircum":2162,"Ġline":2163,"arch":2164,"my":2165,"Ġpaper":2166,"Ġgetting":2167,"any":2168,"erv":2169,"Ġenem":2170,"ork":2171,"ĠDe":2172,"irt":2173,"amed":2174,"Ġprinci":2175,"Ġmiles":2176,"Ġstanding":2177,"Ġvi":2178,"Ġfright":2179,"Ġspo":2180,"Ġleng":2181,"Ġdoll":2182,"Ġpray":2183,"Ġthirty":2184,"Ġsitting":2185,"ounded":2186,"Ġheavy":2187,"Ġstarted":2188,"IN":2189,"ging":2190,"cell":2191,"Ġsuper":2192,"yond":2193,"Ġmad":2194,"Ġlips":2195,"pping":2196,"Ġconv":2197,"Ġdeterm":2198,"Ġforth":2199,"Ġdiv":2200,"Ġaccord":2201,"Ġmakes":2202,"Ġweek":2203,"Ġopin":2204,"Ġbeyond":2205,"ox":2206,"Ġneither":2207,"ĠSc":2208,"Ġremained":2209,"Ġmine":2210,"aring":2211,"ĠNor":2212,"jo":2213,"Ġfle":2214,"Ġposition":2215,"Ġremark":2216,"Ġloved":2217,"ape":2218,"ters":2219,"Ġmeant":2220,"Ġresol":2221,"end":2222,"Ġdinner":2223,"ives":2224,"Ġwait":2225,"Ġboys":2226,"tend":2227,"ips":2228,"inary":2229,"Ġwrong":2230,"Ġtone":2231,"els":2232,"Ġnatural":2233,"Ġwis":2234,"Ġslight":2235,"Ġbox":2236,"Ġlength":2237,"Ġdied":2238,"From":2239,"Ġcourt":2240,"ining":2241,"Ġnone":2242,"cely":2243,"Ġfifty":2244,"Ġplan":2245,"ues":2246,"val":2247,"Ġforget":2248,"Ġstreet":2249,"ior":2250,"Ġdie":2251,"Ġthick":2252,"Ġsevent":2253,"Ġbuild":2254,"ship":2255,"Ġtears":2256,"rench":2257,"Ġsett":2258,"ossible":2259,"iced":2260,"Ġslowly":2261,"ighb":2262,"Ġtreat":2263,"Ġru":2264,"Ġdrink":2265,"Ġfool":2266,"aded":2267,"ament":2268,"Ġcompl":2269,"Ġvill":2270,"ively":2271,"Ġaccept":2272,"Ġsol":2273,"ma":2274,"Ġpeace":2275,"Ġbeside":2276,"Ġforce":2277,"Ġgarden":2278,"Ġcouldn":2279,"Ġconvers":2280,"Ġalthough":2281,"ike":2282,"Ġchief":2283,"Ġrich":2284,"mon":2285,"ics":2286,"ean":2287,"Ġann":2288,"Perhaps":2289,"itions":2290,"Ġsafe":2291,"Ġneighb":2292,"Ġexact":2293,"....":2294,"Ġmorrow":2295,"na":2296,"Ġgovern":2297,"ondon":2298,"Ġwaiting":2299,"Ġshout":2300,"Ġstrength":2301,"Ġfilled":2302,"ists":2303,"Ġstone":2304,"ustom":2305,"Ġseeing":2306,"Ġenc":2307,"Ġmoved":2308,"how":2309,"Ġfood":2310,"ius":2311,"Ġgrave":2312,"Ġeasy":2313,"Ġplease":2314,"Ġpap":2315,"ĠIn":2316,"Ġport":2317,"Ġgaz":2318,"Ġgrow":2319,"Ġenjoy":2320,"Ġdistance":2321,"Ġplaced":2322,"Ġdifficult":2323,"Ġknows":2324,"Ġthoughts":2325,"Your":2326,"usion":2327,"Ġwarm":2328,"Ġdemand":2329,"ceive":2330,"Ġfloor":2331,"rs":2332,"Ġfollowing":2333,"Ġobl":2334,"Ġpriv":2335,"Ġpiece":2336,"ixed":2337,"Ġcircumst":2338,"Ġthird":2339,"ĠEd":2340,"Ġinfl":2341,"oom":2342,"Ġjour":2343,"ĠShe":2344,"Ġcrowd":2345,"Ġmiss":2346,"elve":2347,"Ġfaith":2348,"Ġcomplete":2349,"acy":2350,"ĠLondon":2351,"Ġbelong":2352,"kes":2353,"Ġhop":2354,"Ġauth":2355,"ĠIs":2356,"Ġclass":2357,"Ġcamp":2358,"Ġfat":2359,"Ġboat":2360,"mrs":2361,"Ġbreath":2362,"yl":2363,"oured":2364,"Ġinn":2365,"Ġsend":2366,"Ġproceed":2367,"hood":2368,"iers":2369,"isted":2370,"itten":2371,"ĠPrince":2372,"Ġknowledge":2373,"ald":2374,"Ġprince":2375,"ogn":2376,"Ġbroken":2377,"Ġmill":2378,"Ġmonths":2379,"Ġchurch":2380,"Ġimpossible":2381,"Ġincl":2382,"ils":2383,"Ġincre":2384,"Ġfun":2385,"Ġimmediately":2386,"Ġforest":2387,"Ġviol":2388,"bs":2389,"ences":2390,"sequ":2391,"cially":2392,"Ġhall":2393,"ĠWh":2394,"Ġlif":2395,"Ġhid":2396,"hys":2397,"noon":2398,"Ġda":2399,"Ġexpected":2400,"eks":2401,"ĠCaptain":2402,"ĠWill":2403,"Ġcorner":2404,"Ġlim":2405,"Ġyouth":2406,"Ġfollow":2407,"Ġeffort":2408,"Ġpost":2409,"Ġnine":2410,"Ġneck":2411,"Ġeager":2412,"Ġcontr":2413,"Ġshook":2414,"uit":2415,"ented":2416,"Ġtrust":2417,"Ġoccur":2418,"Never":2419,"gy":2420,"Ġhig":2421,"ston":2422,"Ġrap":2423,"ĠChar":2424,"Ġburn":2425,"athe":2426,"Ġdepart":2427,"Ġprep":2428,"Ġmarried":2429,"Ġappearance":2430,"Ah":2431,"ries":2432,"reme":2433,"Ġsurprise":2434,"Ġstop":2435,"aching":2436,"Ġdescri":2437,"Ġturning":2438,"ires":2439,"Ġtalking":2440,"Ġbeginning":2441,"Ġmed":2442,"Ġav":2443,"Ġspring":2444,"Did":2445,"olog":2446,"ection":2447,"orses":2448,"Ġdread":2449,"Ġcompany":2450,"Ġsilent":2451,"onel":2452,"Ġdesire":2453,"Ġarrived":2454,"Ġmaid":2455,"Ġeasily":2456,"Ġtrying":2457,"Ġthou":2458,"ev":2459,"Ġrecogn":2460,"pered":2461,"Ġwide":2462,"Ġafternoon":2463,"ĠFrench":2464,"cient":2465,"Ġfigure":2466,"ode":2467,"Ġcovered":2468,"Ġoccup":2469,"Ġpocket":2470,"AR":2471,"pic":2472,"Ġsave":2473,"Ġremain":2474,"ounds":2475,"Ġservice":2476,"Ġclothes":2477,"Ġcra":2478,"Ġexpression":2479,"Ġkiss":2480,"ĠCom":2481,"Ġoutside":2482,"Ġtouch":2483,"Ġopinion":2484,"Ġshowed":2485,"Ġhorses":2486,"asure":2487,"eor":2488,"Ġusual":2489,"rief":2490,"THE":2491,"uel":2492,"Ġguess":2493,"Ġweak":2494,"inc":2495,"Ġinstead":2496,"Ġfly":2497,"ĠHen":2498,"Ġwished":2499,"Ġpath":2500,"Ġbelow":2501,"Ġsnow":2502,"itation":2503,"unity":2504,"Ġauthor":2505,"ency":2506,"Ġrev":2507,"Ġwhatever":2508,"Ġbeauty":2509,"Ġcloud":2510,"Ġpalace":2511,"Ġpresence":2512,"Ġsky":2513,"Ġsac":2514,"ories":2515,"Ġkilled":2516,"ĠCon":2517,"ze":2518,"illy":2519,"Ġcarry":2520,"Ġinstant":2521,"ipped":2522,"idly":2523,"Ġemb":2524,"Ġcab":2525,"vere":2526,"Ġterrible":2527,"Ġguard":2528,"come":2529,"Ġyell":2530,"light":2531,"Ġbroke":2532,"Ġty":2533,"Ġmention":2534,"Ġpun":2535,"Ġspeaking":2536,"cle":2537,"Ġhist":2538,"Ġkill":2539,"ĠHar":2540,"ciety":2541,"Ġsmiled":2542,"Ġminute":2543,"Ġball":2544,"Ġthrew":2545,"bert":2546,"Ġshut":2547,"orted":2548,"Ġforty":2549,"Ġmoon":2550,"Ġmark":2551,"ĠMargaret":2552,"Ġund":2553,"Ġmess":2554,"Ġheaven":2555,"Ġstick":2556,"ĠTHE":2557,"clock":2558,"Ġpleasant":2559,"dom":2560,"Ġgun":2561,"Ġimm":2562,"Ġwrite":2563,"Ġclosed":2564,"Ġraised":2565,"Ġshot":2566,"Ġspot":2567,"Ġchanged":2568,"Ġpale":2569,"Ġreply":2570,"Ġconversation":2571,"Ġperfectly":2572,"Ġjourney":2573,"Ġfresh":2574,"Ġloc":2575,"Ġoblig":2576,"Ġsimple":2577,"Ġdirection":2578,"Ġduty":2579,"Ġplaces":2580,"ises":2581,"Ġnote":2582,"Ġtwelve":2583,"Ġrunning":2584,"Ġdecided":2585,"Ġhunt":2586,"Ġnin":2587,"Ġfut":2588,"ĠPar":2589,"udd":2590,"Ġsorry":2591,"Ġconscious":2592,"Ġdropped":2593,"Ġsingle":2594,"Ġscarcely":2595,"ĠBe":2596,"Ġphys":2597,"Ġbeat":2598,"Ġrepeated":2599,"Just":2600,"zz":2601,"ĠHer":2602,"Ġcaptain":2603,"Ġcat":2604,"Ġconcl":2605,"Ġclim":2606,"Ġinflu":2607,"Ġisn":2608,"Ġmurd":2609,"ected":2610,"Ġgall":2611,"Ġsuc":2612,"unk":2613,"Ġgiving":2614,"fast":2615,"EN":2616,"Ġsteps":2617,"io":2618,"Ġbell":2619,"Ġwouldn":2620,"idently":2621,"ume":2622,"no":2623,"Ġdeg":2624,"retched":2625,"Ġescape":2626,"Ġsick":2627,"Ġbound":2628,"ples":2629,".--":2630,"ES":2631,"Ġcoun":2632,"ĠCol":2633,"Ġpurs":2634,"Ġexperience":2635,"key":2636,"Ġstream":2637,"night":2638,"len":2639,"Ġtall":2640,"ibly":2641,"Ġwonderful":2642,"Ġnice":2643,"pecially":2644,"ĠAd":2645,"ĠBar":2646,"Ġpleased":2647,"urs":2648,"wise":2649,"Ġden":2650,"Ġarmy":2651,"Ġlie":2652,"ĠEm":2653,"Ġmarry":2654,"Ġtast":2655,"ulty":2656,"Ġentirely":2657,"angu":2658,"AN":2659,"ĠPrin":2660,"mit":2661,"olute":2662,"Ġsimply":2663,"Ġloud":2664,"ĠJack":2665,"Ġbread":2666,"Ġsuffic":2667,"Ġvol":2668,"olly":2669,"Ġtender":2670,"Ġsucceed":2671,"anch":2672,"Ġrain":2673,"arer":2674,"Ġresp":2675,"Ġimportant":2676,"ners":2677,"Ġbab":2678,"ishing":2679,"Ġevent":2680,"tended":2681,"idge":2682,"Ġwritten":2683,"now":2684,"Ġunderstood":2685,"Ġworse":2686,"Ġformer":2687,"Ġbrown":2688,"Ġprincess":2689,"Ġfirm":2690,"Very":2691,"oved":2692,"Ġbooks":2693,"osp":2694,"ivid":2695,"ases":2696,"ashion":2697,"Ġpolit":2698,"Ġangry":2699,"Ġshore":2700,"Ġlearned":2701,"ashed":2702,"Ġcondition":2703,"Ġprobably":2704,"Ġneg":2705,"Ġthank":2706,"Ġearn":2707,"Ġsitu":2708,"mber":2709,"otten":2710,"ital":2711,"Ġpassion":2712,"Ġevil":2713,"rop":2714,"idered":2715,"Ġpeter":2716,"Yet":2717,"go":2718,"Ġsociety":2719,"Ġoffice":2720,"Ġdiscovered":2721,"Ġlord":2722,"Ġhappiness":2723,"velop":2724,"Ġcreature":2725,"Ġlying":2726,"Ġknight":2727,"Ġmerely":2728,"Ġfish":2729,"Ġtired":2730,"ina":2731,"Ġgrass":2732,"Ġstrugg":2733,"Ġreach":2734,"Ġsepar":2735,"Ġmusic":2736,"umed":2737,"ĠGer":2738,"Ġenter":2739,"Ġlegs":2740,"osing":2741,"Ġgod":2742,"Ġboard":2743,"Ġleaving":2744,"isc":2745,"Ġfaint":2746,"Ġcou":2747,"Ġlean":2748,"ajor":2749,"Ar":2750,"Ġbattle":2751,"Ġgreater":2752,"Ġdeclared":2753,"rel":2754,"Ġtea":2755,"Ġaction":2756,"bing":2757,"roy":2758,"ests":2759,"Ġmountain":2760,"Have":2761,"Ġtail":2762,"Ġwit":2763,"Ġvict":2764,"Ġbecom":2765,"atic":2766,"Ġutter":2767,"Are":2768,"ray":2769,"Ġcatch":2770,"Ġnotice":2771,"ĠGre":2772,"miss":2773,"itc":2774,"ploy":2775,"Ġempt":2776,"Ġlatter":2777,"ivers":2778,"Ġbitter":2779,"cience":2780,"OR":2781,"Ġring":2782,"Ġallowed":2783,"Ġconsequ":2784,"Ġobserved":2785,"ĠPrincess":2786,"gan":2787,"lor":2788,"err":2789,"amb":2790,"Ġsail":2791,"arrow":2792,"Ġsharp":2793,"Even":2794,"ech":2795,"Ġmass":2796,"Ġespecially":2797,"Ġcircumstances":2798,"Ġcand":2799,"ishment":2800,"aped":2801,"Ġletters":2802,"Will":2803,"Ġbottom":2804,"ron":2805,"under":2806,"Ġgate":2807,"Ġsmo":2808,"Ġladies":2809,"Ġspite":2810,"Ġpromise":2811,"Ġconn":2812,"oses":2813,"ĠRob":2814,"Ġwaited":2815,"Ġopport":2816,"pet":2817,"ĠDick":2818,"ĠJo":2819,"Ġfuture":2820,"uous":2821,"ĠEl":2822,"erence":2823,"formed":2824,"Ġcalm":2825,"enth":2826,"Ġsword":2827,"Ġiron":2828,"Ġsummer":2829,"rest":2830,"rect":2831,"Ġborn":2832,"Ġfal":2833,"Ġcho":2834,"Ġdarkness":2835,"Ġfinished":2836,"Ġtemper":2837,"Ġenemy":2838,"Mar":2839,"Ġcost":2840,"ĠGeor":2841,"\"'":2842,"Look":2843,"Ġseat":2844,"----":2845,"Ġquietly":2846,"ended":2847,"Ġaston":2848,"Ġwise":2849,"Ġemploy":2850,"itated":2851,"Ġfurn":2852,"lling":2853,"Ġlangu":2854,"acked":2855,"Ġrelig":2856,"Ġpicture":2857,"Ġhy":2858,":--":2859,"Ġmut":2860,"Ġpaid":2861,"Ġglance":2862,"Ġfamil":2863,"Ġdetermined":2864,"Ġgro":2865,"Ġbeast":2866,"Ġthy":2867,"ouses":2868,"Ġisland":2869,"Ġant":2870,"Ġspread":2871,"Ġobt":2872,"Ġextra":2873,"Go":2874,"ns":2875,"Ġinform":2876,"Ġqueen":2877,"Ġprevent":2878,"urm":2879,"que":2880,"uke":2881,"Ġlives":2882,"Ġpop":2883,"Ġhes":2884,"Ġattack":2885,"Ġbroad":2886,"Ġori":2887,"Ġinside":2888,"Ġwatched":2889,"iny":2890,"Ġhealth":2891,"Ġconfess":2892,"erve":2893,"Ġdressed":2894,"Ġsole":2895,"Ġinterrupt":2896,"Ġhabit":2897,"Ġmarriage":2898,"Ġafterwards":2899,"Ġmotion":2900,"Ġfixed":2901,"leep":2902,"ption":2903,"Ġdelic":2904,"Ġspoken":2905,"Ġwand":2906,"Ġwasn":2907,"Ġexactly":2908,"arily":2909,"lend":2910,"Ġgame":2911,"Ġconce":2912,"iety":2913,"aled":2914,"Ġmiddle":2915,"Ġwalls":2916,"Ġflowers":2917,"Nothing":2918,"Ġvillage":2919,"aul":2920,"ole":2921,"wo":2922,"rodu":2923,"Ġunless":2924,"Ġanimal":2925,"Ġsearch":2926,"Ind":2927,"Ġtrain":2928,"Ġabsolute":2929,"with":2930,"Ġsurprised":2931,"gar":2932,"orough":2933,"Ġproud":2934,"Ġharm":2935,"bered":2936,"oly":2937,"Ġrob":2938,"Ġburst":2939,"Ġsand":2940,"Ġbreakfast":2941,"gu":2942,"Ġshr":2943,"Ġforgotten":2944,"Ġtouched":2945,"Ġsake":2946,"Ġagre":2947,"Ġwrote":2948,"ruct":2949,"Ġfortune":2950,"nes":2951,"Ġones":2952,"Ġconsidered":2953,"Ġrepres":2954,"Ġlearn":2955,"Ġprofess":2956,"Ġbeneath":2957,"action":2958,"Ġpromised":2959,"Ġuncle":2960,"Ġorigin":2961,"ays":2962,"Ġstir":2963,"Ġimpress":2964,"Ġapart":2965,"Ġfit":2966,"Ġstorm":2967,"oose":2968,"Ġexcell":2969,"Ġcourage":2970,"Ġcheer":2971,"Ġdifficulty":2972,"Ġsplend":2973,"ĠAnne":2974,"just":2975,"asp":2976,"Ġagree":2977,"Ġprev":2978,"ĠQue":2979,"Ġspec":2980,"Ġpros":2981,"Ġknowing":2982,"Ġcarefully":2983,"Ġreflect":2984,"Ġanxious":2985,"zen":2986,"rent":2987,"Ġsomewhat":2988,"Ġextreme":2989,"Ġleaves":2990,"Ġdrawing":2991,"Ġfavor":2992,"Ġwhispered":2993,"eer":2994,"semb":2995,"Ġgreatest":2996,"Ġpecul":2997,"Ġlooks":2998,"Ġintellect":2999,"Ġhistory":3000,"Ġign":3001,"iently":3002,"Ġbow":3003,"Ġstro":3004,"Ġliber":3005,"ĠOF":3006,"Ġcolour":3007,"erable":3008,"arked":3009,"Ġprepared":3010,"Ġpeculiar":3011,"acher":3012,"ĠMad":3013,"Ġhappen":3014,"Ġconduct":3015,"Ġdry":3016,"Ġhang":3017,"ancing":3018,"like":3019,"Ġpress":3020,"Ġlose":3021,"Ġgra":3022,"ĠSha":3023,"Ġtroub":3024,"Ġver":3025,"Ġdare":3026,"ching":3027,"Ġlikely":3028,"Thus":3029,"Ġservant":3030,"Ġcontro":3031,"Ġkey":3032,"Ġfallen":3033,"dy":3034,"Ġmater":3035,"Ġgoes":3036,"ument":3037,"Ġspeech":3038,"Ġintellig":3039,"Ġaccording":3040,"Ġvan":3041,"Ġears":3042,"Only":3043,"Ġwalking":3044,"aff":3045,"Ġdim":3046,"Ġheads":3047,"Ġthin":3048,"Ġcarriage":3049,"Ġpersons":3050,"Ġbelieved":3051,"Ġfrequ":3052,"Ġobliged":3053,"Ġmagn":3054,"ĠLe":3055,"Ġscene":3056,"Ġholding":3057,"Ġcott":3058,"Ġallow":3059,"ĠMan":3060,"ĠPhil":3061,"),":3062,"Can":3063,"Ġremembered":3064,"Ġinfluence":3065,"erc":3066,"Ġsuit":3067,"Ġshop":3068,"ĠPe":3069,"Ġcoat":3070,"Ġclean":3071,"Ġearnest":3072,"itive":3073,"Ġshoulders":3074,"Ġsubst":3075,"Ġhurt":3076,"Ġmurm":3077,"Ġfashion":3078,"Ġluck":3079,"Ġshoulder":3080,"Ġhonor":3081,"Ġfrightened":3082,"mn":3083,"Ġwine":3084,"Ġlower":3085,"Ġnoticed":3086,"ĠDo":3087,"Ġblind":3088,"Ġapparent":3089,"Ġevidently":3090,"Ġgentlemen":3091,"mith":3092,"uge":3093,"ision":3094,"Ġdevelop":3095,"ĠAll":3096,"Ġstar":3097,"oop":3098,"andon":3099,"Ġpassing":3100,"Ġfingers":3101,"Ġlifted":3102,"ik":3103,"Ġbag":3104,"Ġeduc":3105,"ĠHenry":3106,"Ġyellow":3107,"esty":3108,"Ġfail":3109,"Ġexistence":3110,"Ġvarious":3111,"gress":3112,"iant":3113,"Ġbless":3114,"Ġbirds":3115,"Ġgovernment":3116,"Ġgen":3117,"Ġasleep":3118,"chant":3119,"inite":3120,"osity":3121,"Ġsurf":3122,"Ġhost":3123,"Ġweather":3124,"Ġvent":3125,"Ġdoesn":3126,"ylv":3127,"ĠQueen":3128,"iod":3129,"Ġbrave":3130,"Ġpick":3131,"Ġspeed":3132,"Ġwindows":3133,"Ġsoldiers":3134,"Ġdollars":3135,"Ne":3136,"Ġph":3137,"Ġformed":3138,"Ġoffered":3139,"Ġadmir":3140,"Ġwinter":3141,"hel":3142,"Ġourselves":3143,"Ġcover":3144,"ĠStates":3145,"Ġcaused":3146,"Somet":3147,"orth":3148,"Ġpure":3149,"essel":3150,"Ġconcer":3151,"isk":3152,"Ġedge":3153,"Ġmot":3154,"itary":3155,"Their":3156,"illa":3157,"nown":3158,"Ġrub":3159,"ousin":3160,"Ġthrown":3161,"ees":3162,"sed":3163,"Ġciv":3164,"Ġhouses":3165,"Ġnarrow":3166,"ĠPro":3167,"Ġempty":3168,"ator":3169,"yn":3170,"ĠMr":3171,"Ġspent":3172,"Ġoffer":3173,"Ġdesert":3174,"pected":3175,"Ġlovely":3176,"While":3177,"co":3178,"Ġfifteen":3179,"Ġlaughing":3180,"Ġdom":3181,"Indeed":3182,"Ġvessel":3183,"Ġliked":3184,"Ġways":3185,"Ġopportunity":3186,"osite":3187,"ĠHis":3188,"Ġtremb":3189,"Ġmir":3190,"Ġpref":3191,"gain":3192,"Ġvain":3193,"Ġgrat":3194,"Ġstranger":3195,"Ġcapt":3196,"Ġhurried":3197,"Ġpieces":3198,"ram":3199,"ĠThen":3200,"Ġtalked":3201,"Ġcustom":3202,"acing":3203,"Ġcompanion":3204,"Ġsymp":3205,"ford":3206,"ĠSo":3207,"Ġattract":3208,"Ġserious":3209,"Ġassist":3210,"Ġquestions":3211,"ral":3212,"Ġtong":3213,"ĠLu":3214,"Ġgolden":3215,"Ġestab":3216,"she":3217,"Ġoper":3218,"Ġadvant":3219,"ĠThor":3220,"uly":3221,"Ġfault":3222,"Ġsuspic":3223,"Ġcook":3224,"ett":3225,"Ġsupper":3226,"Ġshadow":3227,"Ġfancy":3228,"asc":3229,"Ġdrawn":3230,"Ġhonour":3231,"ational":3232,"Ġlistened":3233,"Ġcommun":3234,"Ġsituation":3235,"hod":3236,"Ġproperty":3237,"Ġdisappoint":3238,"Ġpulled":3239,"af":3240,"alley":3241,"Ġcomb":3242,"Ġspace":3243,"Ġsilver":3244,"Ġbuilt":3245,"Ġaccompl":3246,"Ġbent":3247,"Ġgrou":3248,"Ġgrad":3249,"uded":3250,"Ġfeelings":3251,"Ġmatters":3252,"Ġlisten":3253,"ĠDor":3254,"Our":3255,"Ġstairs":3256,"Ġyours":3257,"Ġremarked":3258,"Ġparts":3259,"Ġanimals":3260,"eness":3261,"enced":3262,"Ġscre":3263,"Miss":3264,"ĠZ":3265,"Ġfond":3266,"Ġseized":3267,"Ġperiod":3268,"Ġdistur":3269,"Ġcharge":3270,"together":3271,"Ġfavour":3272,"ND":3273,"Ġnoble":3274,"Ġcurious":3275,"ĠYork":3276,"Ġpot":3277,"Ġstore":3278,"Ġnoise":3279,"Ġmeaning":3280,"IS":3281,"ding":3282,"Ġadvent":3283,"Ġdestroy":3284,"hip":3285,"Ġwond":3286,"Ġdust":3287,"Ġrate":3288,"Ġrough":3289,"ounced":3290,"Ġsatisfied":3291,"Ġavo":3292,"itchen":3293,"ĠCount":3294,"Ġaltogether":3295,"Ġproved":3296,"Ġblow":3297,"iction":3298,"Ġopening":3299,"Ġservants":3300,"Tell":3301,"min":3302,"Ġhaven":3303,"Ġgrace":3304,"ales":3305,"Ġvirt":3306,"Ġsupposed":3307,"However":3308,"Ġskin":3309,"Ġpersonal":3310,"Ġelect":3311,"Ġprivate":3312,"!--":3313,"Such":3314,"Ġbare":3315,"Ġthro":3316,"Ġintrodu":3317,"Ġappre":3318,"Ġdisappeared":3319,"ĠGeorge":3320,"ingu":3321,"Ġindivid":3322,"ocked":3323,"Ġfaces":3324,"Ġpity":3325,"ille":3326,"Ġordered":3327,"Ġinnoc":3328,"OU":3329,"Ġmach":3330,"Ġwealth":3331,"ĠDav":3332,"Ġgrown":3333,"Ġprec":3334,"Ġfier":3335,"Ġemp":3336,"ested":3337,"Ġalar":3338,"Ġwatching":3339,"Ġaffection":3340,"Ġbod":3341,"Ġhandsome":3342,"Ġegg":3343,"ables":3344,"Ġtelling":3345,"Ġdiscuss":3346,"ĠAmerican":3347,"Ġsurface":3348,"Than":3349,"che":3350,"Ġcup":3351,"Ġforced":3352,"Ġunf":3353,"Ġsong":3354,"ades":3355,"ĠPer":3356,"Ġgloom":3357,"Ġwriting":3358,"ails":3359,"Ġgenerally":3360,"Ġstudy":3361,"Ġlot":3362,"Ġthreat":3363,"Ġreading":3364,"Ġbesides":3365,"Ġmaterial":3366,"ashing":3367,"Ġgreatly":3368,"Ġdifference":3369,"Ġrode":3370,"Ġopposite":3371,"Ġcow":3372,"ĠAt":3373,"Ġdesce":3374,"Ġfalse":3375,"ipe":3376,"Ġthee":3377,"Ġkitchen":3378,"Ġimpro":3379,"Ġwel":3380,"eping":3381,"Ġjudge":3382,"Ġsav":3383,"Ġarg":3384,"ĠRe":3385,"Ġpassage":3386,"Ġsurr":3387,"Ġaccomp":3388,"Ġmemory":3389,"Ġflew":3390,"Ġgar":3391,"Ġhole":3392,"fortun":3393,"Ġmeeting":3394,"Ġice":3395,"Ġsides":3396,"Ġbeha":3397,"ocr":3398,"Ġwear":3399,"Ġattend":3400,"arest":3401,"Ġmoving":3402,"ites":3403,"tering":3404,"ushing":3405,"Ġalive":3406,"Ġworked":3407,"Ġprocess":3408,"Ġbuilding":3409,"oman":3410,"stem":3411,"Ġaside":3412,"terday":3413,"Ġfinally":3414,"aked":3415,"Ġweeks":3416,"ify":3417,"Ġpoet":3418,"Ġspecial":3419,"onsie":3420,"Ġpaused":3421,"Ġsettled":3422,"Ġsacr":3423,"rid":3424,"Ġtow":3425,"Ġgrowing":3426,"ibility":3427,"Ġexplained":3428,"Ġrevol":3429,"ague":3430,"Ġdistinct":3431,"Ġpointed":3432,"Ġdogs":3433,"ĠWilliam":3434,"Ġhigher":3435,"Ġindividual":3436,"Ġmel":3437,"chief":3438,"athered":3439,"wood":3440,"Ġimper":3441,"Ġnorth":3442,"Ġmethod":3443,"Ġtakes":3444,"road":3445,"Ġmovement":3446,"ipp":3447,"known":3448,"Ġpack":3449,"unch":3450,"Ġscr":3451,"Ġflo":3452,"Ġsuffer":3453,"Ġinteresting":3454,"oted":3455,"Ġye":3456,"Ġpride":3457,"Ġnose":3458,"Ġamount":3459,"Ġsmiling":3460,"Ġcastle":3461,"ĠGerman":3462,"icated":3463,"Ġbreast":3464,"erved":3465,"Ġrace":3466,"aly":3467,"Ġess":3468,"Ġnearer":3469,"Ġuns":3470,"Ġcool":3471,"Ġroof":3472,"ĠTo":3473,"Ġcivil":3474,"bur":3475,"ky":3476,"Ġpit":3477,"Ġheight":3478,"Ġcruel":3479,"Ġworking":3480,"ĠDoctor":3481,"cil":3482,"Ġband":3483,"Ġune":3484,"Ġconfidence":3485,"Ġpossession":3486,"Ġengaged":3487,"Ġdespair":3488,"Ġur":3489,"Therefore":3490,"Ġhonest":3491,"Ġdirectly":3492,"Ġdemanded":3493,"Ġfol":3494,"Ġreck":3495,"gged":3496,"RE":3497,"Ġmain":3498,"uted":3499,"Ġshoot":3500,"agn":3501,"Ġhide":3502,"Ġthorough":3503,"ĠBell":3504,"Ġprove":3505,"iana":3506,"Ġvalue":3507,"Ġtaste":3508,"Ġagreed":3509,"Was":3510,"Ġancient":3511,"Ġdepend":3512,"ĠMon":3513,"Ġdistingu":3514,"Ġsurely":3515,"Ġsorrow":3516,"Ġbaby":3517,"AT":3518,"ker":3519,"Ġfate":3520,"Ġloss":3521,"ium":3522,"Ġreceive":3523,"Ġprepar":3524,"Ġputting":3525,"Ġimagine":3526,"Ġshouted":3527,"Ġwants":3528,"Ġsystem":3529,"Once":3530,"Ġeld":3531,"Ġstation":3532,"Ġinde":3533,"rance":3534,"ĠWe":3535,"Ġideas":3536,"Ġexcit":3537,"bly":3538,"Ġheat":3539,"ribut":3540,"Ġmoments":3541,"iamond":3542,"ĠQu":3543,"reet":3544,"Ġdue":3545,"Ġpor":3546,"ilar":3547,"Ġfailed":3548,"ĠFrance":3549,"Ġbill":3550,"Ġrejo":3551,"Ġstones":3552,"hard":3553,"Ġexplain":3554,"Take":3555,"Ġaddress":3556,"right":3557,"hest":3558,"antic":3559,"eneral":3560,"Ġoccurred":3561,"set":3562,"Ġaware":3563,"Ġplayed":3564,"Ġdegree":3565,"Ġid":3566,"Ġrise":3567,"iles":3568,"theless":3569,"uzz":3570,"uses":3571,"Ġvast":3572,"Ġstreets":3573,"Ġdreadful":3574,"Ġphil":3575,"Ġplant":3576,"Ġspect":3577,"com":3578,"ann":3579,"Ġstuff":3580,"Ġnobody":3581,"ĠState":3582,"Ġdrop":3583,"aving":3584,"con":3585,"Ġaunt":3586,"Ġdoors":3587,"ĠHouse":3588,"ĠOld":3589,"Ġpresently":3590,"Ġbuy":3591,"Ġproduced":3592,"Ġfamiliar":3593,"Ġmountains":3594,"Ġinquired":3595,"Ġsuggested":3596,"cing":3597,"agged":3598,"Ġrecord":3599,"Ġfreed":3600,"ara":3601,"iding":3602,"ĠUncle":3603,"Ġwore":3604,"llen":3605,"Ġstock":3606,"Ġbusy":3607,"Ġsouth":3608,"Ġpapa":3609,"Ġlanguage":3610,"Ġpair":3611,"ĠAs":3612,"Ġsla":3613,"Ġclever":3614,"Ġcolor":3615,"Ġnodd":3616,"Ġshape":3617,"Ġseek":3618,"ĠJim":3619,"Ġchamber":3620,"pter":3621,"imate":3622,"ĠPh":3623,"Ġsin":3624,"Ġpicked":3625,"Ġbutter":3626,"Ġsmoke":3627,"Ġsupport":3628,"Ġweight":3629,"Ġtwice":3630,"attered":3631,"Ġaffairs":3632,"Ġneighbour":3633,"Ġinformation":3634,"Ġinterrupted":3635,"Ġignor":3636,"enn":3637,"Ġpra":3638,"ams":3639,"Ġeverybody":3640,"ĠOr":3641,"Ġlaws":3642,"Ġobserv":3643,"Ġarrange":3644,"Ġsucceeded":3645,"Ġsympath":3646,"LL":3647,"Sir":3648,"ulous":3649,"thur":3650,"Ġgray":3651,"Ġterr":3652,"Ġterror":3653,"there":3654,"erred":3655,"Ġstat":3656,"Ġusually":3657,"peror":3658,"hens":3659,"ception":3660,"ĠChristian":3661,"Ġlabor":3662,"Ġsufficient":3663,"ait":3664,"Ġrail":3665,"ĠEur":3666,"ĠJul":3667,"Ġserve":3668,"Ġmort":3669,"ĠGu":3670,"Ġimpat":3671,"lessly":3672,"Ġdrive":3673,"Ġequal":3674,"ergy":3675,"Ġdrove":3676,"Ġyesterday":3677,"Ġtongue":3678,"Ġexcitement":3679,"lin":3680,"Ġaut":3681,"happ":3682,"Ġbask":3683,"esides":3684,"ayed":3685,"amma":3686,"Ġflat":3687,"Ġquarter":3688,"eav":3689,"Ġrising":3690,"room":3691,"uls":3692,"Ġteeth":3693,"Ġbrothers":3694,"Ġwoods":3695,"Ġaffair":3696,"Ġsoftly":3697,"Ġofficer":3698,"Ġdam":3699,"Ġsocial":3700,"ulation":3701,"ĠSe":3702,"IT":3703,"Or":3704,"Ġfully":3705,"Ġfinding":3706,"Ġkeeping":3707,"Ġprisoner":3708,"ĠJohn":3709,"irst":3710,"Ġthrow":3711,"Ġswift":3712,"Ġorders":3713,"overn":3714,"Ġpossessed":3715,"hold":3716,"Ġgathered":3717,"osop":3718,"ĠJane":3719,"igned":3720,"Ġexcellent":3721,"cher":3722,"chan":3723,"oard":3724,"Ġrul":3725,"Ġordinary":3726,"hant":3727,"Ġaccident":3728,"Before":3729,"aming":3730,"rig":3731,"ĠMaster":3732,"ĠChurch":3733,"Ġrefused":3734,"Ġfalling":3735,"Ġcompanions":3736,"Ġsoldier":3737,"Ġbull":3738,"Ġlod":3739,"Ġgently":3740,"rap":3741,"Ġcrown":3742,"Ġinterv":3743,"Ġpounds":3744,"asped":3745,"illing":3746,"abel":3747,"Ġlines":3748,"Ġinstantly":3749,"ruction":3750,"Ġsixty":3751,"Ġsprang":3752,"Ġseason":3753,"Ġexerc":3754,"Ġregular":3755,"Ġevidence":3756,"Ġexcited":3757,"Ġspirits":3758,"Ġaud":3759,"enance":3760,"Ġpill":3761,"Ġhate":3762,"ĠMor":3763,"ardon":3764,"ighed":3765,"acks":3766,"ĠLou":3767,"Ġundert":3768,"Still":3769,"onsieur":3770,"lished":3771,"Ġbold":3772,"Ġfart":3773,"Ġexec":3774,"Ġlies":3775,"ĠTr":3776,"Ġclaim":3777,"ĠEurope":3778,"Ġseated":3779,"Ġleading":3780,"Ġhills":3781,"ĠThey":3782,"lly":3783,"Ġinj":3784,"Ġfarm":3785,"Ġendeav":3786,"while":3787,"Ġcontrary":3788,"sy":3789,"Ġdull":3790,"Ġpowers":3791,"Ġcoff":3792,"Ġterms":3793,"lsie":3794,"Ġceased":3795,"ylvia":3796,"inal":3797,"usted":3798,"Ġobey":3799,"Ġrooms":3800,"Ġcarrying":3801,"Ġdiscover":3802,"Ġresolved":3803,"kins":3804,"rose":3805,"Ġdistant":3806,"Ġmilk":3807,"ĠParis":3808,"pir":3809,"het":3810,"Ġcousin":3811,"lex":3812,"agement":3813,"Ġapproached":3814,"Ġadvantage":3815,"kin":3816,"Ġyield":3817,"ĠThat":3818,"ecause":3819,"Ġrequired":3820,"Ġpos":3821,"Ġliter":3822,"Ġnamed":3823,"Ġvalley":3824,"ĠPet":3825,"Ġforms":3826,"Ġsquare":3827,"Ġtype":3828,"Ġble":3829,"Ġparent":3830,"Ġjoined":3831,"Ġmentioned":3832,"Am":3833,"Ġtask":3834,"using":3835,"Ġlog":3836,"ocks":3837,"Ġgives":3838,"Ġnecessity":3839,"Ġcrossed":3840,"Ab":3841,"Ġreve":3842,"Ġrushed":3843,"Ġappoint":3844,"Ġinstance":3845,"Ġmistress":3846,"Ġofficers":3847,"Ġrapidly":3848,"Ġsplendid":3849,"Ġsought":3850,"Ġwicked":3851,"Ġdign":3852,"ette":3853,"acles":3854,"Ġreport":3855,"Ġfinger":3856,"father":3857,"vey":3858,"irth":3859,"Ġanybody":3860,"Ġcuri":3861,"Ġpresented":3862,"Ġconditions":3863,"der":3864,"ring":3865,"Ġsaint":3866,"ĠPl":3867,"Ġliberty":3868,"ental":3869,"Ġrom":3870,"Ġshown":3871,"umped":3872,"Ġregret":3873,"Ġstepped":3874,"Ġsuffering":3875,"ration":3876,"ĠMil":3877,"Ġperform":3878,"Ġinterested":3879,"ĠIndians":3880,"Ġacquaint":3881,"Ġninet":3882,"Like":3883,"Ġnerv":3884,"ĠGrace":3885,"angers":3886,"Ġartic":3887,"ING":3888,"Ġcontrol":3889,"Ġdance":3890,"Ġroy":3891,"Ġjustice":3892,"Ġadvanced":3893,"Ġparticularly":3894,"Ġauthority":3895,"Ġsolemn":3896,"Qu":3897,"mond":3898,"upp":3899,"Ġdwell":3900,"Ġfruit":3901,"Ġmyster":3902,"istic":3903,"Ġkingdom":3904,"Ġpriest":3905,"Ġpapers":3906,"See":3907,"Ġla":3908,"Ġdeb":3909,"ĠPres":3910,"anged":3911,"Ġmagic":3912,"Ġshell":3913,"rog":3914,"ĠGeneral":3915,"Ġunhapp":3916,"ĠRed":3917,"Ġexample":3918,"acle":3919,"Ġintended":3920,"Ġunw":3921,"Ġshame":3922,"Ġsimilar":3923,"Ġdelighted":3924,"Thank":3925,"ora":3926,"Ġride":3927,"ĠSund":3928,"Ġorgan":3929,"Ġdisg":3930,"Those":3931,"Ġhorror":3932,"Ġslept":3933,"Ġawful":3934,"ĠAnn":3935,"Ġcabin":3936,"mitted":3937,"Ġknife":3938,"ĠGovern":3939,"Ġpersu":3940,"Ġconsiderable":3941,"Ġworthy":3942,"Ġfoolish":3943,"Ġbore":3944,"asm":3945,"Ġshining":3946,"Ġdism":3947,"Ġentertain":3948,"ertainly":3949,"ĠBrit":3950,"Ġmistake":3951,"Ġow":3952,"Ġrare":3953,"Ġexplan":3954,"Ġconstit":3955,"ealous":3956,"Ġextraord":3957,"of":3958,"ĠSouth":3959,"ĠLa":3960,"Ġforgot":3961,"ĠIndian":3962,"Ġcompletely":3963,"Ġfarther":3964,"mas":3965,"off":3966,"ris":3967,"ĠYou":3968,"Ġcases":3969,"Ġupper":3970,"acious":3971,"Ġprogress":3972,"mend":3973,"Ġneeded":3974,"mbers":3975,"Ġgrey":3976,"Ġcouple":3977,"Ġtight":3978,"Ġdouble":3979,"ĠFl":3980,"ĠArthur":3981,"ajesty":3982,"Ġprinciple":3983,"Ġphilosop":3984,"Many":3985,"Ġtest":3986,"Ġknees":3987,"Ġamaz":3988,"Ġpictures":3989,"Ġseventeen":3990,"urse":3991,"Ġinstinct":3992,"Ġcurt":3993,"Ġmessage":3994,"Ġcuriosity":3995,"tw":3996,"Ġtempt":3997,"Ġhuge":3998,"asant":3999,"stairs":4000,"Ġproof":4001,"Ġamb":4002,"Ġsatisfaction":4003,"Would":4004,"Ġahead":4005,"reg":4006,"Ġyard":4007,"vert":4008,"Ġcalling":4009,"ival":4010,"ĠVal":4011,"Ġadvice":4012,"Ġhidden":4013,"Ġwitness":4014,"Ġroyal":4015,"itable":4016,"Ġpushed":4017,"ĠAm":4018,"Ġdesired":4019,"ĠKat":4020,"Ġsooner":4021,"Ġvoices":4022,"Ġeleven":4023,"ĠCharles":4024,"Besides":4025,"host":4026,"uce":4027,"ĠGree":4028,"Ġperceived":4029,"soci":4030,"Ġpowerful":4031,"Ġclosely":4032,"Ġdangerous":4033,"ĠAmerica":4034,"Ġoccupied":4035,"Any":4036,"yer":4037,"Ġ...":4038,"Ġcred":4039,"Ġanger":4040,"Ġafford":4041,"Ġabsolutely":4042,"Because":4043,"Two":4044,"more":4045,"Ġmat":4046,"eds":4047,"Ġunknown":4048,"Ġnewsp":4049,"ux":4050,"arling":4051,"Ġinvent":4052,"Ġdozen":4053,"ĠAND":4054,"ĠPaul":4055,"Ġgrant":4056,"Ġcareful":4057,"Ġpoints":4058,"Ġclearly":4059,"Ġnaturally":4060,"hib":4061,"iments":4062,"ading":4063,"agon":4064,"Ġsuffered":4065,"Ġphysical":4066,"Ex":4067,"Poor":4068,"ĠThere":4069,"Ġbrief":4070,"Ġinterp":4071,"Ġhungry":4072,"\"--":4073,"ois":4074,"zy":4075,"Ġgle":4076,"nton":4077,"Ġmoral":4078,"aws":4079,"Ġstead":4080,"Ġasking":4081,"Ġrocks":4082,"Ġencour":4083,"Ġevents":4084,"Un":4085,"Ġban":4086,"enc":4087,"Ġgrief":4088,"ainted":4089,"Ġworst":4090,"Ġplenty":4091,"Ġqueer":4092,"ortion":4093,"Ġshare":4094,"Ġthrust":4095,"Ġcontent":4096,"Ġpossibly":4097,"Ġexpressed":4098,"Ġhelped":4099,"Ġhearing":4100,"Ġinquir":4101,"iest":4102,"usi":4103,"Ġresist":4104,"Ġactually":4105,"Ġcorrect":4106,"ification":4107,"Ġregarded":4108,"Ġrepresent":4109,"Ġevident":4110,"ture":4111,"Ġinha":4112,"Ġforb":4113,"resp":4114,"Ġwilling":4115,"Ġbegun":4116,"Ġcrime":4117,"Ġemotion":4118,"Ġrelief":4119,"Ġfields":4120,"Art":4121,"Ġwondered":4122,"Re":4123,"Sh":4124,"Ġdying":4125,"ĠSam":4126,"Ġflower":4127,"Ġpolice":4128,"Ġfortun":4129,"ese":4130,"Ġbrill":4131,"Ġobst":4132,"Ġchest":4133,"Ġbasket":4134,"LE":4135,"Ġbor":4136,"Ġpan":4137,"Ġstars":4138,"Ġrank":4139,"Ġange":4140,"Ġsaved":4141,"Ġconqu":4142,"ĠWest":4143,"Ġplaying":4144,"Nor":4145,"Ġgather":4146,"Ġdesper":4147,"Ġtele":4148,"Ġfellows":4149,"Ġhurry":4150,"Ġcomfortable":4151,"Ġapparently":4152,"Ġgroup":4153,"cked":4154,"Ġstern":4155,"Ġmeasure":4156,"Ġotherwise":4157,"Ġenth":4158,"Ġescaped":4159,"ĠColonel":4160,"Ġnames":4161,"Ġstage":4162,"ulf":4163,"Ġcountenance":4164,"Ġkindness":4165,"Ġsalt":4166,"Ġremarkable":4167,"Ġincreased":4168,"God":4169,"Up":4170,"Ġmyst":4171,"Ġships":4172,"oused":4173,"raph":4174,"Ġabandon":4175,"Ġmighty":4176,"Ġaccepted":4177,"Ġnodded":4178,"Ġcrying":4179,"inging":4180,"stand":4181,"sec":4182,"Ġdeck":4183,"Ġflight":4184,"Ġhearts":4185,"Ġeagerly":4186,"mission":4187,"Ġodd":4188,"esh":4189,"Ġstared":4190,"Ġvig":4191,"Ġfighting":4192,"Ġwed":4193,"oops":4194,"Ġsheep":4195,"ĠWil":4196,"ĠOl":4197,"ION":4198,"Ġtaught":4199,"Ġmile":4200,"Ġinstr":4201,"Ġproceeded":4202,"iber":4203,"Ġtur":4204,"Ġsour":4205,"Ġfold":4206,"Ġhol":4207,"aker":4208,"Ġlighted":4209,"Ġeducation":4210,"por":4211,"Ġlake":4212,"Ġstup":4213,"Ġcrit":4214,"Ġimportance":4215,"ĠNorth":4216,"Ġcottage":4217,"Ġworks":4218,"Ġrecoll":4219,"Ġextraordinary":4220,"Ġenthusi":4221,"Had":4222,"Ġwid":4223,"Ġbirth":4224,"Ġfeat":4225,"ĠAunt":4226,"Ġdiss":4227,"onscious":4228,"Ġdepth":4229,"Ġinvol":4230,"Ġkissed":4231,"Ġbodies":4232,"Ġwelcome":4233,"Ġfreedom":4234,"ĠSunday":4235,"May":4236,"erous":4237,"Ġmeat":4238,"Ġfourth":4239,"Ġfacts":4240,"Ġuseful":4241,"Ġaccompan":4242,"iance":4243,"Ġbra":4244,"Ġtrick":4245,"Ġcoast":4246,"Ġuncom":4247,"Ġpolitical":4248,"ially":4249,"Ġhosp":4250,"Ġate":4251,"uments":4252,"Ġbrain":4253,"Ġdispl":4254,"they":4255,"Ġsuperior":4256,"Ġhoped":4257,"Ġfan":4258,"Ġcart":4259,"Ġpressed":4260,"irty":4261,"cip":4262,"Ġkindly":4263,"ok":4264,"win":4265,"hall":4266,"Ġdi":4267,"anny":4268,"Ġassoci":4269,"Ġhero":4270,"ĠTur":4271,"ĠWal":4272,"Ġdreams":4273,"Ġmidst":4274,"ĠAlice":4275,"Ġrapid":4276,"Ġuneas":4277,"eff":4278,"Ġaid":4279,"Ġsize":4280,"ifice":4281,"ĠMart":4282,"ĠGl":4283,"Ġlover":4284,"ĠBlack":4285,"Ġbenef":4286,"Ġseventy":4287,"Ġrule":4288,"Ġhyp":4289,"?--":4290,"Ġaim":4291,"Ġmult":4292,"acity":4293,"ĠSmith":4294,"ĠLaw":4295,"Ġrope":4296,"ĠEar":4297,"ability":4298,"Ġprecious":4299,"Ġcrim":4300,"Ġdrag":4301,"Ġadmit":4302,"ĠEliz":4303,"Ġthroat":4304,";--":4305,"asons":4306,"Ġlone":4307,"Ġlamp":4308,"Ġflesh":4309,"Ġindign":4310,"ĠStreet":4311,"Ġdevil":4312,"Ġburning":4313,"ĠHarry":4314,"Ġfrequently":4315,"Ġi":4316,"Ġsigh":4317,"Ġbal":4318,"isher":4319,"add":4320,"ivered":4321,"Ġunex":4322,"Ġadvance":4323,"ugust":4324,"Ġsisters":4325,"Ġgazed":4326,"ka":4327,"mother":4328,"overy":4329,"Ġwings":4330,"Ġbas":4331,"Ġexha":4332,"ĠBob":4333,"Ġbegged":4334,"Ġkeen":4335,"Ġminister":4336,"Ġgradually":4337,"Ġinnocent":4338,"ule":4339,"ication":4340,"Ġbetray":4341,"Ġsinging":4342,"Ġburied":4343,"Ġdriven":4344,"More":4345,"yr":4346,"oul":4347,"Ġbid":4348,"Ġanyone":4349,"Ġado":4350,"ternal":4351,"Ġenemies":4352,"Certainly":4353,"lection":4354,"Ġstretched":4355,"Ġrad":4356,"Ġqual":4357,"elt":4358,"Ġunfortun":4359,"ĠLittle":4360,"Ġblank":4361,"Ġclouds":4362,"Ġconsciousness":4363,"Ġgods":4364,"eem":4365,"Ġz":4366,"Ġwounded":4367,"Ġsevere":4368,"umn":4369,"Ġremoved":4370,"ization":4371,"Ġserved":4372,"Ġforgive":4373,"ustomed":4374,"Ġdaily":4375,"agnan":4376,"Ġthoroughly":4377,"Ġdw":4378,"Ġgest":4379,"pelled":4380,"Ġunivers":4381,"Ġbelief":4382,"Ġmiserable":4383,"Ġhunting":4384,"Ġbecomes":4385,"Ġmurmured":4386,"Again":4387,"Ch":4388,"bar":4389,"Ġpin":4390,"Ġweap":4391,"Ġbye":4392,"Ġquant":4393,"Ġplainly":4394,"ology":4395,"Ġimpression":4396,"Artagnan":4397,"Ġarose":4398,"Ġbought":4399,"Ġfet":4400,"Ġcit":4401,"urely":4402,"Ġflour":4403,"Ġappeal":4404,"Ġolder":4405,"Ġlock":4406,"Ġimagination":4407,"Ġspecies":4408,"ĠDavid":4409,"fl":4410,"hamed":4411,"stone":4412,"Ġenv":4413,"Ġadmitted":4414,"Ġexperi":4415,"which":4416,"Ġwaters":4417,"Ġsmooth":4418,"Ġsympathy":4419,"ED":4420,"Ġcell":4421,"Ġpause":4422,"ural":4423,"Ġhadn":4424,"ĠBen":4425,"Ġjealous":4426,"ĠFather":4427,"abeth":4428,"Ġglanced":4429,"Ġmarked":4430,"Ġassert":4431,"Ġfairly":4432,"Ġcapable":4433,"Ġpractice":4434,"Ġhighest":4435,"Ġreligion":4436,"Ġexplanation":4437,"AL":4438,"During":4439,"rate":4440,"Ġhom":4441,"agg":4442,"Ġthinks":4443,"Ġreckon":4444,"IC":4445,"cent":4446,"fess":4447,"gment":4448,"Ġcult":4449,"alled":4450,"Ġappl":4451,"onsense":4452,"Ġcheeks":4453,"Ġmerchant":4454,"Ġcreatures":4455,"Ġmodern":4456,"ĠSpan":4457,"Ġproble":4458,"rence":4459,"Ġlands":4460,"ĠChristmas":4461,"Ġdawn":4462,"Ġmaint":4463,"asing":4464,"Ġstories":4465,"ĠCal":4466,"Ġjames":4467,"cknow":4468,"ĠJew":4469,"Ġended":4470,"Ġrepro":4471,"Ġprompt":4472,"aper":4473,"bits":4474,"Ġacknow":4475,"Ġjumped":4476,"Ġtrade":4477,"Ġunable":4478,"Ġfamous":4479,"Ġdeeply":4480,"Ġsank":4481,"Ġiss":4482,"ĠSylvia":4483,"ĠCr":4484,"aud":4485,"Ġdish":4486,"Ġchoose":4487,"Ġremind":4488,"Ġcontempt":4489,"Ġcharming":4490,"Ġstrike":4491,"TH":4492,"tle":4493,"inced":4494,"Ġbowed":4495,"Ġtied":4496,"Ġwet":4497,"Ġreward":4498,"Ġweary":4499,"Ġexceed":4500,"igg":4501,"aunt":4502,"ĠWhen":4503,"Ġindiff":4504,"Ġjoin":4505,"Ġequally":4506,"Ġwishes":4507,"Ġprospect":4508,"Ġtrembling":4509,"Ġnineteen":4510,"Ġug":4511,"Ġstiff":4512,"Ġshoes":4513,"ĠAb":4514,"Ġlevel":4515,"Ġarch":4516,"Ġslipped":4517,"Ġretreat":4518,"Ġlarger":4519,"Ġavoid":4520,"rey":4521,"Ġdiamond":4522,"Ġloose":4523,"ĠFor":4524,"anches":4525,"Ġsupply":4526,"Ġlistening":4527,"Ġflying":4528,"apped":4529,"Ġer":4530,"chie":4531,"ĠCor":4532,"astic":4533,"Ġworn":4534,"Ġsomewhere":4535,"Ġrelations":4536,"Ġassured":4537,"Ġashamed":4538,"oyal":4539,"Ġsmell":4540,"Ġactive":4541,"Ġappears":4542,"Ġpopular":4543,"ĠMadame":4544,"Ġnervous":4545,"iable":4546,"Ġcord":4547,"omen":4548,"ifle":4549,"Ġfeather":4550,"ourt":4551,"ember":4552,"Ġoutl":4553,"Ġremains":4554,"Ġsounds":4555,"Ġobjects":4556,"Ġbecoming":4557,"field":4558,"Ġcard":4559,"Ġimpl":4560,"ĠNo":4561,"Ġindust":4562,"izing":4563,"ailed":4564,"Ġforeign":4565,"Ġhastily":4566,"Ġdelicate":4567,"ST":4568,"Ġgained":4569,"Ġsex":4570,"ilty":4571,"Ġtroops":4572,"Ġmagnific":4573,"has":4574,"Ġgay":4575,"Ġintention":4576,"Ġproject":4577,"inking":4578,"erry":4579,"Ġcaut":4580,"Ġrend":4581,"ĠMay":4582,"Ġjew":4583,"Ġhanded":4584,"Ġspend":4585,"Ġsteam":4586,"Ġgreet":4587,"Ġabsence":4588,"Ġarrival":4589,"Ġwhisper":4590,"Ġeggs":4591,"Ġdared":4592,"Ġlaughter":4593,"Ġeating":4594,"udden":4595,"Ġentrance":4596,"Ġeighty":4597,"Ġunconscious":4598,"Ġunhappy":4599,"Ġwest":4600,"Ġfill":4601,"Ġpardon":4602,"oms":4603,"Ġnotes":4604,"Ġmembers":4605,"ĠUnited":4606,"Ġhotel":4607,"Ġbottle":4608,"ege":4609,"Ġcop":4610,"Ġghost":4611,"ĠMajor":4612,"umph":4613,"Ġlights":4614,"Ġcorn":4615,"Ġexcuse":4616,"Ġtravel":4617,"Ġgaze":4618,"Ġviolent":4619,"Ġchoice":4620,"nal":4621,"Ġmeal":4622,"Ġguilty":4623,"Ġneighbor":4624,"rant":4625,"rees":4626,"Ġsty":4627,"Ġfeast":4628,"ĠRuss":4629,"Ġslave":4630,"Ġfriendship":4631,"Ġlonely":4632,"Ġcave":4633,"Ġpig":4634,"atory":4635,"Ġrolled":4636,"Ġexped":4637,"Ġmounted":4638,"respond":4639,"ential":4640,"Ġtruly":4641,"uddenly":4642,"Ġcere":4643,"Ġpuzz":4644,"amm":4645,"Ġshel":4646,"raw":4647,"Ġbridge":4648,"ĠDuke":4649,"Ġgrate":4650,"ĠElsie":4651,"Ġtend":4652,"umbled":4653,"Ġprincip":4654,"Ġacquaintance":4655,"Ġmysterious":4656,"ooked":4657,"Ġwheel":4658,"unning":4659,"ĠHale":4660,"Ġresumed":4661,"Ġreturning":4662,"Ġcorrespond":4663,"Ġtreasure":4664,"Ġrefuse":4665,"Ġskill":4666,"Ġsigns":4667,"Ġobtained":4668,"onn":4669,"ulated":4670,"Ġshock":4671,"Ġdistr":4672,"Ġsilk":4673,"Ġsixteen":4674,"Ġscience":4675,"Ġcomr":4676,"Ġvisible":4677,"Ġtreated":4678,"Ġhopes":4679,"Ġstupid":4680,"aries":4681,"ulse":4682,"oln":4683,"Ġspark":4684,"ollow":4685,"Ġeverywhere":4686,"Ġstruggle":4687,"low":4688,"Ġmour":4689,"Ġunus":4690,"Ġprice":4691,"fulness":4692,"Ġconstantly":4693,"Ġanxiety":4694,"ĠGreen":4695,"-'":4696,"Cha":4697,"Ġtiny":4698,"Ġfought":4699,"Ġinformed":4700,"Ġep":4701,"Ġyards":4702,"ldom":4703,"Ġsell":4704,"aine":4705,"Ġgoods":4706,"Ġteacher":4707,"ĠThis":4708,"ĠThom":4709,"kind":4710,"Ġmajor":4711,"Ġmental":4712,"iture":4713,"irm":4714,"Ġaloud":4715,"Ġspare":4716,"Ġbranches":4717,"Ġflung":4718,"Ġtrial":4719,"Ġuttered":4720,"Ġhaste":4721,"Ġconvinced":4722,"Ġconcerned":4723,"Ġparents":4724,"fessor":4725,"Ġtale":4726,"irgin":4727,"Ġfever":4728,"Ġconsult":4729,"Ġfriendly":4730,"Ġteach":4731,"Ġextent":4732,"Ġabsurd":4733,"Ġcapital":4734,"Ġoriginal":4735,"Ġcredit":4736,"Tr":4737,"lease":4738,"Ġreb":4739,"Ġmeas":4740,"ĠMount":4741,"Ġmanaged":4742,"ĠEx":4743,"ĠWar":4744,"Ġrecom":4745,"Ġrequest":4746,"Ġsettle":4747,"Ġmurder":4748,"wed":4749,"Ġwretched":4750,"erves":4751,"Ġder":4752,"Ġnation":4753,"icate":4754,"Ġknock":4755,"Ġkinds":4756,"Ġforehead":4757,"Ġprofession":4758,"Ġtroubled":4759,"Ġadventure":4760,"conom":4761,"Ġfeatures":4762,"iven":4763,"pse":4764,"Ġben":4765,"Ġfeared":4766,"itty":4767,"Ġwhenever":4768,"Ġamuse":4769,"Ġfollows":4770,"Ġproportion":4771,"Ġmistaken":4772,"Ġsafety":4773,"Another":4774,"Ġarranged":4775,"Having":4776,"Ġerr":4777,"inent":4778,"Ġtheory":4779,"Ġfac":4780,"orious":4781,"cean":4782,"Ġhers":4783,"ache":4784,"aches":4785,"ourse":4786,"Ġwholly":4787,"Ġclock":4788,"aps":4789,"Ġpurcha":4790,"Ġunderstanding":4791,"Ġstayed":4792,"ĠPhilip":4793,"Ġlack":4794,"atched":4795,"ishop":4796,"Though":4797,"Ġaccustomed":4798,"Ġconsideration":4799,"ĠPresident":4800,"fall":4801,"Ġsighed":4802,"Ġnurse":4803,"Ġease":4804,"Ġrisk":4805,"osal":4806,"Ġcurrent":4807,"Give":4808,"pes":4809,"held":4810,"Ġredu":4811,"Ġwithd":4812,"outher":4813,"ĠAlex":4814,"Ġroll":4815,"Ġminds":4816,"Ġvictim":4817,"Ġsacrifice":4818,"nat":4819,"Ġtit":4820,"inate":4821,"Ġbade":4822,"orous":4823,"Ġprint":4824,"Ġsomebody":4825,"Ġclo":4826,"Ġboots":4827,"Ġmisery":4828,"Ġmaiden":4829,"OM":4830,"hal":4831,"Ġdig":4832,"Ġlit":4833,"Ġfro":4834,"ilities":4835,"ĠNat":4836,"Ġinvest":4837,"Sometimes":4838,"Ġindepend":4839,"Ġslaves":4840,"can":4841,"nel":4842,"ĠOf":4843,"Ġearl":4844,"Ġmarch":4845,"Ġswim":4846,"Ġaddressed":4847,"Ġapproach":4848,"Ġengine":4849,"Ġlest":4850,"Ġrang":4851,"Ġenergy":4852,"Ġrestr":4853,"Ġcheek":4854,"Ġswept":4855,"Ġbringing":4856,"Ġfigures":4857,"Ġprovided":4858,"Ġsuspicion":4859,"mes":4860,"Ġmal":4861,"Ġbew":4862,"verse":4863,"keep":4864,"ols":4865,"Ġunl":4866,"Ġcompar":4867,"Ġattitude":4868,"Ġmilitary":4869,"Ġprofound":4870,"Ġcentury":4871,"Ġefforts":4872,"Ġastonishment":4873,"do":4874,"wick":4875,"Ġhither":4876,"Ġeast":4877,"Ġfrank":4878,"ĠPolly":4879,"Ġblame":4880,"ĠJoe":4881,"Ġsharply":4882,"Ġmood":4883,"eder":4884,"Ġthunder":4885,"Ġseldom":4886,"Ġintense":4887,"Ġsche":4888,"Ġglim":4889,"ivity":4890,"Ġinstruct":4891,"Ġbreaking":4892,"Ġintelligence":4893,"Ġdignity":4894,"Cl":4895,"Tom":4896,"bor":4897,"onder":4898,"three":4899,"estic":4900,"ĠCan":4901,"Ġvague":4902,"ĠDon":4903,"ĠHow":4904,"Ġindul":4905,"ensive":4906,"Ġjudgment":4907,"Ġduties":4908,"ĠEdward":4909,"Ġbrilliant":4910,"Pe":4911,"pent":4912,"Ġnest":4913,"utation":4914,"Ġeconom":4915,"ichard":4916,"rier":4917,"Ġfee":4918,"ĠFred":4919,"Ġglory":4920,"Ġdistress":4921,"Ġrelie":4922,"ĠHelen":4923,"Ġcontinue":4924,"Ġcondem":4925,"Ġproposed":4926,"Ġirr":4927,"Ġmillion":4928,"Ġcitiz":4929,"',":4930,"Ġconsent":4931,"Ġrecovered":4932,"Ġsounded":4933,"Ġsingular":4934,"ĠGovernment":4935,"mosp":4936,"rated":4937,"then":4938,"Ġpian":4939,"Ġhut":4940,"Ġhint":4941,"this":4942,"Ġgets":4943,"Ġunto":4944,"Ġbearing":4945,"Ġaffected":4946,"Ġadopt":4947,"Suddenly":4948,"Ġmamma":4949,"Ġnarr":4950,"Ġatmosp":4951,"ĠMy":4952,"ĠMother":4953,"Ġarrest":4954,"Ġconscience":4955,"Ġhorrible":4956,"upon":4957,"Ġfairy":4958,"Ġcircle":4959,"Ġapproaching":4960,"ĠComm":4961,"Ġrespons":4962,"Ġvirtue":4963,"Dear":4964,"oh":4965,"Ġwound":4966,"Ġcrew":4967,"Ġrage":4968,"udge":4969,"ĠHeaven":4970,"Ġrealized":4971,"Ġprinciples":4972,"ĠWhite":4973,"Ġdeparture":4974,"Ġlocked":4975,"Ġelder":4976,"iot":4977,"inter":4978,"Ġwra":4979,"erk":4980,"cho":4981,"Ġsob":4982,"osen":4983,"Ġenorm":4984,"ĠRiver":4985,"ĠRoman":4986,"Ġdesign":4987,"Ġloving":4988,"Ġsetting":4989,"Ġthousands":4990,"Ġpatient":4991,"Ġdelightful":4992,"Ġfirmly":4993,"Ġconnected":4994,"Next":4995,"Ġunexpected":4996,"Ġgrie":4997,"sey":4998,"Ġsup":4999,"ĠSqu":5000,"osha":5001,"oseph":5002,"ĠWhat":5003,"teenth":5004,"Ġwaist":5005,"Ġstands":5006,"Ġuseless":5007,"----\"":5008,"Ġemployed":5009,"Ġadmiration":5010,"kerchief":5011,"Ġshowing":5012,"Ġexhib":5013,"Ġflag":5014,"tending":5015,"erer":5016,"aval":5017,"ierre":5018,"Ġconceal":5019,"Ġsubstance":5020,"de":5021,"Ġmix":5022,"Ġchat":5023,"utions":5024,"ids":5025,"Ġrig":5026,"Ġfled":5027,"Ġslightly":5028,"Ġclimbed":5029,"Ġmuttered":5030,"Ġsavage":5031,"IR":5032,"ville":5033,"Ġfox":5034,"Ġreasons":5035,"Ġwhist":5036,"Ġintent":5037,"ĠLy":5038,"Ġclub":5039,"Ġimage":5040,"Ġhandkerchief":5041,"Ġswall":5042,"Ġdiscovery":5043,"ounce":5044,"Ġtrail":5045,"Ġguns":5046,"Ġimmense":5047,"Ġhanging":5048,"ĠElizabeth":5049,"Ġpred":5050,"Ġnut":5051,"Ġresemb":5052,"Ġrust":5053,"ours":5054,"erson":5055,"Ġbride":5056,"Ġprim":5057,"Ġshaking":5058,"Ġwisdom":5059,"Ġident":5060,"Ġfare":5061,"onstr":5062,"lyosha":5063,"Ġassemb":5064,"Ġmanif":5065,"Ġspl":5066,"pless":5067,"Ġpreced":5068,"Ġrequire":5069,"Ġshade":5070,"Ġhesitated":5071,"Ġestablished":5072,"Ġdistinguished":5073,"Ġmystery":5074,"Ġsons":5075,"Ġpipe":5076,"arf":5077,"Ġham":5078,"omp":5079,"Ġplat":5080,"Ġcloth":5081,"ĠRome":5082,"ceiving":5083,"Ġtransp":5084,"Ġugly":5085,"board":5086,"Ġing":5087,"Ġain":5088,"Ġbeard":5089,"etty":5090,"Ġjump":5091,"Ġsomehow":5092,"Ġcomposed":5093,"Ġinterf":5094,"Ġconcern":5095,"Ġannoy":5096,"Ġfaithful":5097,"gypt":5098,"Ġrecognized":5099,"ĠProfessor":5100,"don":5101,"Ġfil":5102,"icy":5103,"ĠMont":5104,"Ġobv":5105,"Ġemer":5106,"Ġguests":5107,"Ġstartled":5108,"Ġdetect":5109,"Ġinfinite":5110,"Ġexchan":5111,"Ġmidnight":5112,"Ġstriking":5113,"Ġriding":5114,"Ġinclined":5115,"Ġconsequence":5116,"ĠThornton":5117,"uf":5118,"itor":5119,"quis":5120,"Ġfem":5121,"Ġanywhere":5122,"Ġpartly":5123,"Ġinterests":5124,"Ġobserve":5125,"ĠFranc":5126,"Ġappreci":5127,"Ġoak":5128,"Ġnurs":5129,"Ġstair":5130,"Ġstaring":5131,"Ġmechan":5132,"Ġfeed":5133,"rab":5134,"aging":5135,"Ġcontem":5136,"Ġsentiment":5137,"Ġcomplex":5138,"Ġmember":5139,"ENT":5140,"Ġutterly":5141,"Ġreligious":5142,"ĠLouis":5143,"Ġaccompanied":5144,"outhern":5145,"itate":5146,"Ġpant":5147,"Ġhind":5148,"icip":5149,"eless":5150,"Ġunb":5151,"Ġgrim":5152,"Ġends":5153,"Ġwarning":5154,"Ġreality":5155,"Ġsuccessful":5156,"Ġprotect":5157,"Ġportion":5158,"ĠKaty":5159,"ares":5160,"Ġhun":5161,"Ġnumb":5162,"Ġrow":5163,"Ġfrag":5164,"ĠChe":5165,"Ġchosen":5166,"Ġnative":5167,"Ġthirst":5168,"Ġpatience":5169,"who":5170,"Ġpractical":5171,"Ġresults":5172,"Ġagreeable":5173,"First":5174,"Pr":5175,"Ġbree":5176,"Ġming":5177,"urity":5178,"Ġshudd":5179,"pel":5180,"ella":5181,"elia":5182,"ĠHam":5183,"Ġthanks":5184,"ĠWith":5185,"Ġafterward":5186,"Ġthroughout":5187,"Ġwaves":5188,"Ġfinal":5189,"Ġbos":5190,"Ġfaced":5191,"andy":5192,"ĠHim":5193,"ĠFlor":5194,"Ġdelay":5195,"Ġdetails":5196,"Ġbadly":5197,"Ġshadows":5198,"Ġeaten":5199,"Ġsensible":5200,"Ġleaned":5201,"Margaret":5202,"Ġprecise":5203,"Con":5204,"Ġsang":5205,"Ġtot":5206,"Ġdancing":5207,"Ġframe":5208,"ĠCity":5209,"Ġsport":5210,"Ġmerry":5211,"Ġdifficulties":5212,"Ġprevious":5213,"Ġdestroyed":5214,"Each":5215,"hether":5216,"Ġwaste":5217,"Ġdoct":5218,"Its":5219,"Ġplate":5220,"ĠEgypt":5221,"ĠJes":5222,"Ġactual":5223,"Ġsteep":5224,"Ġpolite":5225,"ĠScot":5226,"Ġruin":5227,"Ġleaning":5228,"ĠRobert":5229,"Ġsurrounded":5230,"ishes":5231,"Ġpowd":5232,"stead":5233,"ander":5234,"raham":5235,"Ġtrack":5236,"cles":5237,"Ġyounger":5238,"Ġrested":5239,"Ġrelation":5240,"Ġsentence":5241,"Ġdefe":5242,"Ġwooden":5243,"ĠFrank":5244,"Ġdescribed":5245,"Something":5246,"ais":5247,"lot":5248,"ators":5249,"Ġshone":5250,"ĠMc":5251,"Ġknocked":5252,"atherine":5253,"Ġpoison":5254,"Ġloves":5255,"Ġseriously":5256,"Ġawa":5257,"Ġsorts":5258,"ĠEmperor":5259,"Ġcoffee":5260,"Ġunfortunate":5261,"Ġquantity":5262,"rem":5263,"Ġgain":5264,"ĠBill":5265,"Ġplans":5266,"ĠGreat":5267,"cript":5268,"Ġcandle":5269,"Ġmachine":5270,"Ġgloomy":5271,"About":5272,"Pro":5273,"Ġpoured":5274,"Ġris":5275,"Ġpron":5276,"ĠDun":5277,"Ġhousehold":5278,"Ġsuppl":5279,"Ġdrunk":5280,"Ġconfusion":5281,"Ġawake":5282,"Ġraise":5283,"Ġstraw":5284,"Ġtorn":5285,"incoln":5286,"Ġdisappointed":5287,"Chapter":5288,"long":5289,"Ġcig":5290,"othy":5291,"Ġwept":5292,"Ġcliff":5293,"Ġwondering":5294,"Ġtriumph":5295,"Ġsenses":5296,"Ġannounced":5297,"Ġneglect":5298,"Ġintellectual":5299,"Ġassistance":5300,"house":5301,"alph":5302,"Ġcrack":5303,"Does":5304,"Ġincrease":5305,"Ġconcerning":5306,"Ġwedding":5307,"OW":5308,"Ġmatch":5309,"Ġpink":5310,"uten":5311,"ili":5312,"Ġnob":5313,"Ġgrasp":5314,"Ġsuspect":5315,"Ġconnection":5316,"Ġextremely":5317,"Ġgenius":5318,"Ġexercise":5319,"Ġprincipal":5320,"Ġlux":5321,"Ġorn":5322,"Ġdise":5323,"ission":5324,"Ġassure":5325,"Ġlawyer":5326,"Ġdirected":5327,"Ġproduce":5328,"Ġbanks":5329,"Ġinterview":5330,"ĠBritish":5331,"Ġstyle":5332,"Ġatmosphere":5333,"Little":5334,"eel":5335,"otted":5336,"imon":5337,"ifted":5338,"ĠMrs":5339,"Ġmanners":5340,"Ġvoy":5341,"ems":5342,"olic":5343,"Ġcompre":5344,"Ġcheck":5345,"Ġinvited":5346,"Ġsignal":5347,"Ġconclusion":5348,"Ġfierce":5349,"Ġbark":5350,"Ġcared":5351,"Ġpist":5352,"atives":5353,"utch":5354,"Ġrent":5355,"ĠFair":5356,"ĠNature":5357,"Ġretired":5358,"Ġchanges":5359,"Ġsteady":5360,"Ġhighly":5361,"Ġtrib":5362,"ovitch":5363,"hered":5364,"Ġpear":5365,"Ġhit":5366,"Ġunp":5367,"ĠHans":5368,"Ġblaz":5369,"Ġthrone":5370,"Ġcontained":5371,"Ġcoach":5372,"Ġneeds":5373,"Ġlearning":5374,"Ġcommanded":5375,"Ġconcluded":5376,"ault":5377,"arse":5378,"ĠChan":5379,"ĠTad":5380,"Ġwarri":5381,"Ġforever":5382,"Ġsleeping":5383,"Ġcollect":5384,"Ġcrept":5385,"Ġbelonged":5386,"ef":5387,"lie":5388,"Ġocean":5389,"Ġgift":5390,"Ġrush":5391,"Ġsees":5392,"ilst":5393,"icken":5394,"Ġcontract":5395,"Ġfarmer":5396,"Ġsubs":5397,"Ġconstant":5398,"atively":5399,"arrass":5400,"Ġsufficiently":5401,"Ġastonished":5402,"Ġmelanch":5403,"was":5404,"edy":5405,"Ġnum":5406,"ĠIr":5407,"Ġreven":5408,"ĠSh":5409,"ĠMin":5410,"oser":5411,"ĠPark":5412,"Ġwhence":5413,"ĠTe":5414,"Ġguide":5415,"Ġreflection":5416,"liament":5417,"Ġcentre":5418,"Ġridic":5419,"Ġvictory":5420,"Ġpiano":5421,"itz":5422,"ama":5423,"ĠAugust":5424,"erent":5425,"Ġtells":5426,"Ġfourteen":5427,"Ġvision":5428,"Ġabsor":5429,"Ġleaf":5430,"Ġthirteen":5431,"Ġdevoted":5432,"Ġimmediate":5433,"Ġslightest":5434,"Ġinhabit":5435,"Pres":5436,"lest":5437,"Ġpsy":5438,"rily":5439,"Ġextended":5440,"Ġabrupt":5441,"ĠBilly":5442,"ĠPal":5443,"ĠHall":5444,"ĠWood":5445,"Ġhelpless":5446,"Ġcolonel":5447,"Ġsolid":5448,"Ġrespond":5449,"Ġseparate":5450,"Ġvanished":5451,"aver":5452,"bers":5453,"ouring":5454,"ĠPol":5455,"Ġchim":5456,"Ġbushes":5457,"Ġproperly":5458,"Ġquarters":5459,"Ġdeparted":5460,"apt":5461,"Ġtax":5462,"Ġoil":5463,"Ġtoss":5464,"Ġhabits":5465,"alt":5466,"Ġsoil":5467,"Ġconven":5468,"ĠSat":5469,"Ġthrowing":5470,"Ġdesk":5471,"Ġsmaller":5472,"Ġvisited":5473,"Ġsafely":5474,"Ġpunishment":5475,"Ġgratitude":5476,"Ġaccomplished":5477,"Ġalarm":5478,"Ġmelancholy":5479,"awn":5480,"Ġtables":5481,"ĠLincoln":5482,"ĠEast":5483,"Three":5484,"Ġinstit":5485,"Ġgiant":5486,"Ġsteal":5487,"Ġstronger":5488,"Ġspiritual":5489,"Ġacquainted":5490,"Ġfleet":5491,"Ġembarrass":5492,"xed":5493,"hand":5494,"Ġcher":5495,"asper":5496,"Ġshows":5497,"iece":5498,"ĠCat":5499,"Ġfears":5500,"ĠAnt":5501,"Ġshake":5502,"icks":5503,"ĠJean":5504,"Ġparties":5505,"Ġhastened":5506,"Ġexamined":5507,"Ġdisturb":5508,"Ġargument":5509,"ington":5510,"orse":5511,"lebr":5512,"iform":5513,"ros":5514,"Ġlibr":5515,"owned":5516,"Ġplun":5517,"Ġcompass":5518,"Ġnights":5519,"ĠVen":5520,"Ġamongst":5521,"Ġideal":5522,"Ġtrip":5523,"Ġviolence":5524,"Ġtroubles":5525,"Ġforbid":5526,"Upon":5527,"Ġenormous":5528,"Ġplatform":5529,"bury":5530,"had":5531,"ulate":5532,"ĠMic":5533,"ĠBel":5534,"Ġhappens":5535,"Ġinsult":5536,"Ġbehold":5537,"Ġsouls":5538,"Ġcalcul":5539,"Ġninety":5540,"Ġcounsel":5541,"Ġobtain":5542,"Ġappointed":5543,"ĠFlore":5544,"ĠOliver":5545,"Ġproblem":5546,"Ġbosom":5547,"utenant":5548,"AS":5549,"Le":5550,"mble":5551,"oqu":5552,"isions":5553,"enger":5554,"ads":5555,"Ġshed":5556,"ĠSn":5557,"ĠCourt":5558,"umble":5559,"thern":5560,"Ġproc":5561,"Ġbrow":5562,"Ġarmed":5563,"ĠJoseph":5564,"Ġcontri":5565,"Ġleader":5566,"Ġdestruction":5567,"Ġdivided":5568,"Ġknights":5569,"ĠRobin":5570,"Ġdeserted":5571,"Ġtower":5572,"Ġqualities":5573,"Ġmagnificent":5574,"jean":5575,"Ġmanage":5576,"eps":5577,"Ġshouldn":5578,"udes":5579,"ĠNight":5580,"Ġdeliber":5581,"Ġreflected":5582,"Ġventured":5583,"Ġelectric":5584,"ĠValjean":5585,"pher":5586,"Ġhated":5587,"Ġhaunt":5588,"urance":5589,"ĠSte":5590,"Ġamid":5591,"Ġovert":5592,"ĠRose":5593,"Ġpermitted":5594,"Ġattent":5595,"retch":5596,"Ġholy":5597,"Ġillust":5598,"Ġenjoyed":5599,"Ġprivile":5600,"Ġseparated":5601,"standing":5602,"lo":5603,"uing":5604,"uable":5605,"reck":5606,"Ġpier":5607,"Ġsugar":5608,"ĠFort":5609,"engers":5610,"Ġsadly":5611,"Ġprotection":5612,"Ġcelebr":5613,"Ġsacred":5614,"aggedy":5615,"EL":5616,"Say":5617,"bow":5618,"ived":5619,"Ġtrace":5620,"agger":5621,"Ġsecure":5622,"Ġswear":5623,"Ġpainful":5624,"Ġpainted":5625,"ĠIsland":5626,"Ġunusual":5627,"bour":5628,"iqu":5629,"Ġstout":5630,"Ġneat":5631,"Ġleap":5632,"Ġcompelled":5633,"ĠDan":5634,"Ġflash":5635,"lessness":5636,"Ġcalls":5637,"ĠMarilla":5638,"ĠBrown":5639,"Ġmercy":5640,"Ġutmost":5641,"Ġattempted":5642,"Ġbeaten":5643,"Both":5644,"Gr":5645,"bb":5646,"gl":5647,"Ġma":5648,"Ġpage":5649,"ician":5650,"iring":5651,"Ġconvent":5652,"ĠNed":5653,"Ġattached":5654,"amped":5655,"Ġeffects":5656,"Ġdescription":5657,"Lady":5658,"Ġfo":5659,"Ġfired":5660,"acon":5661,"usan":5662,"Ġflood":5663,"Ġcolored":5664,"Ġgrandfather":5665,"ĠConst":5666,"ĠAdam":5667,"ashington":5668,"Ġimprove":5669,"Ġsurround":5670,"Ġignorant":5671,"Bl":5672,"CE":5673,"Since":5674,"Under":5675,"Ġtent":5676,"Ġfix":5677,"Ġcattle":5678,"Ġbeheld":5679,"ĠIN":5680,"amps":5681,"pended":5682,"Ġexert":5683,"ĠSil":5684,"osure":5685,"ĠAlyosha":5686,"Ġabroad":5687,"Ġjob":5688,"Ġseeking":5689,"Ġeyed":5690,"ggy":5691,"Ġcommitted":5692,"ground":5693,"Ġrepeat":5694,"Ġburned":5695,"Ġcheerful":5696,"Could":5697,"eep":5698,"jud":5699,"uries":5700,"Ġunple":5701,"Ġcollege":5702,"Ġmarket":5703,"Ġdegrees":5704,"Ġshelter":5705,"Ġinvestig":5706,"eenth":5707,"Ġbase":5708,"itating":5709,"Ġdarling":5710,"Ġerect":5711,"ica":5712,"Ġforces":5713,"Ġasce":5714,"Ġattended":5715,"Ġnovel":5716,"arted":5717,"ĠPen":5718,"ĠDale":5719,"Ġstrict":5720,"Ġnevertheless":5721,"Ġinsisted":5722,"Ġdescended":5723,"Ġpuzzled":5724,"Ġpsych":5725,"Shall":5726,"Ġscient":5727,"Ġhollow":5728,"Ġlin":5729,"Ġling":5730,"Ġlion":5731,"Ġinex":5732,"iday":5733,"Ġthread":5734,"Ġrout":5735,"Ġexcess":5736,"ĠRichard":5737,"Ġscore":5738,"Soon":5739,"Ġhoriz":5740,"Ġsimpl":5741,"Ġdressing":5742,"Ġprayer":5743,"Ġlocal":5744,"Ġsteadily":5745,"Ġexhausted":5746,"Ġuniversal":5747,"Ġrendered":5748,"Get":5749,"OL":5750,"bre":5751,"mor":5752,"work":5753,"Ġax":5754,"oring":5755,"Ġet":5756,"ifts":5757,"ĠMo":5758,"ĠCrist":5759,"Ġmonkey":5760,"Ġcutting":5761,"Ġexception":5762,"Ġofficial":5763,"ĠGrand":5764,"Ġcrowded":5765,"Ġfatal":5766,"Ġdisturbed":5767,"Ġfanci":5768,"Se":5769,"Ġwing":5770,"arn":5771,"aned":5772,"ĠSher":5773,"Ġleis":5774,"ĠGil":5775,"ĠDiana":5776,"ĠRo":5777,"uding":5778,"Ġcharm":5779,"Ġdischar":5780,"Ġgenerous":5781,"Ġsuspected":5782,"Ġcounter":5783,"Ġbitterly":5784,"Ġdevelopment":5785,"Ġfailure":5786,"Ġestablish":5787,"Ġgrateful":5788,"ĠThomas":5789,"when":5790,"rep":5791,"Ġrab":5792,"ĠCath":5793,"udence":5794,"Ġimpr":5795,"Ġcarpet":5796,"Ġdrank":5797,"liest":5798,"Ġproduct":5799,"Ġintroduced":5800,"ĠJulia":5801,"Ġdesperate":5802,"ĠWalter":5803,"Most":5804,"dr":5805,"liness":5806,"Ġgown":5807,"Ġmead":5808,"ribly":5809,"Ġnearest":5810,"Ġalike":5811,"Ġintr":5812,"rage":5813,"ittee":5814,"Ġtrad":5815,"Ġlikewise":5816,"Ġboats":5817,"Ġdriving":5818,"Ġimagined":5819,"Ġprobable":5820,"tis":5821,"Ġhence":5822,"usk":5823,"Ġvic":5824,"olas":5825,"ĠBab":5826,"Ġchose":5827,"Ġgoodness":5828,"Ġeveryone":5829,"Ġcountries":5830,"Ġaddition":5831,"shine":5832,"Ġdecide":5833,"Ġpenet":5834,"Ġmissed":5835,"Ġdescribe":5836,"EAR":5837,"Lord":5838,"eg":5839,"van":5840,"Ġsilly":5841,"Ġwagon":5842,"omin":5843,"Ġgates":5844,"Ġrender":5845,"ĠAust":5846,"Ġquality":5847,"itya":5848,"Ġours":5849,"izz":5850,"ĠChris":5851,"ĠStep":5852,"Ġlesson":5853,"Ġlandl":5854,"Ġdirections":5855,"Ġesteem":5856,"Ġobservation":5857,"keeper":5858,"Ġnumerous":5859,"Mary":5860,"Ġwave":5861,"Ġod":5862,"Ġbuck":5863,"Ġpace":5864,"Ġric":5865,"Ġrib":5866,"ĠSw":5867,"unce":5868,"elle":5869,"Ġuniform":5870,"Ġreader":5871,"Ġcontinually":5872,"Ġmovements":5873,"Ġtrap":5874,"eanwhile":5875,"Ġdeny":5876,"Ġanticip":5877,"Ġsource":5878,"Ġgesture":5879,"ses":5880,"inction":5881,"Ġmud":5882,"Ġstuck":5883,"Ġselect":5884,"olution":5885,"Ġjack":5886,"Ġplants":5887,"Ġscorn":5888,"Ġrecall":5889,"Ġcheese":5890,"Ġsubjects":5891,"Ġpursued":5892,";\"":5893,"Ġbay":5894,"Ġfulf":5895,"ooped":5896,"order":5897,"ograph":5898,"Ġsilently":5899,"Ġcauses":5900,"Ġobsc":5901,"Without":5902,"Ġexperiment":5903,"Ġoccasions":5904,"ĠLucy":5905,"Ġaudience":5906,"Ġabandoned":5907,"cast":5908,"eb":5909,"Ġox":5910,"Ġbones":5911,"Ġpound":5912,"Ġnonsense":5913,"Ġaspect":5914,"ifying":5915,"Ġshrie":5916,"Ġouter":5917,"ĠVirgin":5918,"Ġmonster":5919,"Ġdisappear":5920,"Ġtravell":5921,"ĠJesus":5922,"Bet":5923,"tic":5924,"isp":5925,"Ġpir":5926,"verty":5927,"Ġappet":5928,"Ġpoverty":5929,"Ġresc":5930,"Ġentering":5931,"Ġrelated":5932,"Ġfastened":5933,"Ġfatig":5934,"Ġweakness":5935,"Ġmotionless":5936,"Ġcloak":5937,"Ġfancied":5938,"AD":5939,"ipping":5940,"mat":5941,"onies":5942,"Ġpup":5943,"alian":5944,"Ġsheet":5945,"Ġintim":5946,"ĠRalph":5947,"ĠJeff":5948,"Ġscattered":5949,"ĠOn":5950,"Ġmoder":5951,"Among":5952,"Ġenthusiasm":5953,"Presently":5954,"Ġlibrary":5955,"Mad":5956,"met":5957,"mony":5958,"inth":5959,"Ġwake":5960,"Ġcunning":5961,"Ġlap":5962,"Ġge":5963,"Ġbeings":5964,"Ġrum":5965,"ĠHigh":5966,"ĠJac":5967,"Ġwrit":5968,"Ġacted":5969,"Ġpointing":5970,"Ġsunshine":5971,"Ġservices":5972,"Ġburden":5973,"Ġdining":5974,"Ġdivine":5975,"Ġwandered":5976,"Ġapartment":5977,"Ġshooting":5978,"Ġnewspaper":5979,"AM":5980,"why":5981,"Ġtal":5982,"Ġpil":5983,"Ġvac":5984,"Ġliqu":5985,"isten":5986,"Ġworship":5987,"ĠBert":5988,"ĠGold":5989,"Ġdisci":5990,"Ġflame":5991,"Ġapple":5992,"Ġhumble":5993,"Ġstrongly":5994,"Ġcircumstance":5995,"Ġclasses":5996,"Ġvolunt":5997,"Ġinstrument":5998,"aus":5999,"eight":6000,"sing":6001,"ye":6002,"Ġdirty":6003,"Ġshy":6004,"ĠBern":6005,"ĠDra":6006,"Ġovercome":6007,"Ġchain":6008,".'\"":6009,"Ġlightning":6010,"ĠAndrew":6011,"Ġsignific":6012,"ĠUnion":6013,"Ġresolution":6014,"Ġdisappointment":6015,"Ġcontempl":6016,"Meanwhile":6017,"bon":6018,"Ġhal":6019,"Ġash":6020,"icholas":6021,"iel":6022,"ĠMill":6023,"ĠAf":6024,"Ġstrangers":6025,"ĠOne":6026,"Ġwriter":6027,"apping":6028,"Ġinvitation":6029,"Ġfifth":6030,"Ġheavily":6031,"Ġquarrel":6032,"Ġdisposed":6033,"Ġprisoners":6034,"Everything":6035,"burg":6036,"rough":6037,"Ġbund":6038,"Ġcries":6039,"Ġpony":6040,"estern":6041,"Ġdearest":6042,"umes":6043,"Ġcloser":6044,"Ġperple":6045,"...\"":6046,"Ġcommer":6047,"Ġteaching":6048,"Ġsensation":6049,"Ġsuggestion":6050,"Ġpockets":6051,"Ġgazing":6052,"Ġfurniture":6053,"Ġconcealed":6054,"Ġmotive":6055,"Ġprefer":6056,"Ġhomes":6057,"Ġacknowled":6058,"Ġceremony":6059,"Ġinhabitants":6060,"non":6061,"Ġaver":6062,"inity":6063,"Ġven":6064,"elly":6065,"ĠWashington":6066,"ression":6067,"Ġprecip":6068,"Ġassumed":6069,"Ġveget":6070,"Ġvaluable":6071,"Ġgrowth":6072,"Ġcraw":6073,"Ġsailor":6074,"Ġblessed":6075,"coat":6076,"Ġdomestic":6077,"Ġgranted":6078,"Nay":6079,"Other":6080,"Ġachie":6081,"erite":6082,"Ġfisher":6083,"asha":6084,"arry":6085,"Ġnaked":6086,"alf":6087,"Ġcoal":6088,"Ġpurple":6089,"Ġhunger":6090,"Ġtrembled":6091,"ĠSpanish":6092,"Ġreproach":6093,"Ġdistrict":6094,"Ġtitle":6095,"Ġnumbers":6096,"ĠFlorence":6097,"Ġtick":6098,"Ġmajesty":6099,"Ġpub":6100,"Ġnational":6101,"Ġwhilst":6102,"Ġdisag":6103,"Ġdismiss":6104,"Ġrights":6105,"Ġcoloured":6106,"fortune":6107,"Ġlanded":6108,"Ġprize":6109,"Ġselfish":6110,"Ġwandering":6111,"guerite":6112,"Ġdescend":6113,"Ġcomrades":6114,"Ġbench":6115,"Ġscheme":6116,"Hence":6117,"Ġtheat":6118,"Ġbul":6119,"Ġtones":6120,"Ġbeating":6121,"Ġecho":6122,"Ġrange":6123,"achel":6124,"ĠMid":6125,"Ġunre":6126,"opes":6127,"Ġgrin":6128,"ĠRaggedy":6129,"Ġperpet":6130,"Ġconsid":6131,"Ġretorted":6132,"Ġhearted":6133,"Ġrecover":6134,"Ġacts":6135,"Ġdeliver":6136,"Ġreadily":6137,"Ġdragged":6138,"Ġsteel":6139,"Ġsincere":6140,"Ġdisposition":6141,"Ġcraft":6142,"Ġprosper":6143,"Ġgrav":6144,"Ġmingled":6145,"ĠIrish":6146,"Acc":6147,"SE":6148,"Ġfence":6149,"Ġlunch":6150,"Ġsovere":6151,"riet":6152,"ums":6153,"Ġbranch":6154,"Ġseries":6155,"Ġlightly":6156,"Ġcleared":6157,"ĠVan":6158,"Ġdefinite":6159,"ĠAnna":6160,"Ġsummon":6161,"Ġviews":6162,"Ġanxiously":6163,"Ġtreatment":6164,"Nevertheless":6165,"Ġphr":6166,"after":6167,"Ġwashed":6168,"Ġfranc":6169,"Ġupstairs":6170,"ĠPat":6171,"ĠPort":6172,"Ġsomeone":6173,"Ġowner":6174,"Ġcru":6175,"Ġbeloved":6176,"Ġconsist":6177,"Ġwinds":6178,"....\"":6179,"john":6180,"Ġdrinking":6181,"ĠJackson":6182,"Ġcoward":6183,"Ġborne":6184,"Ġhoney":6185,"Ġinner":6186,"Ġabst":6187,"ĠBur":6188,"Ġdisgu":6189,"Ġchin":6190,"apers":6191,"Ġparted":6192,"Ġactions":6193,"Ġconfident":6194,"Ġtremend":6195,"Ġincred":6196,"Ġinfant":6197,"umbling":6198,"Ġgravely":6199,"Ġbeasts":6200,"Ġdiscussion":6201,"Supp":6202,"vation":6203,"ĠIf":6204,"Ġreaching":6205,"Ġrag":6206,"Ġrude":6207,"Ġincident":6208,"Ġslender":6209,"Ġwolf":6210,"Ġfinish":6211,"Ġmisfortune":6212,"Ġvisitor":6213,"Alas":6214,"Ġconviction":6215,"ĠDorothy":6216,"ige":6217,"kward":6218,"inally":6219,"Ġoh":6220,"Ġlately":6221,"Ġlift":6222,"Ġstable":6223,"Ġweeping":6224,"Ġnotion":6225,"Ġsailed":6226,"ĠCha":6227,"Ġnoon":6228,"Ġunm":6229,"Ġheaded":6230,"Ġfreely":6231,"Ġprotest":6232,"Ġmission":6233,"ĠIsabel":6234,"Ġurged":6235,"Ġpraise":6236,"Ġswiftly":6237,"Ġdisease":6238,"Ġvoyage":6239,"fa":6240,"zed":6241,"erg":6242,"olt":6243,"Ġleather":6244,"reek":6245,"ubb":6246,"Ġswung":6247,"Ġadmin":6248,"Ġsaddle":6249,"Ġvariety":6250,"Ġmeantime":6251,"Ġfunny":6252,"Ġclimb":6253,"Ġstirred":6254,"Ġventure":6255,"Ġbenefit":6256,"Ġcultiv":6257,"Ġfemale":6258,").":6259,"Tw":6260,"fty":6261,"uits":6262,"Ġapt":6263,"Ġsne":6264,"Ġcro":6265,"Ġwash":6266,"thos":6267,"Ġconsol":6268,"Ġpossibility":6269,"Ġswell":6270,"Ġawkward":6271,"Ġcreated":6272,"Ġcollar":6273,"Ġgovernor":6274,"Ġbelongs":6275,"Ġcontrad":6276,"Ġmirror":6277,"Ġfolks":6278,"twenty":6279,"Ġdwarf":6280,"Ġexpedition":6281,"Ġunpleasant":6282,"lict":6283,"phe":6284,"some":6285,"inoc":6286,"eral":6287,"onc":6288,"Ġduke":6289,"Ġrear":6290,"Ġrays":6291,"roll":6292,"ĠHill":6293,"Ġprejud":6294,"Ġdistinction":6295,"Ġdoorway":6296,"Ġhundreds":6297,"Ġstarting":6298,"Ġfootst":6299,"Ġengagement":6300,"Ġenterpr":6301,"Ġessential":6302,"Ġindifferent":6303,"Ġmild":6304,"Ġinch":6305,"Ġanch":6306,"ĠHaw":6307,"Ġperceive":6308,"Ġremaining":6309,"henomen":6310,"Ġglorious":6311,"Ġimpulse":6312,"hess":6313,"Ġcareer":6314,"Ġdrops":6315,"Ġhiding":6316,"Ġearnestly":6317,"Ġfolk":6318,"Ġangel":6319,"ys":6320,"Ġfasc":6321,"Ġdaz":6322,"Ġheed":6323,"arm":6324,"Ġga":6325,"Ġnoted":6326,"riot":6327,"ĠSch":6328,"ĠMag":6329,"akened":6330,"Ġflut":6331,"Ġperil":6332,"Ġcompet":6333,"ĠKate":6334,"Ġentreat":6335,"Ġpersist":6336,"Ġdelivered":6337,"ĠMarian":6338,"Ġbedroom":6339,"kespe":6340,"Ġfavorite":6341,"Wait":6342,"case":6343,"Ġwire":6344,"Ġpond":6345,"Ġstated":6346,"Ġsending":6347,"Ġknee":6348,"ola":6349,"olen":6350,"Ġjoke":6351,"Ġens":6352,"Ġthoughtfully":6353,"Ġturns":6354,"Ġawoke":6355,"Ġheavens":6356,"Ġfrequent":6357,"Ġalarmed":6358,"Ġexecution":6359,"Ġobeyed":6360,"Ġdepths":6361,"Ġexperienced":6362,"Ġfrancs":6363,"Char":6364,"Dick":6365,"ET":6366,"Please":6367,"Ġbond":6368,"Ġmixed":6369,"Ġheap":6370,"anz":6371,"icity":6372,"ĠMajesty":6373,"Ġages":6374,"place":6375,"about":6376,"Ġpretended":6377,"aughters":6378,"ucky":6379,"Ġregiment":6380,"Ġuncertain":6381,"Ġsym":6382,"Ġhumanity":6383,"ĠCarol":6384,"ooping":6385,"Neither":6386,"Ġthreatened":6387,"Ġneighbourhood":6388,"Ġarticle":6389,"Ġpowder":6390,"Mr":6391,"Old":6392,"Ġvel":6393,"Ġstom":6394,"Ġstaff":6395,"Ġsoot":6396,"ĠSl":6397,"Ġmankind":6398,"Ġintend":6399,"ĠArab":6400,"ĠDen":6401,"Ġenchant":6402,"Ġflushed":6403,"Ġslip":6404,"ension":6405,"Ġterm":6406,"Ġstole":6407,"ĠArm":6408,"axim":6409,"ĠHerbert":6410,"leness":6411,"iveness":6412,"rain":6413,"isl":6414,"Ġfer":6415,"Ġfund":6416,"omed":6417,"otions":6418,"ĠMal":6419,"ĠCatherine":6420,"emon":6421,"Ġtrunk":6422,"Ġprey":6423,"Ġspell":6424,"Ġfinds":6425,"Ġinches":6426,"Ġeffic":6427,"Ġdoubtless":6428,"Ġstopping":6429,"Ġgallop":6430,"Ġphot":6431,"Ġarrangement":6432,"ĠGreek":6433,"None":6434,"aur":6435,"tte":6436,"hael":6437,"Ġfitted":6438,"Ġphenomen":6439,"Ġgas":6440,"icing":6441,"ĠIre":6442,"Ġsust":6443,"Ġabund":6444,"ĠPierre":6445,"ĠDur":6446,"Ġobed":6447,"Ġactivity":6448,"Ġpurposes":6449,"ĠItalian":6450,"Ġpulling":6451,"Ġmedic":6452,"Ġguessed":6453,"Ġchimney":6454,"Ġduck":6455,"Ġpaint":6456,"otes":6457,"Ġconvey":6458,"ĠMars":6459,"Ġard":6460,"inkled":6461,"Ġwherever":6462,"Ġattacked":6463,"gging":6464,"Ġwaved":6465,"Ġcheap":6466,"ristram":6467,"Ġmischief":6468,"Ġcompleted":6469,"urday":6470,"Ġbuildings":6471,"Ġconsequences":6472,"Ġemphas":6473,"Ġignorance":6474,"Ġcitizens":6475,"ĠAfric":6476,"rous":6477,"ena":6478,"Ġgri":6479,"quet":6480,"ĠAp":6481,"aks":6482,"Ġagent":6483,"ĠDel":6484,"Ġdecision":6485,"Ġfearful":6486,"Ġdeeper":6487,"Ġtouching":6488,"Ġpursuit":6489,"Ġpressure":6490,"orthy":6491,"Ġambition":6492,"Ġwidow":6493,"Ġwrapped":6494,"Ġmanifest":6495,"ufact":6496,"Ġabruptly":6497,"VE":6498,"gent":6499,"spect":6500,"inated":6501,"Ġpars":6502,"leton":6503,"rod":6504,"Ġleaped":6505,"Ġperformed":6506,"Ġcontents":6507,"Ġharsh":6508,"Ġguest":6509,"Ġreference":6510,"Ġmagist":6511,"Ġgrandmother":6512,"Ġoccasionally":6513,"Ġcontrast":6514,"Ġfurnished":6515,"Ġsacrific":6516,"Ġautumn":6517,"Ġrelieved":6518,"Br":6519,"Ca":6520,"Father":6521,"RO":6522,"look":6523,"pri":6524,"Ġsan":6525,"Ġlun":6526,"ata":6527,"ifully":6528,"Ġthanked":6529,"Ġapply":6530,"apa":6531,"Ġpassengers":6532,"Ġreputation":6533,"Ġincome":6534,"Ġdepri":6535,"Ġabsent":6536,"Ġdemonstr":6537,"Ġtransf":6538,"Ġaccordingly":6539,"Ġintelligent":6540,"Ġattracted":6541,"Ġoperation":6542,"Ġmortal":6543,"Quite":6544,"Ġprecisely":6545,"Ġstomach":6546,"uced":6547,"Ġcas":6548,"oration":6549,"ĠMer":6550,"Ġmanufact":6551,"Ġalter":6552,"ĠAg":6553,"Ġprocl":6554,"Ġapplic":6555,"Ġspecul":6556,"Ġconsum":6557,"Ġcommunity":6558,"Ġconfused":6559,"Ġslee":6560,"Ġglasses":6561,"Ġtorment":6562,"Ġfamilies":6563,"Ġdeveloped":6564,"Ġamazement":6565,"Ġuneasy":6566,"Ġdragon":6567,"Ġbetrayed":6568,"Ġsupreme":6569,".)":6570,"Ad":6571,"RI":6572,"Sc":6573,"Surely":6574,"enes":6575,"Ġtoday":6576,"Ġrene":6577,"Ġshru":6578,"Ġagony":6579,"ĠRich":6580,"Ġflashed":6581,"Ġfeels":6582,"Ġinsist":6583,"Ġfury":6584,"Ġbreathing":6585,"Ġshouting":6586,"Ġmoonlight":6587,"ĠShakespe":6588,"Ġpoetry":6589,"Ġporch":6590,"ĠBernard":6591,"Put":6592,"lers":6593,"olf":6594,"yes":6595,"Ġdried":6596,"Ġshirt":6597,"ĠCo":6598,"Ġstring":6599,"Ġsmart":6600,"Ġcompared":6601,"ĠKitty":6602,"Nobody":6603,"Ġheartily":6604,"Ġemperor":6605,"Ġrespectable":6606,"Ġpreparing":6607,"Ġstatement":6608,"Ġinquiry":6609,"Ġgathering":6610,"Ġreduced":6611,"Ġbatter":6612,"Ġsore":6613,"ĠMark":6614,"Ġunited":6615,"Ġpretend":6616,"Ġchap":6617,"ograp":6618,"Ġregion":6619,"Ġbuff":6620,"Ġtriump":6621,"Ġnecessarily":6622,"Although":6623,"Ġsmoking":6624,"Ġcalmly":6625,"Ġdiamonds":6626,"Ġbewild":6627,"People":6628,"Ġfarewell":6629,"Ġdoctr":6630,"Ġresponded":6631,"ĠCristo":6632,"iving":6633,"hester":6634,"Ġbust":6635,"Ġfires":6636,"Ġcock":6637,"Ġcities":6638,"Ġdaughters":6639,"Ġlosing":6640,"sters":6641,"Ġwearing":6642,"olate":6643,"Ġbrid":6644,"Ġusing":6645,"Ġflatter":6646,"Ġendure":6647,"Ġmarble":6648,"Ġbush":6649,"Ġexpecting":6650,"Ġshortly":6651,"Str":6652,"Ġgallery":6653,"Ġfloating":6654,"ributed":6655,"Ġrules":6656,"Ġphilosophy":6657,"Ġrecollect":6658,"Ġfetch":6659,"Ġapplied":6660,"Ġdetective":6661,"Finally":6662,"Out":6663,"uish":6664,"lla":6665,"Ġheels":6666,"anqu":6667,"lean":6668,"peak":6669,"osc":6670,"ĠTO":6671,"apole":6672,"Ġreasonable":6673,"Ġstrangely":6674,"Ġincreasing":6675,"Ġmessenger":6676,"Ġmurderer":6677,"Ġvolume":6678,"Ġrepresented":6679,"Ġintervals":6680,"Ġdisgrace":6681,"Ġcritic":6682,"Ġpistol":6683,"Ġfacing":6684,"inger":6685,"Ġlament":6686,"Ġnations":6687,"Ġroses":6688,"Ġroused":6689,"Ġkings":6690,"Ġdeed":6691,"Ġshield":6692,"emy":6693,"ĠBuck":6694,"ĠTristram":6695,"inkle":6696,"Ġclerk":6697,"ĠWall":6698,"Ġhandle":6699,"Ġpermit":6700,"ĠJones":6701,"Ġkeeps":6702,"ieth":6703,"Ġadmire":6704,"bridge":6705,"Ġestate":6706,"Ġclothing":6707,"Ġlabour":6708,"Ġchiefly":6709,"Ġconsequently":6710,"Ġweapon":6711,"Accord":6712,"oen":6713,"haw":6714,"Ġbat":6715,"eding":6716,"Ġfed":6717,"Ġcoo":6718,"Ġpool":6719,"Ġpains":6720,"Ġbeach":6721,"rait":6722,"Ġadvert":6723,"ĠJen":6724,"Ġpeasant":6725,"Think":6726,"ĠKen":6727,"Ġacting":6728,"Ġreluct":6729,"Ġdefend":6730,"Ġtemple":6731,"Ġdeclare":6732,"ugged":6733,"Ġchairs":6734,"ĠBaron":6735,"Ġstruggling":6736,"Ġrevolution":6737,"Ġmethods":6738,"Ġarticles":6739,"Ġowing":6740,"Ġnewspapers":6741,"Ġfolded":6742,"Ġpromptly":6743,"Ġexceedingly":6744,"Ġearlier":6745,"ĠFrancis":6746,"pherd":6747,"Ġwitch":6748,"Ġbone":6749,"Ġmast":6750,"isible":6751,"Ġdashed":6752,"ana":6753,"Ġwhirl":6754,"Ġherd":6755,"chio":6756,"Ġrolling":6757,"ĠNicholas":6758,"Ġdesir":6759,"Ġsecured":6760,"Ġchances":6761,"Ġrestored":6762,"Ġrealize":6763,"Ġelement":6764,"Ġconstruct":6765,"ĠEarth":6766,"aggie":6767,"Ġscientific":6768,"Ġdisagree":6769,"Ġtremendous":6770,"Listen":6771,"Me":6772,"mie":6773,"six":6774,"inery":6775,"Ġbatt":6776,"Ġmock":6777,"Ġdate":6778,"Ġhath":6779,"rov":6780,"ĠSy":6781,"Ġintimate":6782,"Ġability":6783,"Ġworry":6784,"Ġflow":6785,"Ġbegins":6786,"Ġdesires":6787,"Ġpreserved":6788,"Ġboil":6789,"Ġmarched":6790,"Ġembr":6791,"Ġpropose":6792,"Ġtempor":6793,"Ġmode":6794,"Ġhitherto":6795,"Ġhorizon":6796,"Captain":6797,"gest":6798,"ita":6799,"Ġdamp":6800,"Ġdanced":6801,"ĠCle":6802,"Ġchuck":6803,"actory":6804,"ictor":6805,"Ġguards":6806,"Ġinsp":6807,"Ġmetal":6808,"Ġgrounds":6809,"Ġeleg":6810,"uchess":6811,"ĠHenri":6812,"Ġnegro":6813,"Ġhospital":6814,"Ġmultitude":6815,"ĠFreder":6816,"Ġcondemned":6817,"Ġleisure":6818,"cause":6819,"uk":6820,"Ġaven":6821,"Ġfount":6822,"Ġeternal":6823,"ĠMat":6824,"Ġaltern":6825,"Ġnois":6826,"Ġcommission":6827,"Ġincon":6828,"Ġopposition":6829,"Ġillness":6830,"Ġencoun":6831,"Ġlucky":6832,"Ġapprehens":6833,"ocratic":6834,"Ġidle":6835,"Ġdisplay":6836,"ĠRussian":6837,"Ġetc":6838,"De":6839,"rels":6840,"itively":6841,"Ġcure":6842,"Ġpark":6843,"Ġinev":6844,"lyle":6845,"Ġthief":6846,"Ġruth":6847,"Ġrifle":6848,"ellow":6849,"osette":6850,"Ġoverw":6851,"ĠJap":6852,"Ġlonged":6853,"Ġcommenced":6854,"Ġemotions":6855,"Ġrepent":6856,"Ġexpense":6857,"ĠChief":6858,"pargo":6859,"Ġopinions":6860,"ological":6861,"ĠMonte":6862,"Ġadopted":6863,"Ġplunged":6864,"ĠShakespeare":6865,"ique":6866,"Ġtide":6867,"Ġapr":6868,"Ġsen":6869,"Ġcake":6870,"Ġhaz":6871,"Ġstates":6872,"acc":6873,"Ġwheels":6874,"Ġoutward":6875,"Ġlect":6876,"Ġroast":6877,"Ġdaylight":6878,"Ġblock":6879,"udent":6880,"Ġchase":6881,"Ġyoungest":6882,"Ġfolly":6883,"Stop":6884,"Ġroads":6885,"Ġconcent":6886,"Ġvisitors":6887,"Ġweapons":6888,"Ġobvious":6889,"inocchio":6890,"OT":6891,"Rem":6892,"mal":6893,"Ġtid":6894,"Ġsway":6895,"nds":6896,"Ġreject":6897,"ĠSar":6898,"osy":6899,"ĠLake":6900,"Ġbloom":6901,"Ġresour":6902,"Ġslain":6903,"Ġlasted":6904,"Ġboast":6905,"astern":6906,"Ġbeds":6907,"Ġcapacity":6908,"Ġcenter":6909,"Ġsensitive":6910,"Ġvessels":6911,"Ġdistinctly":6912,"Ġfeeble":6913,"Ġsovereign":6914,"Com":6915,"Great":6916,"Ġtore":6917,"oned":6918,"Ġlan":6919,"Ġnerves":6920,"Ġgifts":6921,"Ġsofa":6922,"ĠSol":6923,"ĠMonsieur":6924,"pled":6925,"ĠWinter":6926,"Ġappar":6927,"Ġstrain":6928,"Ġpresents":6929,"Ġsurre":6930,"oubted":6931,"Ġwarn":6932,"Ġquestioned":6933,"ĠBrandon":6934,"Ġlively":6935,"Ġdriver":6936,"Ġprovisions":6937,"ĠSpain":6938,"Ġremarks":6939,"Ġwishing":6940,"Ġcommunication":6941,"Ġuncomfort":6942,"ĠIreland":6943,"IL":6944,"Mother":6945,"Ġvers":6946,"Ġwip":6947,"Ġfaded":6948,"utor":6949,"ĠMed":6950,"ĠBible":6951,"Ġarrow":6952,"Ġshaped":6953,"ĠRev":6954,"ĠStr":6955,"Ġfalls":6956,"Ġraising":6957,"Ġcharacteristic":6958,"Ġsatisfy":6959,"ĠCarlyle":6960,"ĠEdith":6961,"Ġdepends":6962,"Ġreminded":6963,"ĠSaturday":6964,"Ġappetite":6965,"Suppose":6966,"UR":6967,"rim":6968,"Ġtoler":6969,"Ġdil":6970,"Ġlat":6971,"Ġdece":6972,"ĠSimon":6973,"ĠSusan":6974,"Ġvivid":6975,"Ġgover":6976,"igs":6977,"elie":6978,"ĠGood":6979,"ago":6980,"Ġencl":6981,"ĠRoyal":6982,"Ġtowns":6983,"Ġangrily":6984,"Ġveil":6985,"ĠItaly":6986,"Ġaccomplish":6987,"ĠPhoen":6988,"Ġautom":6989,"piration":6990,"Ġmajority":6991,"Ġwarriors":6992,"iated":6993,"Ġbath":6994,"Ġmant":6995,"Ġlav":6996,"Ġgasped":6997,"Ġyonder":6998,"ĠSouthern":6999,"ĠCast":7000,"Ġalt":7001,"Ġbrings":7002,"ĠTw":7003,"Ġpermission":7004,"oys":7005,"never":7006,"ĠNot":7007,"Ġconfined":7008,"Ġawakened":7009,"Ġlaying":7010,"Ġopposed":7011,"Ġdeadly":7012,"Ġseconds":7013,"Ġburnt":7014,"Ġobjection":7015,"Ġdreamed":7016,"Ġcharacters":7017,"Ġruined":7018,"Ġtrusted":7019,"Ġfortunate":7020,"Ġfeathers":7021,"Ġpronounced":7022,"Ġconsidering":7023,"apoleon":7024,"cular":7025,"Ġtin":7026,"Ġfog":7027,"Ġhed":7028,"asion":7029,"ari":7030,"Ġashes":7031,"roft":7032,"Ġdeceived":7033,"arts":7034,"Ġanyway":7035,"Ġmoreover":7036,"ĠWell":7037,"Ġchapter":7038,"Ġaccur":7039,"ivering":7040,"Ġelsewhere":7041,"oonful":7042,"Ġmasters":7043,"Isn":7044,"Ġcrossing":7045,"Ġsquire":7046,"ĠNorman":7047,"Ġtenderness":7048,"ĠGrey":7049,"Ġmurmur":7050,"Ġconstitution":7051,"AC":7052,"Ed":7053,"aire":7054,"cer":7055,"Ġtomb":7056,"ico":7057,"see":7058,"amation":7059,"ilight":7060,"ĠAthos":7061,"ĠBy":7062,"Ġgracious":7063,"Ġdownstairs":7064,"Ġpeas":7065,"Ġcontented":7066,"Instead":7067,"Ġtreacher":7068,"ĠMarch":7069,"Ġgladly":7070,"Ġarrive":7071,"Ġexists":7072,"Ġcomplaint":7073,"Ġmillions":7074,"Ġprepare":7075,"Ġrubbed":7076,"Ġliterature":7077,"Ġholes":7078,"Ġhunter":7079,"ĠScotland":7080,"ĠRichmond":7081,"IG":7082,"cest":7083,"gs":7084,"ien":7085,"lars":7086,"uary":7087,"inn":7088,"Ġbars":7089,"Ġdu":7090,"vet":7091,"Ġrele":7092,"ĠSen":7093,"ĠCap":7094,"Ġamused":7095,"ĠDar":7096,"Ġenl":7097,"ĠRom":7098,"ĠRachel":7099,"ooks":7100,"Ġlofty":7101,"Ġmarvel":7102,"Ġconflict":7103,"Ġmoist":7104,"ĠMarguerite":7105,"Ġlessons":7106,"Ġdepos":7107,"Ġacquired":7108,"Ġcotton":7109,"Ġpillow":7110,"Ġshells":7111,"Ġresistance":7112,"Moreover":7113,"True":7114,"Ġbreeze":7115,"ĠStephen":7116,"Ġashore":7117,"Men":7118,"back":7119,"Ġsink":7120,"Ġfishing":7121,"only":7122,"Ġgor":7123,"ctions":7124,"Ġupright":7125,"ĠMitya":7126,"ĠDutch":7127,"Ġroots":7128,"Ġperman":7129,"Through":7130,"anks":7131,"Ġcharity":7132,"Ġdetail":7133,"Ġirres":7134,"Ġregarding":7135,"Ġhatred":7136,"Ġpunished":7137,"Ġloudly":7138,"Ġpopulation":7139,"Ġstroke":7140,"ĠCountess":7141,"Ġdwelling":7142,"oiselle":7143,"Ġteleph":7144,"ĠCatholic":7145,"Ġfootsteps":7146,"Has":7147,"Whether":7148,"oner":7149,"Ġpatch":7150,"Ġsear":7151,"Ġexternal":7152,"Ġaged":7153,"Ġbrisk":7154,"ĠLand":7155,"ĠOh":7156,"Ġproposition":7157,"Ġperfection":7158,"ĠIndia":7159,"Ġrecognize":7160,"Ġprocession":7161,"Ġpreparations":7162,"encies":7163,"ĠJapan":7164,"vest":7165,"Ġtomor":7166,"Ġdiver":7167,"Ġpile":7168,"Ġpacked":7169,"Ġgoss":7170,"Ġult":7171,"usive":7172,"Ġcomment":7173,"Ġcannon":7174,"Ġunjust":7175,"ĠLove":7176,"abled":7177,"Ġcontain":7178,"angle":7179,"Ġrecent":7180,"Ġsunlight":7181,"Which":7182,"Ġappropri":7183,"Ġsummit":7184,"Ġprayers":7185,"Ġmarks":7186,"withstanding":7187,"Ġrobber":7188,"Ġdimin":7189,"Ġavoided":7190,"Ġeldest":7191,"Ġblew":7192,"Ġrevealed":7193,"Ġmixture":7194,"Ġabsorbed":7195,"Ġtomorrow":7196,"Keep":7197,"Make":7198,"Ġtun":7199,"Ġmonsieur":7200,"Ġpine":7201,"Ġpush":7202,"idents":7203,"Ġweep":7204,"ĠST":7205,"ĠSan":7206,"ĠCong":7207,"ĠHoll":7208,"Ġgrows":7209,"Ġdeserve":7210,"angled":7211,"Ġpriests":7212,"Ġbarn":7213,"Ġstudied":7214,"Ġmodest":7215,"Ġsolitary":7216,"Ġsticks":7217,"Ġmurdered":7218,"Ġstreams":7219,"Ġformerly":7220,"Ġfaintly":7221,"Ġfavourite":7222,"Ġmachinery":7223,"Ġromantic":7224,"Ġpersuaded":7225,"ĠFairy":7226,"Ġadminist":7227,"Ġoverwhel":7228,"bably":7229,"from":7230,"vol":7231,"rec":7232,"Ġcents":7233,"Ġtops":7234,"orld":7235,"orter":7236,"Ġpitch":7237,"icted":7238,"ada":7239,"ands":7240,"ĠCoun":7241,"osa":7242,"ptember":7243,"Ġtimid":7244,"ĠLong":7245,"ĠEn":7246,"ĠEr":7247,"ĠJer":7248,"Ġremote":7249,"Ġscenes":7250,"ints":7251,"Ġcrou":7252,"Ġreported":7253,"Ġhelping":7254,"Ġfinest":7255,"Ġeasier":7256,"Ġschools":7257,"Ġcream":7258,"Ġscarce":7259,"Ġexamine":7260,"ĠConf":7261,"Ġhistor":7262,"Ġphysician":7263,"Ġprevented":7264,"Ġdebt":7265,"Ġdisgust":7266,"Ġinstruments":7267,"Ġcrimson":7268,"Ġbalance":7269,"Ġindustry":7270,"Ġcopy":7271,"Ġingen":7272,"Ġridiculous":7273,"Fr":7274,"Pray":7275,"Ġfrown":7276,"rigg":7277,"ĠMus":7278,"ĠMel":7279,"ĠCam":7280,"emoiselle":7281,"Ġunlike":7282,"Ġclut":7283,"ĠDant":7284,"ĠHoly":7285,"Ġscold":7286,"Ġcontact":7287,"Ġcontaining":7288,"Ġwanting":7289,"Ġsunk":7290,"Ġschol":7291,"Ġmerit":7292,"Ġrequires":7293,"racted":7294,"Ġexisted":7295,"Ġgardens":7296,"ĠEnglishman":7297,"Ġsailors":7298,"Ġissue":7299,"Ġmourn":7300,"Ġglimpse":7301,"Ġintentions":7302,"Ġstaircase":7303,"Ġtossed":7304,"Ġbundle":7305,"ID":7306,"uine":7307,"inous":7308,"inations":7309,"Ġowe":7310,"Ġdaring":7311,"ashes":7312,"Ġhay":7313,"Ġstag":7314,"Ġstolen":7315,"ulating":7316,"ĠCart":7317,"rag":7318,"Ġtrif":7319,"ĠTem":7320,"ĠJust":7321,"Ġlonging":7322,"Ġglow":7323,"Ġmaybe":7324,"Ġwrath":7325,"Ġharder":7326,"Ġlanding":7327,"Ġdoubtful":7328,"Ġbargain":7329,"Ġcryst":7330,"Ġprayed":7331,"Ġdetermination":7332,"Ġinclination":7333,"Ġavail":7334,"ĠJohnny":7335,"Ġpositive":7336,"Ġindignation":7337,"Ġcomprehe":7338,"oubtedly":7339,"lance":7340,"lock":7341,"wing":7342,"rer":7343,"Ġfain":7344,"Ġcards":7345,"iche":7346,"Ġthither":7347,"Ġreceiving":7348,"ifting":7349,"alla":7350,"geance":7351,"Ġtwilight":7352,"Ġarise":7353,"Ġunion":7354,"Ġclergy":7355,"ĠFar":7356,"ĠRep":7357,"Ġpepper":7358,"Ġparting":7359,"Ġscru":7360,"oby":7361,"Ġinspect":7362,"Ġeloqu":7363,"Ġinvisible":7364,"Ġfurious":7365,"ĠBlue":7366,"Ġenjoyment":7367,"orthos":7368,"ĠJohnson":7369,"Ġcurtains":7370,"Ġjealousy":7371,"Ġrisen":7372,"ĠVirginia":7373,"ĠGolden":7374,"Ġoath":7375,"Ġfest":7376,"Ġped":7377,"Ġnon":7378,"Ġsober":7379,"Ġbrush":7380,"Ġtrained":7381,"ĠEve":7382,"cca":7383,"ĠFox":7384,"Ġapples":7385,"ĠJud":7386,"Ġloaded":7387,"Ġchildhood":7388,"Ġmarve":7389,"rett":7390,"Ġmonarch":7391,"Ġadvised":7392,"Ġexamination":7393,"Ġpractically":7394,"Ġneighbors":7395,"peter":7396,"Ġmotor":7397,"ĠGermany":7398,"Ġgreeted":7399,"AY":7400,"En":7401,"ino":7402,"era":7403,"Ġmale":7404,"itudes":7405,"Ġnav":7406,"idd":7407,"Ġconception":7408,"usions":7409,"ushes":7410,"Ġroot":7411,"resses":7412,"Ġperf":7413,"ĠJune":7414,"Ġglit":7415,"Ġletting":7416,"anglars":7417,"Ġbelt":7418,"Ġsupported":7419,"Ġminded":7420,"Ġresting":7421,"Ġexposed":7422,"Ġcorrid":7423,"Ġpurse":7424,"Ġeighth":7425,"Ġdecent":7426,"Ġtorture":7427,"Ġgallant":7428,"Ġrejoined":7429,"Ġimpatience":7430,"Ġimpatient":7431,"Ġphilosopher":7432,"Ġinterpret":7433,"Ġhospit":7434,"Ġindependent":7435,"quisite":7436,"Ġlinen":7437,"Ġhalted":7438,"Down":7439,"elf":7440,"Ġtub":7441,"Ġdumb":7442,"Ġgoose":7443,"etch":7444,"olk":7445,"Ġgoat":7446,"ĠTH":7447,"Ġpartner":7448,"Ġresign":7449,"Ġchanging":7450,"Ġcharged":7451,"Ġtreas":7452,"Ġcollected":7453,"Ġcease":7454,"Ġplanet":7455,"Ġbelonging":7456,"Ġlimited":7457,"Ġlimbs":7458,"Ġmasses":7459,"Ġgarments":7460,"Ġimpatiently":7461,"Ġjewels":7462,"Ġinstructions":7463,"Ġarrested":7464,"Ġtriumphant":7465,"Ġdisagreeable":7466,"Ġencounter":7467,"iation":7468,"Ġ--":7469,"Ġtie":7470,"erity":7471,"Ġbind":7472,"Ġhell":7473,"Ġnaught":7474,"Ġbeef":7475,"sect":7476,"Ġrushing":7477,"Ġrival":7478,"Ġseas":7479,"rious":7480,"Ġplot":7481,"Ġspin":7482,"Ġbrains":7483,"Ġtranqu":7484,"Ġscale":7485,"Ġload":7486,"Ġhappily":7487,"Ġsurv":7488,"Ġinterior":7489,"Ġstandard":7490,"Ġdecor":7491,"Ġsigned":7492,"Ġartist":7493,"Ġfrightful":7494,"Ġhoping":7495,"Ġfuneral":7496,"Ġpunish":7497,"Ġcouncil":7498,"Ġscreamed":7499,"Ġaccompany":7500,"Ġcivilization":7501,"Ġcurtain":7502,"Ġamusement":7503,"Ġacknowledged":7504,"rot":7505,"rows":7506,"Ġink":7507,"Ġhaired":7508,"idable":7509,"Ġdeaf":7510,"ulgar":7511,"Ġupward":7512,"Ġaroused":7513,"Ġroar":7514,"Ġpeep":7515,"Ġglo":7516,"Ġglac":7517,"Ġindicated":7518,"Ġdrowned":7519,"Ġassume":7520,"ibilities":7521,"Ġterribly":7522,"Ġtravelling":7523,"Ġmissing":7524,"Ġpolitics":7525,"Ġcatching":7526,"Ġpressing":7527,"Ġadventures":7528,"Ġgraceful":7529,"Ġhideous":7530,"Ġlandlord":7531,"Ġphrase":7532,"aves":7533,"his":7534,"nces":7535,"Ġtales":7536,"Ġdivers":7537,"omon":7538,"Ġwasted":7539,"ste":7540,"eter":7541,"Ġwhip":7542,"Ġnephe":7543,"Ġexquisite":7544,"ĠSal":7545,"ĠBishop":7546,"Ġju":7547,"Ġbrute":7548,"Ġclam":7549,"ĠHy":7550,"Ġmustn":7551,"Ġstruct":7552,"Ġslope":7553,"ĠKnight":7554,"Ġlovers":7555,"Ġsecurity":7556,"Ġdram":7557,"thew":7558,"Ġhumor":7559,"Ġhopeless":7560,"Ġsnake":7561,"ĠBrother":7562,"Ġladder":7563,"Ġfortnight":7564,"Ġstaying":7565,"Ġannounce":7566,"Ġforests":7567,"Ġlifting":7568,"Ġgenuine":7569,"Ġprecaut":7570,"Ġessence":7571,"Ġaddressing":7572,"Ġornament":7573,"Ġrevenge":7574,"Ġcelebrated":7575,"Ġnephew":7576,"NE":7577,"Ġast":7578,"Ġsed":7579,"Ġward":7580,"Ġwreck":7581,"orable":7582,"Ġloyal":7583,"Ġnet":7584,"Ġsale":7585,"Ġaltered":7586,"ĠBo":7587,"Ġdisple":7588,"Ġremove":7589,"Ġrefuge":7590,"ĠAmericans":7591,"Ġhesitation":7592,"Ġsearching":7593,"Ġhurriedly":7594,"hetic":7595,"Ġdishon":7596,"Ġrescue":7597,"Hen":7598,"SON":7599,"foot":7600,"Ġcaval":7601,"Ġtools":7602,"Ġded":7603,"Ġrasc":7604,"ĠBess":7605,"ĠHarr":7606,"ĠNan":7607,"Ġresent":7608,"Ġimpressed":7609,"ĠVictor":7610,"Ġchecked":7611,"Ġtribe":7612,"Ġprofit":7613,"Ġstruggled":7614,"Ġconducted":7615,"Ġpotat":7616,"Ġbehav":7617,"Ġfloated":7618,"Ġpositively":7619,"Ġuncomfortable":7620,"Im":7621,"Jim":7622,"Pl":7623,"gen":7624,"pen":7625,"uously":7626,"Ġmail":7627,"itan":7628,"Ġfaster":7629,"Ġheir":7630,"icable":7631,"Ġrese":7632,"urst":7633,"alls":7634,"ĠMaggie":7635,"ĠBay":7636,"Ġtrump":7637,"Ġtraining":7638,"ĠRa":7639,"ĠNancy":7640,"Ġglob":7641,"Ġpasses":7642,"enses":7643,"Ġwarned":7644,"Ġelements":7645,"Ġdefence":7646,"Ġrivers":7647,"grat":7648,"Ġresolute":7649,"Ġplanned":7650,"Ġbells":7651,"Ġcaptured":7652,"Ġstores":7653,"Should":7654,"Ġerror":7655,"Ġneighborhood":7656,"Ġexchange":7657,"Ġaverage":7658,"Ġsearched":7659,"US":7660,"crow":7661,"ober":7662,"onse":7663,"Ġdense":7664,"Ġpages":7665,"asy":7666,"Ġrav":7667,"Ġsauce":7668,"Ġshepherd":7669,"Ġdeem":7670,"Ġcongrat":7671,"ĠColl":7672,"Ġlikes":7673,"umps":7674,"Ġanyhow":7675,"ĠHol":7676,"achment":7677,"Whatever":7678,"ensity":7679,"Ġwax":7680,"Ġrelative":7681,"Ġkeeper":7682,"Ġmeanwhile":7683,"ucked":7684,"Ġbreathed":7685,"Ġsatisfactory":7686,"Ġpaying":7687,"Ġprotested":7688,"cella":7689,"ĠWho":7690,"Ġdenied":7691,"Ġpreferred":7692,"Ġporter":7693,"Ġinjured":7694,"Ġuncommon":7695,"Ġmedicine":7696,"din":7697,"fe":7698,"wyn":7699,"Ġwives":7700,"itute":7701,"itution":7702,"Ġdug":7703,"Ġlaz":7704,"Ġinward":7705,"Ġere":7706,"irts":7707,"ills":7708,"rib":7709,"ĠSaint":7710,"ĠMex":7711,"ĠPick":7712,"Ġclasped":7713,"Ġadjust":7714,"Ġcounted":7715,"Ġrestless":7716,"Ġmob":7717,"Ġsunset":7718,"Ġbarbar":7719,"Ġlegal":7720,"Ġapolog":7721,"Ġinquire":7722,"Ġseventh":7723,"Ġcompliment":7724,"Ġcampa":7725,"Ġlimit":7726,"Ġauthorities":7727,"ĠBarb":7728,"ancho":7729,"iscilla":7730,"Ġspectacle":7731,"Ġobservations":7732,"Ġlawn":7733,"Ġmeasures":7734,"Ġfatigue":7735,"spector":7736,"ĠPhoenix":7737,"Ġtig":7738,"itory":7739,"Ġdangers":7740,"anim":7741,"Ġasc":7742,"Ġfrost":7743,"ĠMe":7744,"ĠBer":7745,"Ġbrook":7746,"ĠLuc":7747,"Ġclung":7748,"Ġdishes":7749,"Ġenqu":7750,"Ġblown":7751,"Ġscra":7752,"Ġpassions":7753,"reton":7754,"ĠMarius":7755,"Ġsixth":7756,"cribed":7757,"Ġcentral":7758,"Ġpenny":7759,"Ġdemands":7760,"ĠProv":7761,"Ġconquer":7762,"Ġcriminal":7763,"Ġcellar":7764,"Ġmaintained":7765,"ĠDunbar":7766,"Ġprivilege":7767,"Ġlantern":7768,"inence":7769,"Ġfow":7770,"Ġecc":7771,"ĠIS":7772,"Ġstim":7773,"Ġstooped":7774,"adel":7775,"ĠCosette":7776,"Ġbron":7777,"Ġchallen":7778,"berry":7779,"Ġfollowers":7780,"Ġdropping":7781,"Ġadmired":7782,"Ġengage":7783,"Ġwarmth":7784,"Ġconfession":7785,"Ġcheerfully":7786,"Ġcovering":7787,"Ġintroduce":7788,"Ġempire":7789,"ĠAtl":7790,"Ġindifference":7791,"Ġwithdrew":7792,"Ġrigid":7793,"\";":7794,"iency":7795,"ki":7796,"zing":7797,"Ġgig":7798,"Ġstret":7799,"ura":7800,"Ġancest":7801,"Ġsailing":7802,"Ġbutton":7803,"ulars":7804,"arecrow":7805,"Ġhasn":7806,"Ġoffering":7807,"Ġpoem":7808,"Ġaccess":7809,"forth":7810,"Ġsubmit":7811,"Ġcorners":7812,"Ġpolic":7813,"Ġillum":7814,"Ġaccounts":7815,"Ġtransl":7816,"Ġmadam":7817,"Ġprofessor":7818,"Ġsuitable":7819,"ĠSea":7820,"Ġentertained":7821,"Ġvigor":7822,"Ġrecollection":7823,"Ġinvolunt":7824,"Ġlandsc":7825,"Ġrecommend":7826,"Ġswallowed":7827,"Ġvengeance":7828,"Ġsummoned":7829,"ILL":7830,"ji":7831,"port":7832,"wart":7833,"Ġinher":7834,"aning":7835,"Ġthresh":7836,"Ġsho":7837,"geon":7838,"ĠMac":7839,"ĠCross":7840,"ĠCorn":7841,"Ġlip":7842,"pton":7843,"ĠNow":7844,"Ġglowing":7845,"Ġbeggar":7846,"everal":7847,"Ġpreserve":7848,"Ġboot":7849,"Ġcorpse":7850,"Ġinfer":7851,"Ġdevotion":7852,"Ġparl":7853,"Ġtemp":7854,"Ġwilder":7855,"Ġtorrent":7856,"Ġcomplain":7857,"Ġmedical":7858,"Ġkilling":7859,"uddy":7860,"Ġundertake":7861,"Ġsolemnly":7862,"ĠAnnie":7863,"Ġangels":7864,"Ġengineer":7865,"Ġneglected":7866,"leanor":7867,"OD":7868,"VER":7869,"hire":7870,"Ġwretch":7871,"Ġmouse":7872,"ingale":7873,"Ġbending":7874,"lets":7875,"Ġratt":7876,"Ġanaly":7877,"Ġpole":7878,"Ġchamp":7879,"Ġconsented":7880,"Ġattain":7881,"auty":7882,"Ġguilt":7883,"Ġinsol":7884,"Ġruns":7885,"Ġholds":7886,"Ġproposal":7887,"Ġcenturies":7888,"Ġmadame":7889,"ĠScott":7890,"Ġoccupation":7891,"Ġtyr":7892,"Ġemployment":7893,"Ġrarely":7894,"ĠWilson":7895,"Ġthreshold":7896,"da":7897,"rane":7898,"Ġmate":7899,"Ġdusk":7900,"arly":7901,"ims":7902,"irmed":7903,"ctober":7904,"ula":7905,"geant":7906,"Ġjar":7907,"Ġtramp":7908,"Ġoffence":7909,"ilet":7910,"Ġthoughtful":7911,"Ġcris":7912,"Ġassurance":7913,"Ġcertainty":7914,"Ġcuriously":7915,"Ġnormal":7916,"nedy":7917,"Ġneedn":7918,"Ġoccasional":7919,"Ġsolitude":7920,"Ġdelicious":7921,"Ġeducated":7922,"Ġdomin":7923,"Ġgroups":7924,"Ġrailroad":7925,"Ġcoffin":7926,"Ġyielded":7927,"Ġtemptation":7928,"Ġissued":7929,"Ġcautiously":7930,"ĠAlexand":7931,"Ġassembled":7932,"uncelot":7933,"ĠJacob":7934,"Ġtheatre":7935,"ĠAfrica":7936,"bot":7937,"hea":7938,"Ġwages":7939,"Ġbred":7940,"Ġseal":7941,"aments":7942,"Ġkick":7943,"ĠMur":7944,"Ġaren":7945,"Ġjolly":7946,"oston":7947,"Ġbrick":7948,"Ġtracks":7949,"Ġarist":7950,"Ġimages":7951,"Ġchur":7952,"ĠWhere":7953,"Ġblows":7954,"abb":7955,"Ġthrong":7956,"Ġbackward":7957,"Ġresidence":7958,"Ġboiled":7959,"ceptible":7960,"Ġcorrupt":7961,"Ġexpectation":7962,"Ġmusical":7963,"Everybody":7964,"Ġtenderly":7965,"Ġpassionate":7966,"ĠAllan":7967,"Ġinnocence":7968,"Ġimprison":7969,"Ġdazz":7970,"Ġcampaign":7971,"CT":7972,"Much":7973,"Were":7974,"bby":7975,"rical":7976,"uity":7977,"Ġmould":7978,"Ġmoss":7979,"Ġcir":7980,"Ġhaught":7981,"Ġstove":7982,"acco":7983,"Ġsul":7984,"Ġsolic":7985,"inder":7986,"ĠBra":7987,"unken":7988,"Ġagitation":7989,"odor":7990,"agle":7991,"ĠLev":7992,"ĠDam":7993,"Ġblowing":7994,"ĠFrog":7995,"Ġowned":7996,"Ġindic":7997,"ĠKit":7998,"Ġsurvey":7999,"Ġcares":8000,"Ġelbow":8001,"Ġnorthern":8002,"Ġcolors":8003,"mbre":8004,"Ġsnapped":8005,"Ġprett":8006,"Ġsumm":8007,"Ġpalm":8008,"Ġsecrets":8009,"Ġtort":8010,"Ġdollar":8011,"Ġportrait":8012,"Ġviolently":8013,"EST":8014,"Ġtemperature":8015,"Ġdistinguish":8016,"Ġbills":8017,"ĠLauncelot":8018,"Ġpurchase":8019,"Ġnarrative":8020,"Ġinterfere":8021,"Ġcomplexion":8022,"Ġperplex":8023,"Ġgossip":8024,"bable":8025,"two":8026,"âĢ":8027,"hem":8028,"Ġfanc":8029,"Ġcush":8030,"Ġpour":8031,"Ġhalt":8032,"Ġreception":8033,"ores":8034,"ules":8035,"andal":8036,"inda":8037,"Ġalight":8038,"emo":8039,"Ġjury":8040,"Ġbrood":8041,"agues":8042,"ĠTar":8043,"ĠDem":8044,"Ġdisd":8045,"ĠRog":8046,"Ġflames":8047,"Ġoffended":8048,"ĠNapoleon":8049,"Ġcrushed":8050,"Ġhorrid":8051,"Ġincom":8052,"Ġspeaks":8053,"Ġadvancing":8054,"Ġpolicy":8055,"Ġwalks":8056,"stralla":8057,"Ġdolls":8058,"Ġboxes":8059,"ĠInspector":8060,"ĠEmily":8061,"Ġringing":8062,"Ġhealthy":8063,"Ġrailway":8064,"Ġcardinal":8065,"Ġjewel":8066,"Ġmoderate":8067,"Ġenterprise":8068,"âĢĶ":8069,"Several":8070,"will":8071,"Ġbrig":8072,"Ġpuff":8073,"Ġeh":8074,"sell":8075,"Ġdoc":8076,"eman":8077,"ositions":8078,"Ġaboard":8079,"ĠLily":8080,"onday":8081,"ĠRock":8082,"ĠJos":8083,"ĠJasper":8084,"Ġhousekeeper":8085,"Ġanswering":8086,"Ġrepose":8087,"Ġminor":8088,"Ġcavern":8089,"Ġforming":8090,"Ġformidable":8091,"velope":8092,"Ġexplos":8093,"Ġclearing":8094,"Ġpatron":8095,"Ġrespects":8096,"Ġjudges":8097,"Ġpencil":8098,"Ġceiling":8099,"Ġattempts":8100,"Ġresponse":8101,"Ġspeedily":8102,"Ġsongs":8103,"Ġwelcom":8104,"Ġimperfect":8105,"Ġspectacles":8106,"Ġliterary":8107,"Really":8108,"Ġfortunes":8109,"Ġexperiences":8110,"ĠSpani":8111,"Ġerrand":8112,"natural":8113,"Ġconvenient":8114,"Ġachieve":8115,"Car":8116,"Jack":8117,"chard":8118,"gn":8119,"hic":8120,"Ġtum":8121,"Ġsom":8122,"Ġwoke":8123,"llo":8124,"Ġlust":8125,"utter":8126,"seen":8127,"Ġrings":8128,"Ġseats":8129,"Ġdeer":8130,"ria":8131,"rial":8132,"Ġmans":8133,"Ġintently":8134,"ĠBoston":8135,"Ġbrut":8136,"Ġtrifle":8137,"Ġshaken":8138,"ĠWolf":8139,"ĠFanny":8140,"irect":8141,"Ġprel":8142,"Ġglancing":8143,"Ġboiling":8144,"Ġpersisted":8145,"force":8146,"ruce":8147,"Ġhumili":8148,"Ġawaken":8149,"Ġdoubts":8150,"HAT":8151,"ovna":8152,"Ġstudent":8153,"Ġconvict":8154,"ĠEdison":8155,"Ġdreadfully":8156,"Ġconfessed":8157,"Ġstirring":8158,"asping":8159,"Ġbullet":8160,"Ġdismay":8161,"Ġdisplayed":8162,"Ġenvy":8163,"Ġacknowledge":8164,"ĠNatasha":8165,"Ġcompassion":8166,"ĠSilver":8167,"ĠDrake":8168,"Ġpublished":8169,"Ġdismissed":8170,"oscow":8171,"IM":8172,"bl":8173,"fold":8174,"somet":8175,"uz":8176,"ndy":8177,"Ġbonn":8178,"Ġpatter":8179,"ester":8180,"omer":8181,"irk":8182,"Ġruff":8183,"Ġnotwithstanding":8184,"Ġsullen":8185,"Ġwheat":8186,"unny":8187,"uming":8188,"ĠTre":8189,"ĠDes":8190,"ĠWind":8191,"Thou":8192,"ĠKent":8193,"Ġretire":8194,"Ġpleaded":8195,"Ġarmies":8196,"Ġdiscour":8197,"pring":8198,"Ġgeneration":8199,"because":8200,"Ġlearnt":8201,"ĠFranz":8202,"Ġparliament":8203,"Ġbreathe":8204,"cules":8205,"Ġsecretly":8206,"ĠScarecrow":8207,"Ġforgetting":8208,"Ġthankful":8209,"Ġmutual":8210,"Ġspecim":8211,"Ġkeys":8212,"Ġaffectionate":8213,"Ġcruelty":8214,"Ġappointment":8215,"Ġperformance":8216,"Ġeconomic":8217,"ĠGilbert":8218,"Ġmeadow":8219,"Ġdiscipl":8220,"Ġsympt":8221,"Ġmagistrate":8222,"Ġparlour":8223,"Half":8224,"Sp":8225,"ias":8226,"wl":8227,"iser":8228,"Ġfame":8229,"Ġtoil":8230,"Ġlace":8231,"Ġreign":8232,"Ġragged":8233,"ieutenant":8234,"ĠSec":8235,"Ġvulgar":8236,"Ġwillingly":8237,"Ġjun":8238,"ĠPo":8239,"Ġpled":8240,"Ġyourselves":8241,"Ġtrim":8242,"ĠToby":8243,"Ġclay":8244,"Ġdislike":8245,"Ġenvelope":8246,"abor":8247,"Ġjustified":8248,"Ġdescent":8249,"Ġmostly":8250,"Ġchildish":8251,"Ġspeaker":8252,"Ġstartling":8253,"Ġremembr":8254,"Ġreasoning":8255,"Ġpropriet":8256,"Ġconcert":8257,"Ġscarlet":8258,"gram":8259,"Ġsweetness":8260,"Ġcolours":8261,"ĠLeon":8262,"Ġbehalf":8263,"Ġscrut":8264,"Ġtightly":8265,"Ġsternly":8266,"Ġmaintain":8267,"Ġsupplies":8268,"ĠVenus":8269,"Ġtelephone":8270,"ĠHolland":8271,"Ev":8272,"Nat":8273,"eous":8274,"fly":8275,"pass":8276,"your":8277,"yodor":8278,"inating":8279,"Ġsack":8280,"Ġoven":8281,"Ġtob":8282,"gered":8283,"ĠSpargo":8284,"ĠPinocchio":8285,"hings":8286,"Ġspots":8287,"ĠDanglars":8288,"Ġflock":8289,"Ġflowing":8290,"Ġscor":8291,"Ġconsists":8292,"Ġpresident":8293,"Ġhumour":8294,"ĠProt":8295,"Ġartific":8296,"Ġlads":8297,"Ġsensations":8298,"Ġcreep":8299,"ĠAlbert":8300,"Ġenjoying":8301,"Ġlimits":8302,"Ġgrove":8303,"Ġbowl":8304,"Ġpreparation":8305,"ĠLouise":8306,"ĠFlora":8307,"Ġechoed":8308,"Ġdisguise":8309,"Ġvelvet":8310,"ĠCongress":8311,"Int":8312,"gre":8313,"iate":8314,"jac":8315,"sp":8316,"uated":8317,"vag":8318,"Ġtour":8319,"Ġske":8320,"Ġwha":8321,"itect":8322,"Ġpall":8323,"aration":8324,"Ġbears":8325,"Ġray":8326,"Ġrational":8327,"amis":8328,"Ġconceived":8329,"ĠSav":8330,"Ġinte":8331,"ĠPorthos":8332,"Ġbrandy":8333,"Ġtrous":8334,"Ġamiable":8335,"Ġclosing":8336,"Ġpert":8337,"Ġpersec":8338,"Ġinduce":8339,"Ġimpuls":8340,"Ġconsisted":8341,"Ġcounty":8342,"Ġrecon":8343,"Ġregards":8344,"Ġpleasures":8345,"ĠHere":8346,"ĠThese":8347,"Ġlargely":8348,"Ġleads":8349,"Ġtraged":8350,"Ġmedium":8351,"Ġballs":8352,"Ġpoliteness":8353,"Ġadvantages":8354,"Ġscream":8355,"Ġplanted":8356,"offin":8357,"Ġgleam":8358,"Ġhypnot":8359,"Ġtotal":8360,"Ġsimplicity":8361,"ĠSolomon":8362,"Ġgorge":8363,"Ġstructure":8364,"Ġcrisis":8365,"GE":8366,"Long":8367,"every":8368,"hast":8369,"Ġdict":8370,"anite":8371,"atus":8372,"othes":8373,"Ġthumb":8374,"adle":8375,"Ġsaving":8376,"Ġdeeds":8377,"Ġconject":8378,"ustace":8379,"ĠSm":8380,"ĠMoscow":8381,"ĠCent":8382,"rav":8383,"Ġcanv":8384,"Ġbrass":8385,"ĠRod":8386,"ressing":8387,"aping":8388,"ĠJan":8389,"Ġprem":8390,"pson":8391,"Ġseeming":8392,"Ġrestore":8393,"Ġsteward":8394,"Ġplays":8395,"Ġprinces":8396,"Ġraft":8397,"Ġlegisl":8398,"Ġdestiny":8399,"Ġcommander":8400,"Also":8401,"Ġarrows":8402,"Ġpeaceful":8403,"Ġoccupy":8404,"Ġimmort":8405,"Ġvolcan":8406,"Ġextravag":8407,"Ġpreviously":8408,"Ġpicking":8409,"burgh":8410,"Ġterrified":8411,"Ġboldly":8412,"regular":8413,"Ġencouraged":8414,"Ġswimming":8415,"Ġresponsible":8416,"Ġrabbit":8417,"Ġanchor":8418,"Remember":8419,"ĠSarah":8420,"Ġascertain":8421,"Ġlandscape":8422,"Five":8423,"Fort":8424,"Over":8425,"iour":8426,"nic":8427,"ping":8428,"Ġwol":8429,"have":8430,"Ġmathe":8431,"Ġlots":8432,"arin":8433,"omb":8434,"imer":8435,"ĠIvan":8436,"Ġrein":8437,"Ġrevel":8438,"allel":8439,"Ġupset":8440,"ĠAsh":8441,"Ġprosec":8442,"Ġspur":8443,"Ġtwisted":8444,"opl":8445,"Ġgrain":8446,"ĠEv":8447,"Ġnowhere":8448,"Ġthence":8449,"ĠWater":8450,"mended":8451,"Ġconspic":8452,"Ġanswers":8453,"Ġhorn":8454,"Ġcareless":8455,"ibri":8456,"Ġtremble":8457,"Ġinterc":8458,"Ġsecretary":8459,"Ġsuccession":8460,"Ġcrest":8461,"Being":8462,"Ġflee":8463,"Ġdecidedly":8464,"Ġblessing":8465,"Ġcombat":8466,"Ġcombined":8467,"Ġslavery":8468,"Ġlodging":8469,"Ġpersuade":8470,"Ġconquered":8471,"Ġfrankly":8472,"Ġsupplied":8473,"Ġinstitutions":8474,"Ġforbidden":8475,"Ġemphasis":8476,"Ġchurches":8477,"even":8478,"mouth":8479,"ogg":8480,"wr":8481,"Ġbite":8482,"Ġdarted":8483,"lder":8484,"alo":8485,"Ġwhither":8486,"urable":8487,"ieves":8488,"Ġquart":8489,"Ġagents":8490,"Ġagitated":8491,"Ġambit":8492,"urned":8493,"ĠHard":8494,"Ġdisorder":8495,"ounted":8496,"ĠKe":8497,"Ġfoundation":8498,"Ġattained":8499,"Ġfathers":8500,"ugs":8501,"Ġbigger":8502,"Ġdreaming":8503,"Ġbrightly":8504,"ĠCloud":8505,"Ġdispute":8506,"Ġsuperst":8507,"Ġcrazy":8508,"Ġundoubtedly":8509,"ĠParliament":8510,"Ġmaterials":8511,"Ġindividuals":8512,"ribution":8513,"Ġteleg":8514,"Ġasserted":8515,"Ġderived":8516,"ĠFrederick":8517,"CH":8518,"yard":8519,"Ġwits":8520,"Ġber":8521,"Ġbother":8522,"Ġcows":8523,"inge":8524,"Ġpushing":8525,"Ġgn":8526,"ĠId":8527,"Ġrecei":8528,"Ġstare":8529,"addy":8530,"Ġsails":8531,"Ġbutt":8532,"ĠSancho":8533,"ĠBird":8534,"Ġjer":8535,"ĠLat":8536,"oph":8537,"ĠDuchess":8538,"Ġgrasped":8539,"Ġdiscl":8540,"Ġbloss":8541,"ĠRE":8542,"Ġflies":8543,"Ġremedy":8544,"Ġscared":8545,"Ġreserve":8546,"Ġcrumb":8547,"ĠKl":8548,"Ġcountess":8549,"Ġincap":8550,"Ġpromises":8551,"ifications":8552,"Ġirre":8553,"Ġwildly":8554,"Ġtravelled":8555,"ĠGrant":8556,"Ġeagerness":8557,"Ġclimbing":8558,"Ġsuspicious":8559,"Ġvirtues":8560,"Ġinjury":8561,"Maybe":8562,"Ġluxury":8563,"Ġjacket":8564,"Sil":8565,"ients":8566,"sman":8567,"Ġmask":8568,"ito":8569,"orpe":8570,"Ġpaces":8571,"Ġnic":8572,"verted":8573,"Ġstained":8574,"ilian":8575,"Ġvault":8576,"Ġknelt":8577,"ements":8578,"ĠGraham":8579,"Ġtram":8580,"ĠLight":8581,"Ġglances":8582,"Ġreserved":8583,"Ġinterval":8584,"Ġmonot":8585,"Ġawfully":8586,"ĠPriscilla":8587,"Ġhurrying":8588,"Ġmiser":8589,"Ġsurprising":8590,"Ġbloody":8591,"Ġjudged":8592,"Ġcommonly":8593,"Ġridge":8594,"ĠConn":8595,"Ġcandid":8596,"Ġcandles":8597,"Ġimpressions":8598,"Ġshops":8599,"Ġindef":8600,"Ġunwilling":8601,"ĠSquare":8602,"Ġapplication":8603,"Ġlecture":8604,"Ġpeasants":8605,"Ġtobacco":8606,"New":8607,"Nonsense":8608,"Rob":8609,"Tad":8610,"dig":8611,"och":8612,"rade":8613,"Ġtar":8614,"Ġtap":8615,"ouch":8616,"Ġdine":8617,"Ġlemon":8618,"arl":8619,"arge":8620,"Ġbees":8621,"Ġreass":8622,"Ġwhit":8623,"Ġstamp":8624,"Ġweighed":8625,"Ġrat":8626,"Ġrhy":8627,"Ġshelf":8628,"Ġvest":8629,"Ġvote":8630,"Ġalas":8631,"Ġjest":8632,"uman":8633,"Ġdisin":8634,"ĠEllen":8635,"neath":8636,"Ġcontains":8637,"ĠOx":8638,"izes":8639,"Ġfounded":8640,"Ġearliest":8641,"Ġserpent":8642,"Ġrelax":8643,"Ġcarelessly":8644,"Ġwonderfully":8645,"Ġsweep":8646,"Ġarts":8647,"Ġcoldly":8648,"Ġirregular":8649,"ĠFriday":8650,"atsy":8651,"Ġpainting":8652,"Ġequality":8653,"Ġvex":8654,"Ġmemories":8655,"udding":8656,"AND":8657,"Ġwander":8658,"ĠPeople":8659,"Ġoperations":8660,"Ġarrangements":8661,"Ġmagician":8662,"Ġtempted":8663,"Ġinterposed":8664,"Uncle":8665,"Ġarchitect":8666,"Ġnursery":8667,"Ġcigaret":8668,"Ġobedience":8669,"Ġbewildered":8670,"Ġinspired":8671,"Ġwiped":8672,"Ġreleased":8673,"HT":8674,"kers":8675,"oil":8676,"uv":8677,"Ġtip":8678,"Ġtenth":8679,"lying":8680,"Ġstamped":8681,"ilful":8682,"ulations":8683,"Ġshoe":8684,"Ġexagger":8685,"estion":8686,"ĠSer":8687,"ĠSum":8688,"ĠAfter":8689,"ĠGen":8690,"Ġenabled":8691,"Ġchill":8692,"ĠJason":8693,"Ġcrash":8694,"Ġstillness":8695,"Ġcommittee":8696,"Ġcoarse":8697,"Ġrecalled":8698,"Ġswinging":8699,"Ġbelieving":8700,"Ġdiscourse":8701,"Ġtread":8702,"Ġpleasing":8703,"Ġsmallest":8704,"Ġbeautifully":8705,"Ġcloset":8706,"becca":8707,"ĠBright":8708,"Ġsprings":8709,"riend":8710,"Ġpatiently":8711,"Ġcollection":8712,"Ġsuperin":8713,"Ġmadness":8714,"Ġincluding":8715,"Ġremainder":8716,"Ġembrace":8717,"Ġpursue":8718,"Ġlieutenant":8719,"Ġfurnish":8720,"etta":8721,"Ġroughly":8722,"Ġemphat":8723,"Ġrevolver":8724,"Ġclaims":8725,"ĠPeter":8726,"Ġinquiries":8727,"Ġcordial":8728,"Ġpigs":8729,"Ġfrozen":8730,"Ġcomparison":8731,"Ġriches":8732,"Ġcorridor":8733,"Ġtumult":8734,"El":8735,"Em":8736,"aired":8737,"mir":8738,"phant":8739,"Ġiv":8740,"Ġastr":8741,"Ġsins":8742,"Ġmas":8743,"Ġmart":8744,"Ġcash":8745,"Ġcats":8746,"ican":8747,"urg":8748,"Ġrice":8749,"acific":8750,"Ġsuited":8751,"ĠMort":8752,"Ġvap":8753,"raft":8754,"ĠBreton":8755,"ĠPers":8756,"ĠGall":8757,"ĠGlen":8758,"ĠEleanor":8759,"ears":8760,"ĠWard":8761,"Ġbacks":8762,"ĠNa":8763,"Ġscrap":8764,"Ġcontest":8765,"Ġinduced":8766,"ĠOt":8767,"Ġworkmen":8768,"Ġrepair":8769,"Ġdrum":8770,"Ġchem":8771,"Ġlargest":8772,"ĠAndy":8773,"Ġsnatched":8774,"Ġinval":8775,"Ġmusk":8776,"Ġestim":8777,"Ġproduction":8778,"Ġanguish":8779,"ĠClara":8780,"Ġrecognition":8781,"Ġrecognised":8782,"ĠComp":8783,"Ġpaths":8784,"Ġlouder":8785,"Ġgroaned":8786,"Ġislands":8787,"Ġbravely":8788,"Ġfiery":8789,"Ġthreatening":8790,"Ġreports":8791,"Ġinvolved":8792,"Ġzeal":8793,"Ġdwelt":8794,"Ġprinted":8795,"Ġsplit":8796,"Ġhammer":8797,"Ġshuddered":8798,"Ġawaited":8799,"ĠPalace":8800,"Ġshrugged":8801,"Ġfountain":8802,"ĠCastle":8803,"ĠTemple":8804,"Geor":8805,"Speak":8806,"eers":8807,"oid":8808,"olet":8809,"Ġsinking":8810,"Ġbough":8811,"Ġfist":8812,"Ġfoul":8813,"Ġcous":8814,"ingham":8815,"Ġlane":8816,"arth":8817,"Ġinsect":8818,"imony":8819,"Ġrod":8820,"iforn":8821,"Ġmelt":8822,"Ġdefect":8823,"resa":8824,"ĠAc":8825,"ĠAss":8826,"ĠBald":8827,"ĠGal":8828,"ĠDiamond":8829,"Ġoverhead":8830,"ĠEs":8831,"Ġblade":8832,"ĠFyodor":8833,"Ġstricken":8834,"Ġscrew":8835,"iverse":8836,"Ġreplaced":8837,"keness":8838,"Ġbarrel":8839,"Ġvehic":8840,"ĠClub":8841,"ĠSpir":8842,"Ġvillain":8843,"Didn":8844,"Ġembro":8845,"Ġhunted":8846,"William":8847,"Ġhesitate":8848,"Ġfaults":8849,"ocracy":8850,"ĠAmelia":8851,"Ġtendency":8852,"Ġannoyed":8853,"Ġawaiting":8854,"Ġestablishment":8855,"Better":8856,"Ġdoctrine":8857,"Ġintercourse":8858,"Ġcousins":8859,"Bless":8860,"Cle":8861,"ea":8862,"five":8863,"give":8864,"rise":8865,"Ġsie":8866,"Ġshan":8867,"Ġfert":8868,"Ġpave":8869,"ĠSun":8870,"Ġfeature":8871,"Ġkneel":8872,"Ġjaws":8873,"icker":8874,"Ġimpet":8875,"Ġhorr":8876,"phia":8877,"Ġoppress":8878,"Ġbaron":8879,"Ġmerc":8880,"Ġlowered":8881,"Ġparticulars":8882,"Ġdestined":8883,"ĠCape":8884,"ESS":8885,"ĠEmma":8886,"Ġtasted":8887,"Ġharmony":8888,"Ġrobbers":8889,"Ġmagnet":8890,"Ġbags":8891,"Ġsufferings":8892,"ĠJimmie":8893,"Quick":8894,"encroft":8895,"Ġrebell":8896,"Ġhaunted":8897,"Ġelegant":8898,"Ġwilderness":8899,"Col":8900,"Elsie":8901,"Ha":8902,"ded":8903,"pense":8904,"tes":8905,"nders":8906,"erving":8907,"Ġbishop":8908,"Ġfant":8909,"esy":8910,"Ġlamb":8911,"Ġseize":8912,"Ġconceive":8913,"ĠMonday":8914,"unks":8915,"Ġplains":8916,"Ġbrows":8917,"ĠDay":8918,"Ġuses":8919,"ĠFel":8920,"Ġsmiles":8921,"Ġspear":8922,"ĠNemo":8923,"Ġscent":8924,"Ġwhereas":8925,"Ġjustify":8926,"Ġdeserved":8927,"Ġentit":8928,"Ġcopper":8929,"Ġcoinc":8930,"Ġswamp":8931,"Ġreferred":8932,"Ġformal":8933,"Ġvisits":8934,"licted":8935,"Ġexciting":8936,"Ġpolished":8937,"Ġdeclined":8938,"Ġquarre":8939,"ĠAdams":8940,"Ġtailor":8941,"erring":8942,"Ġhostile":8943,"ettle":8944,"ĠBritain":8945,"Ġranks":8946,"ĠTurtle":8947,"Ġcaution":8948,"Ġprofessional":8949,"Ġwithdraw":8950,"Ġresponsibility":8951,"Ġnuts":8952,"Accordingly":8953,"Ġinevitable":8954,"Ġsurrender":8955,"Ġcavalry":8956,"wynpl":8957,"Ġtrousers":8958,"Man":8959,"RA":8960,"Sit":8961,"bo":8962,"eau":8963,"mod":8964,"rates":8965,"worth":8966,"Ġwounds":8967,"Ġfilling":8968,"Ġpip":8969,"esc":8970,"Ġlur":8971,"aria":8972,"Ġniece":8973,"atisf":8974,"Ġhaul":8975,"otty":8976,"Ġrosy":8977,"ilton":8978,"rian":8979,"usal":8980,"Ġorg":8981,"ĠCham":8982,"ĠBoffin":8983,"igning":8984,"Ġprodig":8985,"ĠWorld":8986,"Ġadapt":8987,"Ġscound":8988,"Ġsets":8989,"Ġmothers":8990,"Ġdrunken":8991,"Ġrelate":8992,"Ġmonk":8993,"Ġfactory":8994,"Ġmisunder":8995,"Ġelev":8996,"cription":8997,"Ġmodel":8998,"Ġvexed":8999,"Ġvanity":9000,"Ġdiscussed":9001,"Ġsavages":9002,"Ġimpert":9003,"ĠPeters":9004,"Ġafforded":9005,"Ġseverely":9006,"Ġunconsciously":9007,"Ġmeasured":9008,"Ġcomparatively":9009,"Ġcigar":9010,"ĠMichael":9011,"Ġimprovement":9012,"Ġprosperity":9013,"Ġgravity":9014,"Ġincredible":9015,"ĠRevolution":9016,"ĠCouncil":9017,"ĠConfeder":9018,"ĠRaoul":9019,"ĠPickwick":9020,"wynplaine":9021,"'--":9022,"Jul":9023,"Jean":9024,"Last":9025,"Too":9026,"burn":9027,"fashion":9028,"greg":9029,"sis":9030,"rection":9031,"Ġbits":9032,"Ġcub":9033,"ona":9034,"Ġdun":9035,"Ġlamps":9036,"Ġnap":9037,"adok":9038,"Ġextend":9039,"Ġarea":9040,"Ġplacing":9041,"Ġprostr":9042,"Ġtraces":9043,"Ġamusing":9044,"Ġshaft":9045,"Ġchicken":9046,"cian":9047,"actly":9048,"ĠNe":9049,"Ġaccent":9050,"Ġtext":9051,"Ġwaving":9052,"Ġconfirmed":9053,"Ġrefres":9054,"Ġmonstr":9055,"Ġdearly":9056,"Ġsentiments":9057,"Ġhearth":9058,"Ġparish":9059,"Ġprovide":9060,"anyard":9061,"Ġheavenly":9062,"Ġshores":9063,"Ġverse":9064,"Ġpurely":9065,"Ġfiercely":9066,"Ġarguments":9067,"Ġvigorous":9068,"Ġbidding":9069,"Ġsteamer":9070,"Ġwhistle":9071,"Ġtransport":9072,"Ġsurrounding":9073,"Ġfisherman":9074,"Ġsleeve":9075,"Ġinconven":9076,"Ġresources":9077,"Ġgloves":9078,"adelphia":9079,"Ġgigantic":9080,"mbrella":9081,"ifornia":9082,"nut":9083,"roo":9084,"ridge":9085,"ero":9086,"itors":9087,"Ġcu":9088,"orry":9089,"Ġlent":9090,"ato":9091,"Ġgang":9092,"Ġbend":9093,"iddy":9094,"Ġreform":9095,"Ġsheer":9096,"chus":9097,"Ġsuck":9098,"antial":9099,"Ġworried":9100,"Ġungr":9101,"Ġoffices":9102,"Ġindisp":9103,"Ġretain":9104,"ailing":9105,"Ġdiscom":9106,"Ġadding":9107,"Ġcolumn":9108,"Ġsoup":9109,"ships":9110,"Ġapprove":9111,"Ġexpressions":9112,"Ġeffective":9113,"Ġremembering":9114,"Ġsuspended":9115,"Ġhasty":9116,"ĠButter":9117,"Ġfunction":9118,"Ġguarded":9119,"Ġproudly":9120,"Ġrobbed":9121,"Ġexcellency":9122,"Ġcapture":9123,"Ġbehaved":9124,"chers":9125,"ĠRussia":9126,"Ġindependence":9127,"Ġpreceding":9128,"ĠNightingale":9129,"Ġtraveller":9130,"Ġwriters":9131,"Ġapron":9132,"Ġirresist":9133,"Ġdisdain":9134,"Ġremembrance":9135,"fashioned":9136,"Gu":9137,"MY":9138,"Near":9139,"Right":9140,"hile":9141,"ipl":9142,"uper":9143,"inement":9144,"Ġbord":9145,"Ġcens":9146,"Ġthieves":9147,"irs":9148,"Ġheroes":9149,"Ġorange":9150,"ĠBor":9151,"Ġtheirs":9152,"Ġprolong":9153,"Ġspy":9154,"ĠHundred":9155,"Ġshared":9156,"Ġroared":9157,"ĠEstralla":9158,"oyce":9159,"apsed":9160,"Ġcars":9161,"Ġloaf":9162,"Ġrecently":9163,"Ġsubdu":9164,"Ġbreed":9165,"ĠMarcella":9166,"Ġdoubted":9167,"Ġelephant":9168,"Ġobjected":9169,"Ġsymb":9170,"Ġmuscles":9171,"Ġexamining":9172,"Ġrocky":9173,"Ġdespite":9174,"Ġdivision":9175,"ĠNorthern":9176,"rophe":9177,"Ġmotives":9178,"Ġsuspicions":9179,"Ġcombination":9180,"ĠGuy":9181,"Ġbriefly":9182,"ĠCommittee":9183,"Ġjumping":9184,"Ġexchanged":9185,"Probably":9186,"Ġconvention":9187,"ĠRoad":9188,"Ġdeprived":9189,"ography":9190,"Ġconstructed":9191,"Henry":9192,"Ġpotatoes":9193,"Phil":9194,"boy":9195,"cr":9196,"ipt":9197,"master":9198,"ugh":9199,"vous":9200,"heus":9201,"inet":9202,"Ġsouthern":9203,"Ġstake":9204,"acinth":9205,"chn":9206,"ques":9207,"ĠCro":9208,"Ġvary":9209,"Ġviv":9210,"Ġlikeness":9211,"artment":9212,"Ġlend":9213,"igan":9214,"ops":9215,"assad":9216,"Ġslay":9217,"ĠOs":9218,"Ġinstances":9219,"jection":9220,"Ġhoarse":9221,"lands":9222,"ĠValley":9223,"Ġstrongest":9224,"Ġdefense":9225,"Ġstudents":9226,"Ġspoil":9227,"Ġdetermine":9228,"Ġbreathless":9229,"Ġsituated":9230,"Ġagreement":9231,"justice":9232,"Ġfavorable":9233,"Ġwealthy":9234,"Ġmelted":9235,"ĠGovernor":9236,"Ġamazed":9237,"Ġradiant":9238,"Ġsparkling":9239,"Ġroute":9240,"Ġtravellers":9241,"Madame":9242,"Ġrags":9243,"Ġphotograph":9244,"Ġaltar":9245,"Ġwelcomed":9246,"Love":9247,"Monsieur":9248,"gence":9249,"ties":9250,"Ġtact":9251,"Ġmuff":9252,"Ġmule":9253,"itious":9254,"Ġcy":9255,"Ġcreek":9256,"Ġhired":9257,"Ġgy":9258,"stra":9259,"Ġsealed":9260,"Ġsoap":9261,"ulp":9262,"Ġshocked":9263,"ĠSau":9264,"ĠCard":9265,"ĠCass":9266,"ĠCarr":9267,"iston":9268,"ĠAmy":9269,"Ġquit":9270,"ĠLow":9271,"inkling":9272,"ĠDiv":9273,"Ġenable":9274,"ĠWinc":9275,"ĠFle":9276,"ĠFour":9277,"Ġflav":9278,"Ġdonkey":9279,"ĠOak":9280,"Ġaccum":9281,"herent":9282,"ogue":9283,"Ġdiscont":9284,"ĠStar":9285,"Ġpleasantly":9286,"Ġoppon":9287,"Ġcircular":9288,"ĠFrom":9289,"Ġstudying":9290,"ĠBlood":9291,"Ġdresses":9292,"Ġruins":9293,"Ġproceedings":9294,"Ġseparation":9295,"Ġreflections":9296,"ĠPhiladelphia":9297,"Ġthrob":9298,"Ġimproved":9299,"Ġromance":9300,"ĠMilton":9301,"Ġtestimony":9302,"Ġbasin":9303,"Ġcomrade":9304,"Ġvictims":9305,"Ġfragments":9306,"Ġdefeat":9307,"Ġtradition":9308,"Ġpupil":9309,"eighteen":9310,"Ġsignificance":9311,"Ġcommercial":9312,"Ġhedge":9313,"Ġpermanent":9314,"Ġtiger":9315,"Ġconspicuous":9316,"Fl":9317,"Sha":9318,"bid":9319,"gom":9320,"nings":9321,"occ":9322,"rowed":9323,"heard":9324,"iner":9325,"Ġshat":9326,"oust":9327,"Ġcakes":9328,"Ġdirt":9329,"Ġpha":9330,"Ġponies":9331,"Ġnay":9332,"Ġec":9333,"icit":9334,"ida":9335,"entine":9336,"cel":9337,"Ġrows":9338,"Ġfruits":9339,"Ġdegr":9340,"ĠMa":9341,"ĠChat":9342,"ĠGos":9343,"ĠTen":9344,"Ġclust":9345,"urning":9346,"ĠDep":9347,"Ġdisli":9348,"perhaps":9349,"Ġremorse":9350,"Ġslid":9351,"Ġcrimes":9352,"ensions":9353,"Ġendless":9354,"retion":9355,"Ġwinding":9356,"Ġregions":9357,"Ġassented":9358,"Ġcurse":9359,"Ġadvise":9360,"eches":9361,"Ġobserving":9362,"ĠGregg":9363,"Ġprevailed":9364,"Ġreveal":9365,"Ġromans":9366,"Ġcritical":9367,"Ġmourning":9368,"Ġsobbed":9369,"Ġcliffs":9370,"Ġtribes":9371,"ĠParker":9372,"Ġprocured":9373,"Ġpirates":9374,"Ġglittering":9375,"Ġmansion":9376,"Ġcanvas":9377,"Ġwolves":9378,"Later":9379,"bes":9380,"gone":9381,"rating":9382,"Ġwestern":9383,"rene":9384,"Ġbunch":9385,"Ġheel":9386,"icians":9387,"ifty":9388,"Ġseed":9389,"Ġdew":9390,"ĠSome":9391,"Ġmanagement":9392,"Ġvital":9393,"Ġalert":9394,"aste":9395,"ĠBeth":9396,"uns":9397,"ĠPri":9398,"Ġquitted":9399,"inks":9400,"ĠDot":9401,"Ġrobe":9402,"ĠRost":9403,"Young":9404,"Ġstrained":9405,"Ġslipp":9406,"Ġindicate":9407,"Ġcourte":9408,"Ġaccused":9409,"Ġhappening":9410,"Ġmars":9411,"Ġpersonality":9412,"Ġleaders":9413,"Ġcreeping":9414,"Ġspoiled":9415,"ĠBeauty":9416,"Ġcouch":9417,"Ġswords":9418,"Ġdignified":9419,"Ġassociated":9420,"Ġbasis":9421,"Ġresemblance":9422,"Ġprimitive":9423,"Ġcomprehens":9424,"Ġdeliberately":9425,"Ġstrictly":9426,"break":9427,"Ġdischarge":9428,"Ġtalent":9429,"Ġconsolation":9430,"Ġrenewed":9431,"Ġinferior":9432,"ĠOxford":9433,"ĠWinchester":9434,"Gl":9435,"LD":9436,"hor":9437,"iary":9438,"oked":9439,"time":9440,"would":9441,"Ġwag":9442,"hable":9443,"Ġbol":9444,"Ġmute":9445,"Ġmaxim":9446,"itched":9447,"Ġfitting":9448,"Ġpouring":9449,"Ġlions":9450,"Ġincess":9451,"Ġinjustice":9452,"uting":9453,"Ġfors":9454,"Ġstately":9455,"Ġfrog":9456,"ilus":9457,"ripp":9458,"Ġconj":9459,"ĠSand":9460,"Ġvine":9461,"Ġoutrage":9462,"Ġthereby":9463,"ĠBon":9464,"akers":9465,"Ġjail":9466,"cks":9467,"ĠLang":9468,"Ġblushed":9469,"Ġgreatness":9470,"Ġoldest":9471,"Ġchains":9472,"Ġpassages":9473,"Ġharness":9474,"Ġcarved":9475,"Ġputs":9476,"autilus":9477,"Ġsubtle":9478,"Ġextrem":9479,"onyms":9480,"ĠAnge":9481,"Almost":9482,"Ġstrengthen":9483,"Ġconvuls":9484,"Ġthicket":9485,"Ġsolution":9486,"Ġshouts":9487,"Ġdares":9488,"athetic":9489,"Ġdepartment":9490,"ĠColumb":9491,"ikov":9492,"cheon":9493,"Ġlodge":9494,"Ġwaistcoat":9495,"Ġappreciate":9496,"Ġlingered":9497,"Ġcontradict":9498,"Ġbattles":9499,"Ġtemporary":9500,"Ġdeemed":9501,"Ġbronze":9502,"Ġbonnet":9503,"Ġartificial":9504,"Ġtragedy":9505,"Jane":9506,"bited":9507,"did":9508,"itations":9509,"Ġcage":9510,"orus":9511,"eslie":9512,"Ġgames":9513,"Ġgarr":9514,"icial":9515,"Ġsem":9516,"Ġshine":9517,"anda":9518,"arded":9519,"ĠCousin":9520,"lfare":9521,"Ġquivering":9522,"ĠWend":9523,"ĠRay":9524,"ountered":9525,"Ġpeered":9526,"Ġbackground":9527,"Ġunderneath":9528,"psy":9529,"ĠNautilus":9530,"ixon":9531,"Ġcarpent":9532,"Ġworkers":9533,"Ġpresume":9534,"Ġwrist":9535,"Ġnewly":9536,"Ġreturns":9537,"Ġsubl":9538,"Ġpersonally":9539,"Ġappearing":9540,"Ġdefiance":9541,"Ġlowest":9542,"Ġconsiderably":9543,"ĠAlm":9544,"ĠDev":9545,"Ġvillages":9546,"Ġproceeding":9547,"sequently":9548,"Ġshrill":9549,"Ġshrank":9550,"Ġadmirable":9551,"Ġcaptive":9552,"Ġattractive":9553,"Ġbarely":9554,"Ġdismal":9555,"Ġuneasiness":9556,"ĠJews":9557,"Ġcitizen":9558,"bourne":9559,"Ġleaping":9560,"Ġpupils":9561,"Ġcommerce":9562,"Ġphenomena":9563,"Ġtidings":9564,"Ġdiscipline":9565,"ĠLatin":9566,"Ġentitled":9567,"Ġecst":9568,"Far":9569,"UT":9570,"ele":9571,"four":9572,"such":9573,"ua":9574,"zes":9575,"Ġoars":9576,"Ġmap":9577,"Ġmules":9578,"onom":9579,"ingle":9580,"orney":9581,"Ġlined":9582,"armed":9583,"Ġbefall":9584,"icient":9585,"Ġweigh":9586,"Ġwelfare":9587,"acre":9588,"Ġdeceive":9589,"thren":9590,"Ġintol":9591,"osis":9592,"Ġcanoe":9593,"Ġspared":9594,"ĠHon":9595,"ĠEmp":9596,"ĠWy":9597,"Ġblush":9598,"Ġflu":9599,"ulliver":9600,"Ġpoets":9601,"Ġfiring":9602,"necess":9603,"ĠOjo":9604,"Ġsurm":9605,"Ġrelatives":9606,"atching":9607,"Ġopenly":9608,"Ġcursed":9609,"Ġtermin":9610,"Ġgenerals":9611,"Ġgenerosity":9612,"Ġblacks":9613,"Ġhurled":9614,"Ġfairies":9615,"brows":9616,"Ġequip":9617,"Ġsquee":9618,"Ġcomfortably":9619,"ĠButler":9620,"Ġcommands":9621,"ĠDeath":9622,"Ġresolve":9623,"Ġencountered":9624,"Ġwarmly":9625,"Ġincluded":9626,"Ġlords":9627,"Ġintelligible":9628,"Ġrubbing":9629,"Ġcooking":9630,"Ġhypothes":9631,"ĠEarl":9632,"Ġexhaust":9633,"Ġgreeting":9634,"achelor":9635,"Ġpanting":9636,"Ġpolitely":9637,"Ġaxe":9638,"Ġenchanted":9639,"Ġardent":9640,"ĠKennedy":9641,"Ġdesirable":9642,"ĠHenriette":9643,"Ġstaggered":9644,"Ġcrystal":9645,"Ġjuice":9646,"Ġmathemat":9647,"ĠSpirit":9648,"Ġmonstrous":9649,"rooge":9650,"Aunt":9651,"Imp":9652,"Tow":9653,"Won":9654,"equ":9655,"pha":9656,"Ġwaking":9657,"Ġnerve":9658,"seven":9659,"entle":9660,"Ġshower":9661,"anta":9662,"antine":9663,"Ġvener":9664,"Ġvib":9665,"ĠAng":9666,"Ġleagues":9667,"umerable":9668,"ĠPav":9669,"Ġcane":9670,"Ġprow":9671,"oper":9672,"ĠTal":9673,"Ġample":9674,"ĠDr":9675,"Ġperception":9676,"ĠJuly":9677,"ĠJudge":9678,"Ġeyel":9679,"Ġscandal":9680,"Ġentr":9681,"Ġserving":9682,"Ġassault":9683,"Ġneedle":9684,"Ġrapt":9685,"atson":9686,"Ġparlor":9687,"ricult":9688,"Ġaffections":9689,"Ġclothed":9690,"ternity":9691,"uesday":9692,"Ġcomplicated":9693,"Ġballoon":9694,"Ġsickness":9695,"Ġtastes":9696,"Ġconnect":9697,"Ġspreading":9698,"Ġscreen":9699,"Ġbodily":9700,"Ġinvented":9701,"Exactly":9702,"Ġproblems":9703,"borne":9704,"Ġexhibited":9705,"Ġembarrassment":9706,"izzie":9707,"Ġobscure":9708,"Ġabstract":9709,"Ġembraced":9710,"Ġapparatus":9711,"Ġglobe":9712,"ĠHolmes":9713,"ranean":9714,"ĠProtest":9715,"Ġincapable":9716,"ELL":9717,"UN":9718,"ban":9719,"borough":9720,"cham":9721,"eur":9722,"mates":9723,"uation":9724,"Ġfug":9725,"oni":9726,"Ġhoof":9727,"Ġinit":9728,"Ġnails":9729,"Ġgird":9730,"Ġgamb":9731,"Ġrelease":9732,"Ġripe":9733,"ulously":9734,"ĠCoss":9735,"inding":9736,"asting":9737,"Ġabode":9738,"ĠGard":9739,"Ġtwist":9740,"ĠEll":9741,"abella":9742,"Ġperish":9743,"Ġpeer":9744,"Ġscant":9745,"ometer":9746,"Ġfaire":9747,"Ġcomposition":9748,"Ġconspir":9749,"Ġwrites":9750,"Ġsuppressed":9751,"Ġswam":9752,"Ġnatives":9753,"Ġdreaded":9754,"Ġawhile":9755,"Ġadvoc":9756,"phin":9757,"Ġpatriot":9758,"Ġbenevol":9759,"ĠNora":9760,"Ġcostume":9761,"IST":9762,"ĠDavy":9763,"Thanks":9764,"Ġattendants":9765,"Ġrejoiced":9766,"Ġlodg":9767,"Ġexecuted":9768,"Ġliterally":9769,"Ġtricks":9770,"ĠCalifornia":9771,"Leave":9772,"Ġselected":9773,"Ġliquid":9774,"ĠMiddle":9775,"Ġpoliceman":9776,"ĠSpaniards":9777,"gomery":9778,"Des":9779,"Sim":9780,"Things":9781,"nie":9782,"pool":9783,"Ġsar":9784,"Ġsledge":9785,"Ġcove":9786,"Ġcooked":9787,"orks":9788,"Ġphant":9789,"Ġlil":9790,"icago":9791,"Ġwashing":9792,"ĠIm":9793,"alty":9794,"Ġraw":9795,"illery":9796,"Ġsection":9797,"Heaven":9798,"Ġwholes":9799,"ĠPatsy":9800,"ĠPacific":9801,"Ġplague":9802,"Ġintox":9803,"ĠLife":9804,"ĠTree":9805,"ĠHor":9806,"Ġoverfl":9807,"ĠWatson":9808,"ĠRos":9809,"Inst":9810,"iph":9811,"oths":9812,"Ġrepublic":9813,"ruary":9814,"Ġvoc":9815,"Ġexpenses":9816,"Ġassass":9817,"Ġassisted":9818,"ĠUnder":9819,"version":9820,"Ġearthqu":9821,"Ġapproved":9822,"Ġeyebrows":9823,"Ġcreation":9824,"Ġcreate":9825,"Ġjoyous":9826,"Ġprotected":9827,"Ġwiser":9828,"Ġgrowled":9829,"Ġjournal":9830,"ĠCommission":9831,"ĠSocial":9832,"ĠTrot":9833,"Ġrecommended":9834,"Ġrestraint":9835,"Ġidentity":9836,"Ġblazing":9837,"Ġpilgr":9838,"Ġgaily":9839,"Charles":9840,"Strange":9841,"Ġclergyman":9842,"ĠRepublic":9843,"Ġtreasures":9844,"Ġcrumbs":9845,"Ġsuperintend":9846,"AK":9847,"Sure":9848,"Time":9849,"bet":9850,"iantly":9851,"Ġbased":9852,"Ġfuss":9853,"Ġtonight":9854,"Ġbee":9855,"Ġstretch":9856,"urred":9857,"uration":9858,"adise":9859,"Ġisol":9860,"Ġmeals":9861,"amin":9862,"ppers":9863,"Ġshrew":9864,"ĠMerr":9865,"ittered":9866,"Ġgodd":9867,"Ġuniverse":9868,"ĠLieutenant":9869,"ĠTy":9870,"Ġenvelop":9871,"izard":9872,"Ġmomentary":9873,"Ġfearing":9874,"Ġexplore":9875,"Ġpaste":9876,"Ġconstruction":9877,"Stay":9878,"inese":9879,"Ġprovision":9880,"Ġbanker":9881,"Ġfools":9882,"ĠHercules":9883,"Ġtails":9884,"Ġchopped":9885,"Ġintroduction":9886,"Ġmachines":9887,"ĠRebecca":9888,"Ġbehave":9889,"Ġpacket":9890,"ATION":9891,"ĠWegg":9892,"Ġneighbours":9893,"Ġdamage":9894,"Ġreckoned":9895,"Ġculture":9896,"ĠAbraham":9897,"Ġdistrust":9898,"Ġconsulted":9899,"natured":9900,"Ġcultivated":9901,"ĠDurham":9902,"ĠJapanese":9903,"Ġnaughty":9904,"Ġpavement":9905,"Four":9906,"Harry":9907,"PP":9908,"Whe":9909,"vant":9910,"vial":9911,"Ġwool":9912,"Ġtoast":9913,"Ġlic":9914,"entieth":9915,"Ġren":9916,"iron":9917,"Ġsting":9918,"Ġrises":9919,"Ġmeek":9920,"ĠCas":9921,"rael":9922,"ĠBre":9923,"ĠBear":9924,"Ġquaint":9925,"ĠEustace":9926,"Ġbeforehand":9927,"Ġponder":9928,"ords":9929,"inton":9930,"Ġdistressed":9931,"Ġmarrying":9932,"retty":9933,"alem":9934,"Ġincons":9935,"Ġdragging":9936,"Ġskins":9937,"Ġfores":9938,"inson":9939,"Ġinvari":9940,"Ġexcurs":9941,"Ġelection":9942,"Ġdefin":9943,"Ġexclamation":9944,"Ġanimated":9945,"Ġtrag":9946,"Ġexisting":9947,"Ġsadness":9948,"Ġaccommod":9949,"Ġwinning":9950,"Ġcourtesy":9951,"Ġinnumerable":9952,"Ġkissing":9953,"Ġcatast":9954,"Ġvolumes":9955,"isco":9956,"Ġapartments":9957,"Ġcustoms":9958,"Ġencourage":9959,"Ġencouragement":9960,"Ġoutline":9961,"Ġcorrespondence":9962,"ĠSquire":9963,"Ġtransparent":9964,"Ġobviously":9965,"Ġemerged":9966,"Ġshudder":9967,"Ġcontrived":9968,"Ġattentively":9969,"ĠSheriff":9970,"Ġcrawled":9971,"Ġperpetual":9972,"Ġapprehension":9973,"ĠDarcy":9974,"Ġnavig":9975,"ĠAlexandrov":9976,"something":9977,"ĠCompany":9978,"Ġinvariably":9979,"'\"":9980,"App":9981,"Jo":9982,"aith":9983,"west":9984,"Ġsire":9985,"Ġmaj":9986,"arian":9987,"ania":9988,"Ġhaw":9989,"Ġhare":9990,"Ġeagle":9991,"Ġreapp":9992,"Ġwhir":9993,"Ġrash":9994,"aciously":9995,"ighty":9996,"riages":9997,"alling":9998,"uscript":9999,"ĠShar":10000,"ĠMouse":10001,"ĠMoses":10002,"ardier":10003,"ĠCont":10004,"ĠCyr":10005,"Ġfemin":10006,"oles":10007,"ĠBa":10008,"ĠBig":10009,"ĠBook":10010,"idel":10011,"Ġtimber":10012,"Ġbrand":10013,"Ġunin":10014,"Ġclaimed":10015,"ĠHay":10016,"ffic":10017,"Ġdownward":10018,"Ġwaiter":10019,"sses":10020,"Ġrefresh":10021,"Ġelabor":10022,"Ġsunny":10023,"ashka":10024,"Ġinvite":10025,"aneous":10026,"Ġaffirm":10027,"Ġbarric":10028,"Ġpatent":10029,"Step":10030,"ĠChristians":10031,"Ġtempered":10032,"Ġledge":10033,"Ġmouths":10034,"Ġsticking":10035,"going":10036,"Ġhyster":10037,"Ġdelicacy":10038,"Ġliberal":10039,"iko":10040,"fortunes":10041,"Ġreckless":10042,"Ġfarmers":10043,"Ġholiday":10044,"Ġfeverish":10045,"Ġswallow":10046,"Ġassembly":10047,"Ġluxur":10048,"Ġcalculated":10049,"ĠConstitution":10050,"Ġconsumption":10051,"Ġbattery":10052,"Ġverses":10053,"Ġappropriate":10054,"ĠAtlantic":10055,"Ġsymptoms":10056,"ĠIdiot":10057,"Ġsubdued":10058,"ĠPavl":10059,"Ġgoddess":10060,".,":10061,"Hard":10062,"IF":10063,"Life":10064,"Ob":10065,"james":10066,"nor":10067,"Ġfoe":10068,"onia":10069,"Ġpadd":10070,"Ġhats":10071,"Ġasks":10072,"Ġstool":10073,"ĠMull":10074,"ĠCre":10075,"ĠCamp":10076,"Ġmanuscript":10077,"Ġknit":10078,"unities":10079,"ĠGerm":10080,"agan":10081,"Ġtrot":10082,"Ġloos":10083,"ĠTulliver":10084,"Ġclaws":10085,"Ġshalt":10086,"Ġdisaster":10087,"Ġdisob":10088,"Ġchron":10089,"ĠWigg":10090,"Ġspecially":10091,"ften":10092,"Ġresort":10093,"Ġowners":10094,"Ġimpart":10095,"Ġcrow":10096,"Ġcourty":10097,"Ġrighteous":10098,"Ġcommit":10099,"Ġhearty":10100,"Ġtechn":10101,"Ġdrifted":10102,"Ġbestowed":10103,"Ġwoe":10104,"bey":10105,"Ġladen":10106,"Ġearthly":10107,"ĠAramis":10108,"ĠYOU":10109,"Ġdisappro":10110,"Ġcommanding":10111,"Ġguardian":10112,"Ġverd":10113,"Ġcommunic":10114,"Ġscramb":10115,"Ġstuffed":10116,"Ġstockings":10117,"ĠSamuel":10118,"Ġteachers":10119,"ĠScotch":10120,"Ġpearl":10121,"Ġdisturbance":10122,"Ġanticipated":10123,"Ġcircles":10124,"Ġhaughty":10125,"Hold":10126,"Hush":10127,"Ol":10128,"Sylvia":10129,"Ten":10130,"gon":10131,"lp":10132,"line":10133,"maid":10134,"rice":10135,"upt":10136,"Ġhen":10137,"Ġnour":10138,"Ġrever":10139,"Ġstooping":10140,"rol":10141,"Ġwhoever":10142,"ĠBetty":10143,"Ġpluck":10144,"Ġplates":10145,"Ġtrunks":10146,"Ġunkind":10147,"Ġunnecess":10148,"Ġprime":10149,"Ġprudence":10150,"Ġclad":10151,"ĠEvery":10152,"ĠWhy":10153,"ĠFer":10154,"Ġflowed":10155,"Ġflush":10156,"henka":10157,"Ġspending":10158,"Ġobli":10159,"Ġcradle":10160,"ulties":10161,"Ġhappier":10162,"Ġteam":10163,"Ġguided":10164,"Ġhorns":10165,"oubt":10166,"ĠChicago":10167,"ĠChinese":10168,"Ġmoves":10169,",--\"":10170,"Ġdreary":10171,"versed":10172,"aneously":10173,"Ġrespected":10174,"Ġsuspense":10175,"Ġstudies":10176,"Ġacquire":10177,"Ġmaidens":10178,"ART":10179,"Ġhesitating":10180,"Ġpeculiarly":10181,"Ġcommunicate":10182,"Ġgarment":10183,"Ġstatue":10184,"Ġreverence":10185,"Ġpicturesque":10186,"Ġinvention":10187,"Ġassociation":10188,"Ġindignant":10189,"Ġblankets":10190,"Ġpurchased":10191,"Ġdigging":10192,"Ġsobbing":10193,"Ġmechanical":10194,"Ġthirsty":10195,"Ġstealing":10196,"Ġprocure":10197,"Ġintimacy":10198,"Ġsustained":10199,"Ġbriskly":10200,"Ġrascal":10201,"ĠProvidence":10202,"Ġchallenge":10203,"bows":10204,"eh":10205,"fish":10206,"hind":10207,"mun":10208,"Ġtas":10209,"Ġwars":10210,"nde":10211,"Ġbounded":10212,"ithe":10213,"Ġfits":10214,"Ġfishes":10215,"Ġdoth":10216,"Ġdial":10217,"Ġgau":10218,"idences":10219,"Ġrot":10220,"Ġkicked":10221,"riety":10222,"Ġexult":10223,"ushenka":10224,"Ġorchard":10225,"Ġaby":10226,"ĠBath":10227,"ĠBank":10228,"umpt":10229,"ĠTor":10230,"Ġoverp":10231,"Ġhandful":10232,"Ġcrust":10233,"Ġearned":10234,"Ġwrought":10235,"Ġswing":10236,"ĠChina":10237,"Ġbrethren":10238,"Ġdifferences":10239,"Ġhorseback":10240,"Ġmisfortunes":10241,"Ġsweat":10242,"Ġbarr":10243,"Ġforgiven":10244,"Ġrequis":10245,"Ġprovince":10246,"Ġdespise":10247,"Ġdespised":10248,"Ġcrowds":10249,"ĠFrenchman":10250,"Ġpunct":10251,"Ġninth":10252,"Ġbabies":10253,"Ġbitterness":10254,"Ġmirth":10255,"ĠSeptember":10256,"Ġenthusiastic":10257,"Ġindignantly":10258,"Ġrolls":10259,"Ġcondemn":10260,"Ġhunters":10261,"Ġinstitution":10262,"Ġembarrassed":10263,"Ġsincerely":10264,"Ġprejudice":10265,"Ġparson":10266,"IGHT":10267,"Ġlodgings":10268,"Ġshrewd":10269,"Sm":10270,"Ġbrace":10271,"Ġmare":10272,"itably":10273,"Ġpang":10274,"leg":10275,"utt":10276,"Ġthine":10277,"Ġreverse":10278,"Ġstu":10279,"Ġraces":10280,"illings":10281,"ammed":10282,"Ġsult":10283,"Ġweren":10284,"ĠSE":10285,"ĠScript":10286,"ĠMax":10287,"ĠCelia":10288,"ĠBart":10289,"Ġplac":10290,"ela":10291,"Ġclinging":10292,"ĠEp":10293,"ĠFore":10294,"Ġappe":10295,"ĠJove":10296,"Ġdesigned":10297,"Ġcargo":10298,"ivities":10299,"sels":10300,"Ask":10301,"Ġexpensive":10302,"Ġcorpor":10303,"Ġreaders":10304,"Ġinternal":10305,"ungle":10306,"Ġvisiting":10307,"Ġladyship":10308,"Ġexclaim":10309,"ĠArmy":10310,"Ġdifferently":10311,"Ġrequested":10312,"Ġveins":10313,"Ġvaried":10314,"Always":10315,"Ġfaithfully":10316,"ĠWhich":10317,"ĠBarry":10318,"Ġantagon":10319,"Ġantiqu":10320,"Ġstrokes":10321,"Ġfashionable":10322,"Ġhonorable":10323,"ĠAllison":10324,"Ġmiracle":10325,"Ġfalsehood":10326,"Ġcivilized":10327,"ITH":10328,"Ġunworthy":10329,"Ġdissol":10330,"Ġministers":10331,"Ġvaguely":10332,"Ġgrieved":10333,"Ġpearls":10334,"Ġpierced":10335,"Ġdischarged":10336,"Ġabundance":10337,"Ġconveyed":10338,"Ġtempest":10339,"Ġcigarette":10340,"Ġscoundrel":10341,"ĠWendy":10342,"Dav":10343,"Hur":10344,"QU":10345,"bation":10346,"iations":10347,"main":10348,"ras":10349,"zil":10350,"Ġwig":10351,"Ġbisc":10352,"Ġfab":10353,"Ġcough":10354,"orce":10355,"Ġpulse":10356,"Ġheaps":10357,"Ġlame":10358,"icious":10359,"Ġyawn":10360,"entially":10361,"Ġstalk":10362,"Ġmyth":10363,"Ġneut":10364,"ĠMess":10365,"ĠMore":10366,"ĠMaz":10367,"ĠCur":10368,"ĠCON":10369,"Ġvag":10370,"ounder":10371,"itte":10372,"umption":10373,"ĠLamb":10374,"ĠWestern":10375,"ĠFult":10376,"Ġbackwards":10377,"Ġaccus":10378,"Ġacid":10379,"Ġreadiness":10380,"Ġhumb":10381,"Ġhighway":10382,"ouncing":10383,"Ġoppressed":10384,"Ġsprung":10385,"Ġmeetings":10386,"ĠArk":10387,"Ġpainter":10388,"Ġbreaks":10389,"Ġtearing":10390,"Ġsquir":10391,"Ġimagin":10392,"Ġsuccessfully":10393,"Ġbrightness":10394,"Ġwhiskers":10395,"Ġtraveling":10396,"ĠIsrael":10397,"incent":10398,"ORY":10399,"Ġfaltered":10400,"Ġchoked":10401,"nesday":10402,"Ġidiot":10403,"Ġrecorded":10404,"Ġendeavoured":10405,"Ġambassad":10406,"Ġrepresentative":10407,"Ġpanic":10408,"Ġsuperiority":10409,"addin":10410,"Ġlocks":10411,"Ġfaculties":10412,"lotte":10413,"Ġwarrior":10414,"Ġsurroundings":10415,"ĠAustral":10416,"Ġshrieked":10417,"Between":10418,"Ġrejected":10419,"Ġtreachery":10420,"Ġresentment":10421,"Ġambitious":10422,"Ġcourtyard":10423,"Bring":10424,"Grace":10425,"Sec":10426,"Vox":10427,"away":10428,"ball":10429,"may":10430,"press":10431,"wall":10432,"water":10433,"Ġtune":10434,"Ġtumbled":10435,"rea":10436,"isen":10437,"Ġfret":10438,"Ġtoes":10439,"Ġpomp":10440,"anth":10441,"lyn":10442,"sevent":10443,"Ġserene":10444,"Ġsobs":10445,"Ġvice":10446,"Ġliver":10447,"Ġliking":10448,"olo":10449,"ĠBrig":10450,"ĠPur":10451,"ĠPack":10452,"ĠPencroft":10453,"Ġproves":10454,"ĠLibri":10455,"ĠLanyard":10456,"ĠDolly":10457,"ĠHoop":10458,"Ġgranite":10459,"Ġoverl":10460,"ĠEven":10461,"ĠEric":10462,"Ġoffers":10463,"Ġoffend":10464,"ildren":10465,"anging":10466,"Ġattachment":10467,"Ġcoats":10468,"Ġpossibilities":10469,"ocation":10470,"Ġextensive":10471,"Ġpromising":10472,"Ġprophe":10473,"ĠArch":10474,"Ġeditor":10475,"Ġexperiments":10476,"Ġrespectful":10477,"Ġdecline":10478,"Ġcasting":10479,"Ġcalam":10480,"Ġstrip":10481,"Ġfrighten":10482,"Ġpraying":10483,"ĠScrooge":10484,"amental":10485,"Ġnicely":10486,"ĠAdmir":10487,"Ġdimly":10488,"Ġassistant":10489,"Ġpitiful":10490,"Ġterrific":10491,"ĠMorgan":10492,"Ġpositions":10493,"Ġowed":10494,"ĠLaura":10495,"ĠMartha":10496,"Ġfetched":10497,"Ġassertion":10498,"Ġelderly":10499,"Ġunreason":10500,"Ġluncheon":10501,"Ġlava":10502,"Ġoverwhelmed":10503,"ĠDantes":10504,"Ġdramatic":10505,"Ġtelegraph":10506,"ĠLibriVox":10507,"Bob":10508,"OS":10509,"avern":10510,"bird":10511,"ez":10512,"oons":10513,"Ġtrop":10514,"rehens":10515,"Ġcured":10516,"Ġcrop":10517,"Ġlakes":10518,"otel":10519,"ceval":10520,"aying":10521,"Ġropes":10522,"Ġattending":10523,"Ġsheets":10524,"ĠMoon":10525,"ĠMerc":10526,"Ġoutst":10527,"Ġworsh":10528,"ĠBE":10529,"umns":10530,"igence":10531,"Ġbrim":10532,"ĠHann":10533,"Ġblast":10534,"cible":10535,"Ġpeop":10536,"erted":10537,"Ġspeeches":10538,"Ġscout":10539,"Ġresigned":10540,"Ġcomposure":10541,"Ġimposed":10542,"Ġbored":10543,"Ġplead":10544,"Ġacute":10545,"rews":10546,"Ġconfron":10547,"ĠMarie":10548,"Ġtalks":10549,"Ġcolumns":10550,"Ġfireplace":10551,"Ġquestioning":10552,"Ġsweeping":10553,"Ġsleepy":10554,"Ġapproval":10555,"Ġtouches":10556,"Ġparallel":10557,"Ġtemples":10558,"Ġstudio":10559,"Ġjoyfully":10560,"Ġapology":10561,"Ġdisposal":10562,"except":10563,"Ġcompliments":10564,"Ġconclude":10565,"Ġgratification":10566,"Ġwonders":10567,"ĠQuix":10568,"ĠChristianity":10569,"Ġwitnessed":10570,"Ġfortunately":10571,"Ġobstacle":10572,"Ġdesperately":10573,"oki":10574,"Ġwhispering":10575,"Ġeconomy":10576,"Ġinfantry":10577,"ubborn":10578,"Ġfancies":10579,"Ġvehicle":10580,"AB":10581,"Happ":10582,"la":10583,"pers":10584,"Ġfren":10585,"Ġreaction":10586,"Ġstall":10587,"Ġstamm":10588,"Ġrack":10589,"Ġrip":10590,"Ġmend":10591,"Ġsoci":10592,"Ġexasper":10593,"ĠCreek":10594,"Ġviz":10595,"ĠPop":10596,"ĠPoint":10597,"Ġtimidly":10598,"Ġbru":10599,"Ġunacc":10600,"ĠLet":10601,"Ġprudent":10602,"ĠTerry":10603,"ĠHal":10604,"Ġgrunt":10605,"ovember":10606,"Ġchoo":10607,"ĠRab":10608,"Ġperse":10609,"Ġthrill":10610,"Ġpeering":10611,"Ġremonstr":10612,"Ġwherein":10613,"Ġdesolate":10614,"Ġcompact":10615,"Ġcracked":10616,"Ġattorney":10617,"Ġharbor":10618,"Ġhappiest":10619,"getic":10620,"Ġworldly":10621,"Ġcharms":10622,"Ġfourteenth":10623,"Ġassent":10624,"Ġrefer":10625,"Ġinterven":10626,"Ġinsens":10627,"Ġcolon":10628,"Ġexplaining":10629,"Ġappearances":10630,"Ġprophet":10631,"Within":10632,"Ġescort":10633,"Ġhasten":10634,"Ġdealing":10635,"strong":10636,"ervation":10637,"Ġyouthful":10638,"Ġoccurrence":10639,"Ġspringing":10640,"ursday":10641,"Ġpassionately":10642,"Ġsubstantial":10643,"Ġdomain":10644,"Ġcustomary":10645,"Ġattraction":10646,"Ġdusty":10647,"Ġnodding":10648,"Ġpraised":10649,"Ġpillars":10650,"Ġobstinate":10651,"Ġsources":10652,"ĠMartin":10653,"Ġkeenly":10654,"Ġretreated":10655,"Ġirritated":10656,"Ġunexpectedly":10657,"abouts":10658,"Ġcriticism":10659,"Ġpeeped":10660,"Ġcatastrophe":10661,"avert":10662,"cas":10663,"car":10664,"houn":10665,"mers":10666,"mark":10667,"oft":10668,"phan":10669,"piece":10670,"heart":10671,"inently":10672,"Ġwist":10673,"Ġbri":10674,"Ġbows":10675,"Ġtons":10676,"Ġdined":10677,"Ġdagger":10678,"escri":10679,"Ġhears":10680,"Ġineff":10681,"Ġgait":10682,"icide":10683,"entric":10684,"Ġreel":10685,"Ġrevere":10686,"vering":10687,"ifies":10688,"ainty":10689,"oreal":10690,"Ġdepended":10691,"Ġshillings":10692,"istics":10693,"asty":10694,"ĠBas":10695,"Ġagricult":10696,"Ġsphere":10697,"Ġtwentieth":10698,"Ġtraced":10699,"Ġenlight":10700,"ĠFOR":10701,"icket":10702,"Ġjustly":10703,"Ġslack":10704,"Ġharmon":10705,"Ġharvest":10706,"Ġmarching":10707,"Ġsupposing":10708,"Ġswore":10709,"Ġsurpass":10710,"Ġdrifting":10711,"Ġdelayed":10712,"Ġwarrant":10713,"Ġinspiration":10714,"Ġnamely":10715,"pril":10716,"Ġsniff":10717,"orns":10718,"Ġfuriously":10719,"Ġobserver":10720,"Ġsoftened":10721,"Ġdrawer":10722,"Ġgardener":10723,"Ġcomforted":10724,"Ġsadd":10725,"Ġsalary":10726,"Ġwidely":10727,"Ġtypes":10728,"Ġnegot":10729,"ĠGeorg":10730,"Ġunfold":10731,"ĠPercy":10732,"Ġargue":10733,"Ġdependent":10734,"ĠValentine":10735,"Ġwitnesses":10736,"ederal":10737,"Ġgrimly":10738,"Ġornaments":10739,"Ġamidst":10740,"ĠGrandfather":10741,"Ġadditional":10742,"Ġpirate":10743,"ĠJeffrey":10744,"Ġsacrifices":10745,"Ġmanufacture":10746,"Ġcrouched":10747,"ĠCartha":10748,"Ġmarvell":10749,"Ġhospitality":10750,"Ġbehaviour":10751,"Ġstretching":10752,"ĠFulton":10753,"Ġstammered":10754,"Papa":10755,"iage":10756,"Ġ[":10757,"Ġbolt":10758,"isle":10759,"Ġdot":10760,"Ġdainty":10761,"Ġpiled":10762,"Ġlou":10763,"othered":10764,"Ġreigned":10765,"Ġsteed":10766,"Ġstubborn":10767,"Ġwearily":10768,"urrection":10769,"Ġexter":10770,"Ġexting":10771,"ĠSign":10772,"ĠSnow":10773,"Ġvale":10774,"ĠAlf":10775,"ĠApril":10776,"hedral":10777,"aug":10778,"ĠLizzie":10779,"Ġclue":10780,"pling":10781,"plain":10782,"Ġshabby":10783,"ĠFirst":10784,"ĠRat":10785,"Ġflask":10786,"Ġpoems":10787,"Ġperched":10788,"terest":10789,"Ġchal":10790,"Ġfailing":10791,"Ġcrooked":10792,"ĠKay":10793,"ĠKenn":10794,"Ġloft":10795,"iah":10796,"Ġcoin":10797,"Ġchannel":10798,"Ġbelieves":10799,"Ġcorp":10800,"Ġmines":10801,"ials":10802,"Ġcurate":10803,"ieties":10804,"Ġunderstands":10805,"Ġoppose":10806,"Ġartistic":10807,"ĠArt":10808,"Ġedges":10809,"Ġmuscular":10810,"Ġrespectfully":10811,"Ġrepeating":10812,"cellency":10813,"Ġconvince":10814,"Ġaccordance":10815,"Ġrecognise":10816,"ĠHeracles":10817,"Ġopportunities":10818,"Ġattacks":10819,"Ġsolely":10820,"ĠAllen":10821,"Ġapprehe":10822,"chet":10823,"Ġspectators":10824,"ĠJulius":10825,"Ġcrowned":10826,"Seeing":10827,"Ġbirthday":10828,"Ġdissip":10829,"ĠTurkey":10830,"Ġrapidity":10831,"Ġunfortunately":10832,"Christ":10833,"Ġapplause":10834,"ĠAlexander":10835,"Ġinfinitely":10836,"Ġdoctors":10837,"Ġdefeated":10838,"Ġcoachman":10839,"Ġattentive":10840,"Ġcomprehend":10841,"Ġgorgeous":10842,"Ġcups":10843,"Ġirresistible":10844,"Ġshattered":10845,"Ġfeminine":10846,"ĠQuixote":10847,"ĠRabbit":10848,"!...":10849,"Add":10850,"AIN":10851,"Smith":10852,"ae":10853,"oving":10854,"Ġaer":10855,"Ġsly":10856,"Ġbake":10857,"eddy":10858,"Ġdash":10859,"Ġlung":10860,"aroo":10861,"Ġeastern":10862,"Ġejac":10863,"Ġonward":10864,"Ġrecess":10865,"cend":10866,"addle":10867,"Ġseam":10868,"Ġsect":10869,"Ġfrowned":10870,"Ġshivered":10871,"thony":10872,"Ġexpend":10873,"ĠSim":10874,"ĠSaw":10875,"ĠMabel":10876,"Ġmanager":10877,"istry":10878,"ĠAN":10879,"Ġplaster":10880,"ortions":10881,"ĠGwynplaine":10882,"ĠTwo":10883,"plom":10884,"Ġener":10885,"ĠJess":10886,"ilda":10887,"Ġevenings":10888,"Ġslop":10889,"Ġindescri":10890,"Ġcarries":10891,"Ġlighter":10892,"Ġcurled":10893,"Ġskilful":10894,"Ġsentences":10895,"Ġstepping":10896,"isters":10897,"shire":10898,"ĠBrand":10899,"Ġshades":10900,"ĠTommy":10901,"Ġdivide":10902,"ĠScar":10903,"mitri":10904,"Ġmassive":10905,"Ġshrub":10906,"Ġstorms":10907,"ĠMademoiselle":10908,"ĠPerceval":10909,"Ġattendant":10910,"Ġpacking":10911,"Ġsinister":10912,"Ġlogical":10913,"Above":10914,"Ġorganization":10915,"Ġgleaming":10916,"Ġdiplom":10917,"Ġhypocr":10918,"Ġblanket":10919,"Ġmerchants":10920,"Ġceremon":10921,"Ġrelieve":10922,"Ġmechanically":10923,"aisy":10924,"Ġtablesp":10925,"Ġcherished":10926,"Ġneatly":10927,"Ġmeadows":10928,"ĠMiller":10929,"Ġbulk":10930,"Ġadvertis":10931,"Ġtrifling":10932,"Ġinterpretation":10933,"Ġresignation":10934,"Ġprecaution":10935,"ĠLevin":10936,"ĠDamon":10937,"Ġimmortal":10938,"Ġboughs":10939,"Ġfantastic":10940,"Cons":10941,"IE":10942,"Mrs":10943,"Often":10944,"bles":10945,"ipper":10946,"lace":10947,"rat":10948,"yram":10949,"Ġtavern":10950,"Ġwrest":10951,"Ġbaking":10952,"Ġborder":10953,"Ġmun":10954,"eded":10955,"Ġcate":10956,"Ġdame":10957,"Ġdyn":10958,"oral":10959,"Ġbef":10960,"utive":10961,"Ġstab":10962,"Ġstumbled":10963,"hers":10964,"ieu":10965,"Ġorphan":10966,"Ġabol":10967,"ĠBenn":10968,"Ġplum":10969,"elcome":10970,"agers":10971,"Ġoverth":10972,"Ġoverlook":10973,"Ġflashing":10974,"ĠJerry":10975,"Ġpretending":10976,"Ġbegging":10977,"angaroo":10978,"Ġpassive":10979,"Ġrightly":10980,"undered":10981,"nothing":10982,"Ġdiscreet":10983,"Ġassigned":10984,"ĠTheir":10985,"Ġbuzz":10986,"Ġairship":10987,"ĠUt":10988,"Ġexpressing":10989,"Ġstriving":10990,"Ġprovin":10991,"Ġgravel":10992,"Ġportions":10993,"Ġposts":10994,"Ġfurnace":10995,"Ġharmless":10996,"ĠZe":10997,"Ġfoliage":10998,"ĠJimmy":10999,"Ġprair":11000,"ulsion":11001,"Ġendeavored":11002,"Ġnervously":11003,"Ġinventor":11004,"ĠTurk":11005,"Ġquantities":11006,"Ġknocking":11007,"Ġfaculty":11008,"Ġlacking":11009,"Ġintensely":11010,"ĠCanada":11011,"Ġindulgence":11012,"Ġfilm":11013,"ĠMontgomery":11014,"ĠFrancisco":11015,"Ġfeeding":11016,"Ġsports":11017,"ĠBaba":11018,"Ġpilot":11019,"Ġgrinned":11020,"Twenty":11021,"ĠArabella":11022,"Ġlazy":11023,"ĠKeith":11024,"ĠNaples":11025,"George":11026,"Ġdisliked":11027,"Ġextremity":11028,"HER":11029,"OC":11030,"bons":11031,"gard":11032,"gage":11033,"pie":11034,"uction":11035,"zan":11036,"Ġmol":11037,"Ġfuel":11038,"Ġhook":11039,"Ġlid":11040,"atically":11041,"idity":11042,"lysses":11043,"ĠInt":11044,"cember":11045,"ayne":11046,"iry":11047,"Ġstif":11048,"ademy":11049,"Ġrider":11050,"Ġfrock":11051,"Ġsuits":11052,"ĠMir":11053,"ĠMaxim":11054,"ĠApp":11055,"unned":11056,"Ġgoal":11057,"ĠPart":11058,"Ġplough":11059,"Ġplane":11060,"Ġquer":11061,"ĠTime":11062,"ĠTuesday":11063,"Ġamend":11064,"ĠFogg":11065,"Ġadj":11066,"ĠJon":11067,"ĠNovember":11068,"Ġslumber":11069,"weet":11070,"Ġcrush":11071,"Ġretained":11072,"Ġattribut":11073,"Ġworker":11074,"Ġsubord":11075,"Ġexpand":11076,"Ġpurity":11077,"Ġterrace":11078,"insmore":11079,"Ġgenerations":11080,"Ġcolony":11081,"Ġjoint":11082,"Ġprominent":11083,"Ġsque":11084,"Ġangle":11085,"Ġstrikes":11086,"Ġridden":11087,"Ġtorch":11088,"Ġremarkably":11089,"Ġcomplained":11090,"ĠWhit":11091,"Ġyelled":11092,"Ġmessages":11093,"Ġlordship":11094,"Ġtemperament":11095,"Ġastonishing":11096,"Ġstarving":11097,"Ġshadowy":11098,"Ġscratched":11099,"coming":11100,"ĠPhill":11101,"Ġruler":11102,"Ġyielding":11103,"Ġregretted":11104,"Exc":11105,"Ġfolds":11106,"Ġmultipl":11107,"ĠNathan":11108,"ĠLynde":11109,"Ġannoyance":11110,"Ġillustration":11111,"Ġinvestigation":11112,"Ġascend":11113,"Ġvacant":11114,"Ġperplexed":11115,"Ġbonds":11116,"Ġducks":11117,"Ġproclaimed":11118,"ĠClement":11119,"Ġchuckled":11120,"Ġglacier":11121,"Ġannouncement":11122,"ĠRoger":11123,"Evidently":11124,"Ġungrate":11125,"Ġbarricade":11126,"?...":11127,"Pat":11128,"UM":11129,"fare":11130,"rained":11131,"ruth":11132,"uccess":11133,"Ġawe":11134,"inarily":11135,"Ġmaker":11136,"Ġfainted":11137,"enched":11138,"Ġholl":11139,"Ġheated":11140,"anley":11141,"oming":11142,"Ġbeer":11143,"Ġreared":11144,"alog":11145,"Ġwhipped":11146,"Ġsucc":11147,"Ġupwards":11148,"usalem":11149,"Ġmanly":11150,"Ġliv":11151,"Ġabuse":11152,"ĠBurn":11153,"ĠPink":11154,"ĠPope":11155,"Ġarbit":11156,"ĠLeslie":11157,"ĠTim":11158,"ĠDE":11159,"ĠDin":11160,"Ġroaring":11161,"Ġblushing":11162,"ĠFe":11163,"Ġador":11164,"Ġpartial":11165,"Ġchapel":11166,"Ġglowed":11167,"Ġslopes":11168,"Ġcomprom":11169,"ĠOz":11170,"Ġharbour":11171,"Ġsergeant":11172,"ensed":11173,"uben":11174,"Ġdiffer":11175,"Ġdrown":11176,"ceptions":11177,"Ġcorps":11178,"Ġrefined":11179,"Ġskull":11180,"Ġsketch":11181,"Ġdarker":11182,"Ġstealth":11183,"ĠMaria":11184,"Ġcontinent":11185,"Ġcontinual":11186,"Ġdetected":11187,"Ġfiner":11188,"Ġdecis":11189,"Ġdepressed":11190,"Ġdeepest":11191,"Ġsignature":11192,"Ġraven":11193,"ĠYet":11194,"ĠIsabella":11195,"Ġlimp":11196,"ĠCharley":11197,"ĠCharlie":11198,"Ġcabb":11199,"Ġstrolled":11200,"Ġelected":11201,"Ġdescending":11202,"Ġexercised":11203,"Ġbleeding":11204,"Ġnineteenth":11205,"Ġproofs":11206,"Ġturf":11207,"Ġprospects":11208,"Ġhinder":11209,"Prince":11210,"Ġnobles":11211,"Ġfoam":11212,"Ġascended":11213,"Ġproducts":11214,"Ġpenetrated":11215,"Ġliquor":11216,"Ġsignificant":11217,"Ġcruelly":11218,"Ġtransferred":11219,"Ġgoverness":11220,"Ġdeposited":11221,"ĠBessy":11222,"Ġfowl":11223,"ĠRostov":11224,"Ġintolerable":11225,"Ġpilgrim":11226,"Ġunnecessary":11227,"Ġtablespoonful":11228,"ALL":11229,"Cut":11230,"Hans":11231,"Master":11232,"Try":11233,"UL":11234,"bbed":11235,"iors":11236,"wright":11237,"Ġtips":11238,"Ġsher":11239,"ougl":11240,"itimate":11241,"isation":11242,"isons":11243,"Ġoft":11244,"Ġdies":11245,"Ġpic":11246,"Ġlugg":11247,"anned":11248,"Ġnigh":11249,"Ġbeck":11250,"icular":11251,"Ġwhim":11252,"urally":11253,"ado":11254,"amble":11255,"aines":11256,"ession":11257,"Ġkettle":11258,"Ġshots":11259,"Ġconsec":11260,"Ġextending":11261,"usively":11262,"ĠSon":11263,"ĠSix":11264,"anton":11265,"Ġliable":11266,"Ġintensity":11267,"raoh":11268,"ĠBol":11269,"Ġlege":11270,"Ġplump":11271,"Ġprover":11272,"ĠGirl":11273,"Ġbrushed":11274,"Ġtract":11275,"ĠDEAR":11276,"ĠDinsmore":11277,"ĠHIS":11278,"Ġshapes":11279,"Ġdaybreak":11280,"Ġpreacher":11281,"Ġstrings":11282,"Ġsmote":11283,"Ġdeserves":11284,"Ġcrater":11285,"ĠOctober":11286,"Ġlighting":11287,"landers":11288,"Ġrests":11289,"Ġclearer":11290,"Ġpleases":11291,"ĠHel":11292,"Ġhumbly":11293,"aza":11294,"Ġdecre":11295,"Ġexcite":11296,"Ġartillery":11297,"Ġburd":11298,"Ġredd":11299,"Ġmistakes":11300,"Ġparaly":11301,"Ġmagaz":11302,"ĠUnivers":11303,"Ġsalvation":11304,"Alice":11305,"Ġprobability":11306,"Ġlabors":11307,"joining":11308,"ĠInn":11309,"Ġoccurs":11310,"ĠCharlotte":11311,"ĠHarold":11312,"Ġbursting":11313,"Ġstormy":11314,"Ġstrode":11315,"Ġadmiring":11316,"Ġfavourable":11317,"Ġscrub":11318,"Ġessentially":11319,"Ġrecords":11320,"Ġterritory":11321,"Ġruled":11322,"Ġaudible":11323,"Ġlogs":11324,"Ġinstinctively":11325,"ĠPaula":11326,"Ġrestrain":11327,"Ġtribute":11328,"Ġexcessive":11329,"Ġesteemed":11330,"Ġfundamental":11331,"Ġgrip":11332,"Ġsanct":11333,"Ġbridle":11334,"Ġenclosed":11335,"Ġmantle":11336,"Ġadministration":11337,"ĠHyacinth":11338,"Ġtyranny":11339,"Ġperplexity":11340,"Ġinvalid":11341,"Ġsublime":11342,"Ġtragic":11343,"Ġabyss":11344,"Mon":11345,"Paul":11346,"Ste":11347,"rude":11348,"uer":11349,"woman":11350,"ini":11351,"Ġtheories":11352,"Ġwires":11353,"Ġbud":11354,"Ġmused":11355,"Ġcel":11356,"Ġgulf":11357,"urous":11358,"urbed":11359,"Ġrif":11360,"Ġnoticing":11361,"Ġsage":11362,"Ġbutcher":11363,"Ġallowing":11364,"Ġshove":11365,"thirty":11366,"ĠSoph":11367,"ĠMung":11368,"ĠAven":11369,"ĠBet":11370,"ĠBal":11371,"ĠBumble":11372,"ĠBruce":11373,"unces":11374,"umm":11375,"elled":11376,"Ġquivered":11377,"Ġspake":11378,"Ġtrout":11379,"Ġtroop":11380,"Ġclapped":11381,"ĠHotel":11382,"ĠNik":11383,"ossibly":11384,"Ġcourts":11385,"soever":11386,"ĠVincent":11387,"Ġinterrog":11388,"Ġcurls":11389,"Ġmonop":11390,"Ġincomp":11391,"Ġhighness":11392,"Ġsimult":11393,"Ġextract":11394,"Ġsnuff":11395,"onya":11396,"Ġsorrows":11397,"Ġesther":11398,"Ġbottles":11399,"Ġmemor":11400,"Ġcourtiers":11401,"Ġauthors":11402,"Ġclimate":11403,"Ġnegative":11404,"Ġcosts":11405,"Ġwisely":11406,"ylvania":11407,"ĠQuar":11408,"Ġdamned":11409,"Ġundertaking":11410,"Ġacquaintances":11411,"twelve":11412,"Ġobstin":11413,"Ġappealed":11414,"ĠCalhoun":11415,"ĠExcellency":11416,"Ġsettlement":11417,"ĠCanad":11418,"Ġgriev":11419,"Ġpreceded":11420,"Ġtotally":11421,"Ġblaze":11422,"ĠChancell":11423,"Ġcontracted":11424,"avering":11425,"ĠConstance":11426,"Ġlingering":11427,"Ġfulfil":11428,"Others":11429,"Ġticket":11430,"ĠFarmer":11431,"Ġtrumpet":11432,"Ġexplosion":11433,"Eliz":11434,"Ġgarrison":11435,"entlemen":11436,"ĠWiggily":11437,"ouglas":11438,",)":11439,"Dor":11440,"Must":11441,"Mamma":11442,"Pretty":11443,"Six":11444,"bie":11445,"ds":11446,"dri":11447,"pill":11448,"sse":11449,"tell":11450,"Ġwoo":11451,"Ġounces":11452,"erland":11453,"Ġbounds":11454,"Ġpige":11455,"Ġlumber":11456,"oting":11457,"Ġster":11458,"adays":11459,"iless":11460,"quar":11461,"Ġconverse":11462,"Help":11463,"ĠSpe":11464,"ĠSuff":11465,"ĠMass":11466,"Ġknot":11467,"rah":11468,"raged":11469,"ersed":11470,"oline":11471,"ĠBall":11472,"ĠBib":11473,"unction":11474,"ĠGe":11475,"odge":11476,"ĠLetty":11477,"ĠDixon":11478,"assed":11479,"ineas":11480,"mean":11481,"angling":11482,"aterpill":11483,"Ġcompare":11484,"everly":11485,"Ġendured":11486,"ubert":11487,"Ġacres":11488,"Ġsecre":11489,"Ġactors":11490,"Ġdrift":11491,"Ġsubmitted":11492,"Ġdiscretion":11493,"Ġregained":11494,"Forgive":11495,"Ġincor":11496,"Ġincidents":11497,"Ġrealised":11498,"Ġstepmother":11499,"Ġfootman":11500,"Ġpatches":11501,"Ġpainfully":11502,"Ġhairs":11503,"Ġrespecting":11504,"hammed":11505,"Ġpayment":11506,"Ġtransform":11507,"Ġstripped":11508,"ĠClare":11509,"ĠCaes":11510,"ĠGrushenka":11511,"ĠDean":11512,"Ġrobes":11513,"Ġmiracles":11514,"Ġsympathetic":11515,"ĠDora":11516,"ippi":11517,"Ġpitched":11518,"Ġendeavour":11519,"Ġmatches":11520,"Ġinhabited":11521,"Ġuneasily":11522,"ĠBobby":11523,"Ġsexual":11524,"Ġneighboring":11525,"Ġunusually":11526,"Ġepis":11527,"ĠMountain":11528,"ĠHamilton":11529,"Ġprosperous":11530,"Ġprejudices":11531,"Ġphenomenon":11532,"ĠDelaw":11533,"Ġbuffalo":11534,"Ġconcentrated":11535,"Ġautomob":11536,"ĠSenator":11537,"Ġeccentric":11538,"Ġancestors":11539,"ĠLeonora":11540,"Ġconjecture":11541,"Ġhypothesis":11542,"Whenever":11543,"';":11544,"Kat":11545,"OO":11546,"Serve":11547,"Slow":11548,"TE":11549,"UST":11550,"came":11551,"called":11552,"eered":11553,"part":11554,"rons":11555,"uate":11556,"worthy":11557,"Ġtu":11558,"Ġtack":11559,"inor":11560,"Ġoy":11561,"ouquet":11562,"Ġmoust":11563,"itous":11564,"Ġfid":11565,"Ġfiend":11566,"Ġpint":11567,"Ġhem":11568,"asse":11569,"Ġnail":11570,"Ġhail":11571,"Ġgross":11572,"iders":11573,"urther":11574,"Ġseeds":11575,"roken":11576,"Ġkid":11577,"thought":11578,"pending":11579,"ĠSaul":11580,"Ġvind":11581,"ĠAra":11582,"Ġabomin":11583,"Ġunqu":11584,"Ġunseen":11585,"ĠHur":11586,"Ġimitation":11587,"ĠWoo":11588,"Ġbliss":11589,"cile":11590,"Ġsmoot":11591,"Ġpartners":11592,"Ġimpass":11593,"Ġharp":11594,"Ġworkman":11595,"ggotty":11596,"Ġeminent":11597,"vention":11598,"Ġworlds":11599,"enery":11600,"ruly":11601,"Ġconfeder":11602,"Ġrefrain":11603,"Ġfactories":11604,"Ġslew":11605,"Ġformation":11606,"Ġgreed":11607,"ooner":11608,"eys":11609,"Ġcuts":11610,"Ġranch":11611,"ĠYour":11612,"Ġmerrily":11613,"Stand":11614,"Ġdevout":11615,"Ġeffected":11616,"Ġescaping":11617,"Ġdestination":11618,"ussy":11619,"mediately":11620,"Ġexamples":11621,"itching":11622,"Ġinquis":11623,"Ġresulted":11624,"ĠEdwin":11625,"Ġcostly":11626,"Looking":11627,"Ġreflecting":11628,"Ġtongues":11629,"ĠLucian":11630,"ĠThorpe":11631,"Ġcommunicated":11632,"OUR":11633,"Ġcupboard":11634,"Ġroofs":11635,"Ġurge":11636,"Ġlaboratory":11637,"Ġregularly":11638,"ĠEuropean":11639,"Ġendeavor":11640,"Ġentertainment":11641,"Ġmatthew":11642,"Ġinterpre":11643,"winter":11644,"Ġcautious":11645,"Ġconsulting":11646,"Ġschemes":11647,"Ġsingularly":11648,"Ġhinted":11649,"Ġfemales":11650,"Black":11651,"Ġlandlady":11652,"Ġfluttered":11653,"Ġensued":11654,"ĠAgnes":11655,"ĠJenks":11656,"Ġreluctantly":11657,"Ġnoiseless":11658,"Ġclutched":11659,"Ġeloquence":11660,"Ġindefinite":11661,"ĠPetersburg":11662,"ĠMulligan":11663,"Ġmarvellous":11664,"Ġlungs":11665,"cill":11666,"good":11667,"jamin":11668,"ronsie":11669,"uvel":11670,"vis":11671,"za":11672,"Ġaugust":11673,"Ġounce":11674,"Ġbaff":11675,"Ġmuzz":11676,"ednesday":11677,"Ġfost":11678,"Ġfern":11679,"Ġpious":11680,"Ġpaws":11681,"Ġgal":11682,"otic":11683,"Ġeternity":11684,"Ġyach":11685,"Ġrecl":11686,"Ġumbrella":11687,"Ġrug":11688,"Ġbutler":11689,"riers":11690,"Ġalliance":11691,"ulent":11692,"ulus":11693,"thm":11694,"ĠSwed":11695,"ĠMaid":11696,"antin":11697,"ĠCow":11698,"ĠCons":11699,"ĠCros":11700,"Ġouts":11701,"ĠPoly":11702,"Ġshawl":11703,"ĠEastern":11704,"Ġchorus":11705,"Ġhandled":11706,"ĠRus":11707,"Ġadvers":11708,"Ġpeaks":11709,"ĠNever":11710,"Ġcontribut":11711,"Ġslipping":11712,"Ġcarriages":11713,"Ġmorals":11714,"Ġcommence":11715,"Ġrecovery":11716,"Ġcharmed":11717,"ĠChip":11718,"Ġcoroner":11719,"Ġtrem":11720,"Ġinsign":11721,"ĠTheod":11722,"Ġairs":11723,"Ġgentleness":11724,"Ġcontinues":11725,"Ġtrivial":11726,"ĠThursday":11727,"bray":11728,"Ġmush":11729,"Ġtraps":11730,"ĠClover":11731,"ĠDef":11732,"Ġthickly":11733,"Ġthickness":11734,"Ġsnowy":11735,"Ġwithered":11736,"Ġspecific":11737,"Ġsubstitute":11738,"Ġscreaming":11739,"Ġnobleman":11740,"Ġcoolness":11741,"Anything":11742,"Ġvigil":11743,"Ġgestures":11744,"Ġindustrial":11745,"Ġwhistled":11746,"Ġwhistling":11747,"Ġconcerns":11748,"Ġplunge":11749,"Ġprecipice":11750,"Ġefficiency":11751,"Ġabundant":11752,"Scar":11753,"Ġavenue":11754,"ĠJerusalem":11755,"Ġresolutely":11756,"Ġinvoluntarily":11757,"Ġprelim":11758,"Ġdiscouraged":11759,"Ġproprietor":11760,"Ġintending":11761,"hastly":11762,"ĠFyodorovitch":11763,"Ġungrateful":11764,"uvelin":11765,".]":11766,"Buck":11767,"Eng":11768,"cence":11769,"dney":11770,"were":11771,"ĠYes":11772,"Ġtapped":11773,"hement":11774,"Ġsled":11775,"Ġwont":11776,"oult":11777,"Ġbald":11778,"Ġmice":11779,"enet":11780,"Ġtoad":11781,"inged":11782,"Ġdipped":11783,"Ġnom":11784,"Ġgale":11785,"Ġeman":11786,"imately":11787,"Ġreaches":11788,"Ġrattle":11789,"kered":11790,"ammy":11791,"Ġfrantic":11792,"roying":11793,"Ġconform":11794,"thorpe":11795,"Ġvit":11796,"ittens":11797,"unately":11798,"cky":11799,"agne":11800,"ĠDmitri":11801,"ĠWH":11802,"ĠWas":11803,"ĠRosal":11804,"icking":11805,"aph":11806,"actor":11807,"Ġunderground":11808,"Ġchariot":11809,"Ġscul":11810,"erers":11811,"Ġglided":11812,"Ġslim":11813,"Ġimposs":11814,"Ġwrinkled":11815,"Ġhorribly":11816,"ĠHeli":11817,"Ġhumming":11818,"Ġelbows":11819,"Ġsentin":11820,"Ġsixteenth":11821,"Ġcondes":11822,"ĠThree":11823,"Ġfifteenth":11824,"Ġdefined":11825,"Ġafflicted":11826,"Ġbarrier":11827,"Ġcircuit":11828,"Ġmounting":11829,"Ġexpert":11830,"Isabel":11831,"Ġarriving":11832,"Ġpossessions":11833,"Wherefore":11834,"Ġproducing":11835,"Ġcommonplace":11836,"Ġmouthful":11837,"exter":11838,"ĠGrim":11839,"ĠDecember":11840,"Ġviolet":11841,"Ġlimb":11842,"Ġbabe":11843,"Ġlanguages":11844,"Ġcleaned":11845,"Ġhostess":11846,"ĠDoris":11847,"Ġpotential":11848,"Ġdiscussing":11849,"Ġweariness":11850,"Ġimperative":11851,"Ġrejoice":11852,"ĠPlace":11853,"ĠGreece":11854,"Ġborrowed":11855,"Ġaimed":11856,"THER":11857,"Ġcorresponding":11858,"Ġunlucky":11859,"Ġinstructed":11860,"Ġsentimental":11861,"Ġnobility":11862,"ĠDaniel":11863,"Ġerected":11864,"ĠBabyl":11865,"Ġribbon":11866,"Ġsoothing":11867,"ĠWallace":11868,"Ġdesirous":11869,"elieve":11870,"Ġresemble":11871,"ĠCollege":11872,"Ġinherit":11873,"Ġsiege":11874,"Ġfertile":11875,"Ġdaresay":11876,"Ġcarpenter":11877,"Ġequipment":11878,"ĠChancellor":11879,"Bar":11880,"Billy":11881,"Diana":11882,"Mor":11883,"found":11884,"frey":11885,"gle":11886,"mans":11887,"norm":11888,"yon":11889,"Ġtipt":11890,"Ġwreat":11891,"Ġbaked":11892,"Ġcul":11893,"Ġtooth":11894,"Ġditch":11895,"Ġpite":11896,"Ġpines":11897,"Ġhue":11898,"Ġheal":11899,"arant":11900,"arious":11901,"atches":11902,"owered":11903,"imble":11904,"stood":11905,"ĠIll":11906,"Ġrece":11907,"ioned":11908,"Ġfork":11909,"adale":11910,"Ġrans":11911,"ifteen":11912,"Ġsequ":11913,"ctic":11914,"rove":11915,"Ġdod":11916,"Ġdoings":11917,"Hello":11918,"Ġmanhood":11919,"rable":11920,"ounding":11921,"ĠBoy":11922,"ĠBee":11923,"Ġjaw":11924,"uminous":11925,"Ġplunder":11926,"Ġsped":11927,"odd":11928,"Ġtwelf":11929,"Ġunique":11930,"Ġprices":11931,"aren":11932,"ĠHop":11933,"ĠHorse":11934,"ĠEug":11935,"ishness":11936,"ĠFisher":11937,"ĠRem":11938,"ciences":11939,"ickle":11940,"Ġflocks":11941,"Ġhowl":11942,"Ġpreach":11943,"ĠNational":11944,"Ġchambers":11945,"Ġwhereby":11946,"ĠON":11947,"Ġopens":11948,"Ġcarav":11949,"Ġcounting":11950,"Ġrepet":11951,"Ġhomely":11952,"Ġarmour":11953,"rup":11954,"Ġdelir":11955,"ĠStu":11956,"Ġcheering":11957,"Ġrefusal":11958,"uthbert":11959,"Ġeighteenth":11960,"Ġskirt":11961,"Ġforemost":11962,"Ġbuying":11963,"Ġawait":11964,"Ġadmission":11965,"Ġhonesty":11966,"Ġbury":11967,"Ġdefended":11968,"Ġobjections":11969,"parable":11970,"ĠYan":11971,"ĠYellow":11972,"useum":11973,"Ġconsiderations":11974,"Ġhusbands":11975,"Ġcolle":11976,"Ġvehement":11977,"Ġtreaty":11978,"Ġsends":11979,"Ġchurchyard":11980,"Ġmaids":11981,"incerity":11982,"Ġpursuing":11983,"Ġsmoked":11984,"Ġshrink":11985,"Ġpreference":11986,"combe":11987,"annie":11988,"Ġundertaken":11989,"ĠEliza":11990,"Ġpoisoned":11991,"ĠChanning":11992,"Ġvicinity":11993,"Ġfulfilled":11994,"Ġvegetable":11995,"ĠDenis":11996,"Ġparsley":11997,"Ġcasual":11998,"Ġswayed":11999,"Ġlatest":12000,"Ġgoverned":12001,"Ġmoisture":12002,"Ġeloquent":12003,"Ġspinning":12004,"Ġalighted":12005,"Ġbrutal":12006,"writing":12007,"Ġpipes":12008,"Ġindispens":12009,"Ġsuperintendent":12010,"Ġconfronted":12011,"ĠCanadian":12012,"Ġsculpt":12013,"Ġtwelfth":12014,"Ac":12015,"Ever":12016,"LY":12017,"URE":12018,"bell":12019,"down":12020,"phy":12021,"va":12022,"wen":12023,"ndered":12024,"Ġbacked":12025,"Ġfiction":12026,"Ġdus":12027,"Ġdiam":12028,"Ġheaped":12029,"Ġlime":12030,"otism":12031,"Ġrud":12032,"acr":12033,"Ġath":12034,"illes":12035,"Ġsung":12036,"Ġdoomed":12037,"ĠCra":12038,"Ġknives":12039,"Ġaloft":12040,"Ġnoises":12041,"rawn":12042,"ĠAli":12043,"uno":12044,"eline":12045,"Ġprohib":12046,"ĠGo":12047,"ĠGib":12048,"Ġtray":12049,"Ġtrades":12050,"ĠTest":12051,"ĠDog":12052,"ĠDarling":12053,"ĠHan":12054,"ĠHood":12055,"Ġoverboard":12056,"Ġchival":12057,"ĠWITH":12058,"ĠRon":12059,"Ġperceiving":12060,"Ġscow":12061,"Ġscal":12062,"Ġsciss":12063,"Ġwhereupon":12064,"issippi":12065,"Ġslices":12066,"Ġindec":12067,"ĠOri":12068,"ĠOdy":12069,"Ġmorality":12070,"Ġeverl":12071,"Ġsupple":12072,"awber":12073,"Ġrepay":12074,"Ġhomeward":12075,"Ġsatin":12076,"Ġdrama":12077,"Ġguarant":12078,"Ġdiscern":12079,"eryl":12080,"ocity":12081,"Ġtenant":12082,"Ġbarren":12083,"ĠAnthony":12084,"Ġpasture":12085,"romwell":12086,"Ġdestroying":12087,"ĠAladdin":12088,"Ġtransformed":12089,"Ġsalute":12090,"Ġattempting":12091,"Ġlabore":12092,"Ġmiller":12093,"ĠElinor":12094,"Ġsplendor":12095,"ĠShaggy":12096,"Ġhonestly":12097,"Ġexercises":12098,"Ġlogic":12099,"Ġwickedness":12100,"twas":12101,"Ġglee":12102,"Ġcorrected":12103,"Ġconquest":12104,"Ġturkey":12105,"Ġghosts":12106,"OME":12107,"Ġfilth":12108,"ĠAnthea":12109,"Ġillustrious":12110,"Grand":12111,"Ġexertion":12112,"Ġmonkeys":12113,"Ġconfidential":12114,"Ġfascinating":12115,"ĠCaroline":12116,"Ġsacrificed":12117,"Ġbustle":12118,"Ġbathed":12119,"Ġhazard":12120,"Ġmantel":12121,"Ġultimate":12122,"Frank":12123,"riggs":12124,"Ġvigorously":12125,"Ġmuffled":12126,"ĠCardinal":12127,"ĠProtestant":12128,"Ġhoofs":12129,"Ġsarc":12130,"Ġearthquake":12131,"Ġdefinition":12132,"Ġtasks":12133,"Ġoutstretched":12134,"Ġindescribable":12135,"Early":12136,"Gentlemen":12137,"Lou":12138,"ME":12139,"gency":12140,"put":12141,"ucy":12142,"wind":12143,"Ġwider":12144,"recked":12145,"ouched":12146,"Ġbail":12147,"Ġbowing":12148,"Ġment":12149,"ench":12150,"Ġtoy":12151,"oning":12152,"Ġdub":12153,"Ġpoo":12154,"Ġpulp":12155,"Ġgild":12156,"Ġghastly":12157,"idious":12158,"Ġonto":12159,"Ġascent":12160,"Ġank":12161,"ĠSur":12162,"ĠMike":12163,"Ġnostr":12164,"istak":12165,"olis":12166,"ĠBark":12167,"unless":12168,"umsy":12169,"oughby":12170,"Ġquad":12171,"Ġunnatural":12172,"opin":12173,"Ġcler":12174,"Ġblocks":12175,"Ġadequ":12176,"ertrude":12177,"Ġspeck":12178,"Ġglist":12179,"Ġseemingly":12180,"Ġhereafter":12181,"Ġfails":12182,"lesi":12183,",'\"":12184,"ivable":12185,"Ġending":12186,"Ġendowed":12187,"Ġdistribution":12188,"Ġrepaired":12189,"ltered":12190,"Ġdrows":12191,"Ġrestaur":12192,"ĠVic":12193,"ĠStacy":12194,"Ġtreason":12195,"Ġrefusing":12196,"obs":12197,"Ġbeauties":12198,"ĠMarquis":12199,"ĠUlysses":12200,"Ġexplo":12201,"Ġartists":12202,"eyond":12203,"cribe":12204,"Ġshaded":12205,"Ġestates":12206,"Ġheavier":12207,"Ġdeclaration":12208,"Ġrocking":12209,"Ġpetty":12210,"Ġsaluted":12211,"Ġdespatched":12212,"Ġacquies":12213,"ĠScra":12214,"Ġgovernments":12215,"Ġkisses":12216,"Ġemptied":12217,"Ġsandy":12218,"ĠPeggotty":12219,"Ġunequ":12220,"Ġaccidental":12221,"Ġvalleys":12222,"Ġsaints":12223,"asmuch":12224,"Ġamazing":12225,"ĠGreeks":12226,"ĠMountjoy":12227,"Ġresembled":12228,"Ġfragment":12229,"Ġpistols":12230,"ĠMinister":12231,"averley":12232,"Ġinsulted":12233,"Ġprivileges":12234,"Ġthreads":12235,"Ġhenceforth":12236,"ĠSwift":12237,"Ġcontemplation":12238,"ĠSchool":12239,"stein":12240,"Ġdazzling":12241,"Ġpattern":12242,"Ġpledge":12243,"Ġscrutin":12244,"Ġextravagant":12245,"ĠGenji":12246,"Ġemphatically":12247,"ĠMortimer":12248,"Ġembroidered":12249,"ĠSaunders":12250,"occup":12251,"Ġwhirled":12252,"Ġextingu":12253,"Excuse":12254,"ĠUniversity":12255,"Slowly":12256,"Ġscissors":12257,"Fred":12258,"Pierre":12259,"mitting":12260,"nels":12261,"oking":12262,"rust":12263,"riment":12264,"vin":12265,"Ġicy":12266,"Ġsill":12267,"Ġwilt":12268,"Ġbachelor":12269,"Ġdata":12270,"Ġhire":12271,"arath":12272,"lem":12273,"irteen":12274,"Ġsturd":12275,"Ġselling":12276,"Ġfrail":12277,"Ġdoom":12278,"Ġupro":12279,"Ġconverted":12280,"Ġexal":12281,"ustra":12282,"ĠSanta":12283,"ĠAmb":12284,"olics":12285,"ĠPre":12286,"ĠPot":12287,"ĠPont":12288,"ĠPole":12289,"ĠGar":12290,"Ġarisen":12291,"ĠLenn":12292,"ĠTW":12293,"ĠTot":12294,"ĠDal":12295,"ĠDaisy":12296,"ĠWick":12297,"ĠFR":12298,"ĠFre":12299,"Ġadjoining":12300,"ĠJem":12301,"Ġsmith":12302,"Ġscatter":12303,"Ġscales":12304,"cliff":12305,"ĠOur":12306,"Ġconsumed":12307,"alking":12308,"atteras":12309,"Ġreporter":12310,"forward":12311,"Ġconfounded":12312,"rowing":12313,"Ġcurved":12314,"Ġfinan":12315,"Ġtries":12316,"eco":12317,"Ġmists":12318,"Ġpathetic":12319,"Ġmuscle":12320,"Ġdraws":12321,"Ġpractised":12322,"ĠCarroll":12323,"END":12324,"itcher":12325,"Ġgroan":12326,"nsylvania":12327,"ĠShaw":12328,"Ġspeechless":12329,"ĠAthen":12330,"Ġsorrowful":12331,"ITY":12332,"chance":12333,"change":12334,"Ġdismounted":12335,"Short":12336,"Ġmalign":12337,"ĠMyles":12338,"Ġtroublesome":12339,"Ġpiercing":12340,"ebruary":12341,"Ġshriek":12342,"Ġunmistak":12343,"Ġperilous":12344,"Ġcompetition":12345,"Ġefficient":12346,"ĠHenrietta":12347,"Ġcomplaints":12348,"Ġtunnel":12349,"Ġscholars":12350,"Ġmournful":12351,"Ġloyalty":12352,"irectly":12353,"Ġrevelation":12354,"ĠOtto":12355,"Ġinsects":12356,"Ġorgans":12357,"Ġprostrate":12358,"Ġprolonged":12359,"Philip":12360,"Ġcourteous":12361,"Ġwagons":12362,"ĠCossacks":12363,"idelity":12364,"Oliver":12365,"Ġsultan":12366,"Ġadorned":12367,"Ġindispensable":12368,"Ġdusky":12369,"arathustra":12370,"Bel":12371,"King":12372,"bble":12373,"fax":12374,"hurst":12375,"human":12376,"mate":12377,"nest":12378,"ront":12379,"Ġx":12380,"Ġwipe":12381,"Ġost":12382,"eries":12383,"Ġferv":12384,"Ġcad":12385,"Ġdome":12386,"Ġpump":12387,"Ġpudding":12388,"Ġlac":12389,"Ġlatch":12390,"Ġlonel":12391,"Ġluke":12392,"athed":12393,"Ġhagg":12394,"oway":12395,"Ġreins":12396,"Ġweeds":12397,"amations":12398,"Ġkite":12399,"Ġbuttered":12400,"riv":12401,"those":12402,"pecial":12403,"ĠAct":12404,"Ġworm":12405,"akov":12406,"ĠPan":12407,"Ġplucked":12408,"ĠGiles":12409,"Ġafresh":12410,"ĠLud":12411,"Ġclumsy":12412,"Ġdisad":12413,"Ġnowadays":12414,"ishly":12415,"ĠRow":12416,"apse":12417,"Ġsmashed":12418,"Ġglare":12419,"ansy":12420,"Ġserves":12421,"Ġendurance":12422,"renched":12423,"avia":12424,"jected":12425,"Ġinsane":12426,"Ġinsuff":12427,"Ġelapsed":12428,"Ġdarkened":12429,"Ġsuffrage":12430,"Ġcontinuing":12431,"Ġunchan":12432,"Ġillusion":12433,"Ġpatted":12434,"aska":12435,"Ġestimate":12436,"Behind":12437,"ĠButton":12438,"Already":12439,"Ġtraveler":12440,"Ġgrandeur":12441,"ĠGray":12442,"Ġsuggestions":12443,"Ġsettling":12444,"Ġposted":12445,"ĠAdela":12446,"Ġuttering":12447,"Ġcandy":12448,"Ġinterruption":12449,"Ġoriginally":12450,"Ġsplendour":12451,"ĠSociety":12452,"Ġtowers":12453,"Ġbands":12454,"Ġrejoicing":12455,"ĠGuiche":12456,"Ġcompanionship":12457,"Ġundertook":12458,"ĠRedmain":12459,"ĠGlass":12460,"flies":12461,"Ġexhibition":12462,"ĠEgyptian":12463,"ĠVenice":12464,"ĠMicawber":12465,"Ġvegetables":12466,"Ġachieved":12467,"ĠPatty":12468,"Ġsleeves":12469,"Ġtreacherous":12470,"Ġmarvelous":12471,"Ġperfume":12472,"Immediately":12473,"Ġimprisoned":12474,"Ġawakening":12475,"Ġspecimen":12476,"ĠSecret":12477,"Ġwhale":12478,"Ġjerked":12479,"Ġmusket":12480,"Colonel":12481,"Ġadapted":12482,"Ġdiscomfort":12483,"Ġvarying":12484,"Ġvenerable":12485,"Instantly":12486,"Ġisolated":12487,"ĠPackard":12488,"Ġluggage":12489,"driver":12490,"sseus":12491,"quarters":12492,"Ġmushroom":12493,"'.":12494,"ACE":12495,"Further":12496,"OH":12497,"Read":12498,"iating":12499,"mar":12500,"rich":12501,"Ġtro":12502,"hell":12503,"Ġsits":12504,"Ġmum":12505,"Ġdart":12506,"Ġpyram":12507,"Ġinfect":12508,"anes":12509,"Ġbeam":12510,"Ġyoke":12511,"Ġasyl":12512,"Ġwhites":12513,"Ġnotions":12514,"Ġherald":12515,"ooper":12516,"tery":12517,"Ġsecl":12518,"Ġsuicide":12519,"ppino":12520,"ĠSomet":12521,"ĠSister":12522,"ĠMas":12523,"ĠCad":12524,"aston":12525,"ĠArist":12526,"olay":12527,"ĠBry":12528,"Ġleve":12529,"igible":12530,"ĠThan":12531,"Ġclump":12532,"ĠWitch":12533,"ĠField":12534,"Ġflaming":12535,"oyle":12536,"ĠJerv":12537,"Ġthrice":12538,"actions":12539,"Ġscenery":12540,"Ġresisted":12541,"issy":12542,"Ġindisc":12543,"Ġboards":12544,"Ġreprodu":12545,"Ġreconc":12546,"Ġarmor":12547,"Ġchanced":12548,"mering":12549,"Ġhelm":12550,"Ġconfirm":12551,"Ġcurve":12552,"Ġcausing":12553,"Ġpoles":12554,"Ġquicker":12555,"Ġhorsemen":12556,"Ġcompanies":12557,"Ġmischie":12558,"Ġsights":12559,"Ġmodesty":12560,"Ġfavored":12561,"ledgeby":12562,"Ġdealt":12563,"Ġveter":12564,"Ġjoys":12565,"Ġtraveled":12566,"ĠSpenc":12567,"Ġaccepting":12568,"ĠWhile":12569,"Ġtyp":12570,"ĠHarriet":12571,"Ġearnestness":12572,"Ġrubber":12573,"ĠLuk":12574,"Ġhonourable":12575,"ĠDavis":12576,"Ġgarret":12577,"Ġmainly":12578,"Ġbullets":12579,"Ġdisgusted":12580,"Ġphilosoph":12581,"Ġgleamed":12582,"Ġheroic":12583,"Ġwestward":12584,"Ġsparks":12585,"Ġfeebly":12586,"Ġinterference":12587,"Ġappreciation":12588,"castle":12589,"Ġtalents":12590,"Ġdisciples":12591,"ĠHawkins":12592,"ĠApost":12593,"According":12594,"ĠOhio":12595,"Ġadministered":12596,"Ġprecautions":12597,"Ġinvoluntary":12598,"Ġmonoton":12599,"Ġkneeling":12600,"Ġmajestic":12601,"ĠSharp":12602,"Ġchronic":12603,"ĠForest":12604,"Ġneutral":12605,"ĠAdmiral":12606,"Ġcorporeal":12607,"Ġdynam":12608,"Ġrifles":12609,"Ġinsignific":12610,"Ġdiameter":12611,"ecoq":12612,"Beyond":12613,"Che":12614,"Run":12615,"ai":12616,"gate":12617,"giving":12618,"hin":12619,"point":12620,"rants":12621,"tical":12622,"uctor":12623,"wich":12624,"ĠâĢĶ":12625,"inqu":12626,"Ġsate":12627,"Ġomin":12628,"nda":12629,"Ġbacon":12630,"encing":12631,"Ġdanc":12632,"Ġpaw":12633,"Ġpupp":12634,"Ġhood":12635,"Ġhound":12636,"anna":12637,"Ġgust":12638,"Ġgaining":12639,"utable":12640,"Ġsam":12641,"Ġsheltered":12642,"Ġshilling":12643,"ĠCord":12644,"Ġvines":12645,"emet":12646,"osh":12647,"istration":12648,"Ġjelly":12649,"ĠPha":12650,"ĠPapa":12651,"Ġspoon":12652,"Ġspurs":12653,"ĠGord":12654,"ĠLiver":12655,"ĠTower":12656,"ĠTHAT":12657,"Ġclatter":12658,"ĠDown":12659,"ĠDouglas":12660,"Ġusur":12661,"asses":12662,"ĠHare":12663,"ĠEury":12664,"Ġbluff":12665,"ĠFitz":12666,"ĠFebruary":12667,"ickers":12668,"ĠJam":12669,"Ġchant":12670,"Ġbetrot":12671,"Ġcompens":12672,"airy":12673,"Ġdrug":12674,"Ġsubur":12675,"Ġrelent":12676,"Ġbreach":12677,"Ġmoor":12678,"Ġmonaster":12679,"ĠMississippi":12680,"Ġdoubled":12681,"Ġjoining":12682,"Ġblackness":12683,"Ġhonored":12684,"Ġburgl":12685,"Ġdevice":12686,"Ġdevils":12687,"Ġcaps":12688,"Ġproduces":12689,"ĠClay":12690,"Ġapost":12691,"Ġpenit":12692,"Ġviolin":12693,"evitch":12694,"ylvie":12695,"Ġgracefully":12696,"Ġalarming":12697,"Ġunfit":12698,"ridges":12699,"Ġscratch":12700,"Ġfloat":12701,"Ġmysteries":12702,"Ġdebts":12703,"ĠYoung":12704,"Ġturret":12705,"Ġradiance":12706,"Ġprompted":12707,"Ġmalice":12708,"Ġindulge":12709,"Ġwritings":12710,"Ġcontradiction":12711,"ĠArmstrong":12712,"ĠMuscular":12713,"ĠBarbara":12714,"Ġecclesi":12715,"Ġtortured":12716,"Ġbrooding":12717,"Ġdocuments":12718,"Ġsombre":12719,"Into":12720,"Fortunately":12721,"ĠHarding":12722,"Ġscrambled":12723,"umpty":12724,"Ġpeoples":12725,"Ġloung":12726,"Ġejaculated":12727,"ĠWoozy":12728,"Ġmuzzle":12729,"Scarcely":12730,"Ġrepetition":12731,"ĠOdysseus":12732,"Ġdisadvant":12733,"ĠLukashka":12734,"Count":12735,"iac":12736,"pro":12737,"sky":12738,"Ġaught":12739,"Ġaversion":12740,"ream":12741,"Ġcam":12742,"Ġcask":12743,"Ġtoilet":12744,"Ġdiet":12745,"Ġdances":12746,"Ġnun":12747,"Ġbeams":12748,"still":12749,"Ġrenown":12750,"Ġrugged":12751,"Ġhermit":12752,"acit":12753,"chin":12754,"Ġkin":12755,"allie":12756,"Ġshift":12757,"Ġshifted":12758,"ĠSax":12759,"ĠMen":12760,"ĠMet":12761,"ĠMamma":12762,"ntil":12763,"ĠCy":12764,"ĠCraw":12765,"arte":12766,"ĠAre":12767,"Ġabnorm":12768,"Ġlev":12769,"Ġcanal":12770,"ĠGa":12771,"Ġunity":12772,"ĠLuck":12773,"Ġammun":12774,"ĠHigg":12775,"ĠHalf":12776,"Ġovercoat":12777,"ĠRugg":12778,"ĠJar":12779,"ollo":12780,"ĠNell":12781,"Ġheadlong":12782,"Ġfawn":12783,"ĠONE":12784,"Ġshallow":12785,"gger":12786,"Ġsermon":12787,"Ġmargin":12788,"Ġcountless":12789,"Ġcoax":12790,"venth":12791,"Ġhopped":12792,"Ġsurgeon":12793,"arson":12794,"these":12795,"Ġrelics":12796,"ĠVrain":12797,"Ġassail":12798,"Ġmonument":12799,"Ġsket":12800,"Ġbestow":12801,"Ġfactor":12802,"Ġevils":12803,"Ġmetap":12804,"attie":12805,"Ġideals":12806,"Ġhopeful":12807,"Ġdetest":12808,"Ġexplod":12809,"Ġexpectations":12810,"Ġproportions":12811,"Ġspray":12812,"ĠArn":12813,"ugn":12814,"Ġdevote":12815,"Ġcapric":12816,"Ġpalp":12817,"Ġbrighter":12818,"Ġjoyful":12819,"Ġcomplac":12820,"Ġrichly":12821,"sequent":12822,"Ġweaker":12823,"Ġobligation":12824,"Ġinfluences":12825,"Ġbreadth":12826,"Ġstruggles":12827,"ĠGerda":12828,"Ġutterance":12829,"Ġhyd":12830,"Ġhanged":12831,"Ġgrapes":12832,"Ġverge":12833,"Ġstarved":12834,"ĠZarathustra":12835,"ĠPerhaps":12836,"Ġprocesses":12837,"Ġheathen":12838,"ĠPhronsie":12839,"Ġbaskets":12840,"Ġdamn":12841,"Ġrulers":12842,"Ġconstituted":12843,"Ġsteadfast":12844,"Ġrepresentatives":12845,"ĠCaliph":12846,"ĠAlexey":12847,"Ġindulged":12848,"Ġdesigns":12849,"Ġclubs":12850,"Ġrusty":12851,"Ġgrasping":12852,"Ġsubsist":12853,"Ġridicule":12854,"ĠBelg":12855,"ĠPenrod":12856,"Ġpsychology":12857,"ĠMohammed":12858,"Ġofficials":12859,"Ġoxen":12860,"Ġvolunteer":12861,"Ġperpetually":12862,"Ġfascinated":12863,"Ġfluttering":12864,"ĠCarolina":12865,"ĠWaller":12866,"ĠJenny":12867,"Ġrepentance":12868,"Ġenclosure":12869,"Ġaccuracy":12870,"Ġhistorical":12871,"Ġingenuity":12872,"Ġavailable":12873,"Ġphilosophers":12874,"Ġtube":12875,"ĠVictoria":12876,"Ġravine":12877,"Ġcongratulate":12878,"Ġaristocratic":12879,"ĠKentucky":12880,"Ġreceives":12881,"Ġbuttons":12882,"Ġrhythm":12883,"ĠGalloway":12884,"Ġsymbol":12885,"Ġopponent":12886,"ĠGospel":12887,"Ġbefallen":12888,"ĠEmpire":12889,"Impossible":12890,"Ġgirdle":12891,"Ġconspiracy":12892,"John":12893,"Ġchalk":12894,"Elizabeth":12895,"Ġsecrecy":12896,"ĠCaesar":12897,"ĠJervis":12898,"Ġammunition":12899,"AG":12900,"Ant":12901,"Back":12902,"Cor":12903,"Dr":12904,"General":12905,"Know":12906,"Light":12907,"Syn":12908,"bish":12909,"hl":12910,"iper":12911,"lings":12912,"matic":12913,"tieth":12914,"uh":12915,"ya":12916,"Ġted":12917,"Ġape":12918,"Ġwhar":12919,"requ":12920,"Ġbubb":12921,"Ġpork":12922,"utuz":12923,"etime":12924,"Ġriv":12925,"Ġripp":12926,"Ġanalog":12927,"rive":12928,"riel":12929,"Ġallies":12930,"ĠSpr":12931,"ĠSonya":12932,"ĠCaval":12933,"ĠAT":12934,"olm":12935,"Ġjug":12936,"augh":12937,"Ġtwinkling":12938,"ĠLab":12939,"ĠTus":12940,"ĠHubert":12941,"inea":12942,"Ġgrains":12943,"Ġimitate":12944,"ĠEames":12945,"Ġchick":12946,"ĠWednesday":12947,"ĠRoc":12948,"Ġperch":12949,"Ġperceptible":12950,"Ġpartially":12951,"Ġwherefore":12952,"Ġheadquarters":12953,"Ġcrushing":12954,"Ġconscient":12955,"Ġattributed":12956,"mann":12957,"Ġeminence":12958,"Ġperspiration":12959,"Ġswitch":12960,"thel":12961,"ĠChuck":12962,"Ġskirts":12963,"Ġrounded":12964,"Ġpersonage":12965,"ounge":12966,"Ġinfall":12967,"ĠUr":12968,"Ġsounding":12969,"Ġsignals":12970,"uffin":12971,"Ġpretence":12972,"Ġforts":12973,"Ġforgiveness":12974,"Ġdripping":12975,"Ġlegitimate":12976,"Ġcrosses":12977,"Ġcalf":12978,"owder":12979,"Ġsweetly":12980,"arently":12981,"Ġplanning":12982,"Ġlifetime":12983,"Ġstops":12984,"Ġrevived":12985,"Ġthyself":12986,"Ġhabitual":12987,"Ġcontrolled":12988,"Ġsubstances":12989,"Ġstarve":12990,"Ġbaggage":12991,"Ġargued":12992,"fortunately":12993,"Ġnorthward":12994,"Ġdiscovering":12995,"Ġorganized":12996,"Ġcabinet":12997,"Ġentertaining":12998,"ĠLawrence":12999,"Ġrewarded":13000,"Ġsmelling":13001,"Ġsexes":13002,"Ġmagnificence":13003,"Ġtravelers":13004,"Ġgrieve":13005,"Ġrustling":13006,"Ġmechanism":13007,"Ġbarking":13008,"Ġblazed":13009,"Ġdeliberate":13010,"Ġattentions":13011,"Ġnovelty":13012,"Ġrabbits":13013,"Ġgalloped":13014,"emyon":13015,"Ġcoolly":13016,"Ġwhirlwind":13017,"Ġnegroes":13018,"Ġdeceased":13019,"Ġingenious":13020,"Ġtranquill":13021,"Ġdispleased":13022,"ĠHarris":13023,"Ġimprisonment":13024,"Ġcushions":13025,"Ġdocument":13026,"Ġspecimens":13027,"Ġsuperstition":13028,"Ġberth":13029,"ĠAcademy":13030,"atisfied":13031,"ĠColumbia":13032,"Ġeyelids":13033,"Ġenveloped":13034,"Ġelaborate":13035,"ĠGermans":13036,"Ġfrenzy":13037,"Ġenergetic":13038,"Ġqueried":13039,"ĠPhillips":13040,"aterpillar":13041,"Ġautomobile":13042,"ĠHelium":13043,"ĠHopkins":13044,"Ġexalted":13045,"Ġmonotonous":13046,"utuzov":13047,"AST":13048,"Fare":13049,"OF":13050,"Women":13051,"bro":13052,"bus":13053,"bted":13054,"name":13055,"oir":13056,"ocious":13057,"pole":13058,"since":13059,"Ġties":13060,"Ġtiss":13061,"Ġtense":13062,"inals":13063,"Ġscept":13064,"Ġsincerity":13065,"Ġmales":13066,"Ġfath":13067,"Ġcripp":13068,"esacre":13069,"Ġlounge":13070,"anity":13071,"Ġgap":13072,"vered":13073,"Ġonion":13074,"Ġselection":13075,"ilney":13076,"Ġdove":13077,"Ġdost":13078,"quite":13079,"Ġshorter":13080,"ĠServ":13081,"ĠSpring":13082,"ĠMall":13083,"ĠCare":13084,"ousing":13085,"Ġtheme":13086,"ĠBunny":13087,"Ġgoats":13088,"ĠPut":13089,"ĠPall":13090,"ĠPitt":13091,"Ġplank":13092,"agin":13093,"Ġtrotted":13094,"Ġarising":13095,"ĠTeddy":13096,"ĠDO":13097,"ĠHad":13098,"ĠHER":13099,"Ġshaggy":13100,"Ġseeks":13101,"Ġoverheard":13102,"earing":13103,"ĠRuff":13104,"abilities":13105,"Ġflattered":13106,"Ġhowling":13107,"erton":13108,"ĠNE":13109,"Thereupon":13110,"Ġglor":13111,"berries":13112,"Ġdesol":13113,"Ġslice":13114,"Ġmenace":13115,"Ġindist":13116,"Ġserf":13117,"Ġdistributed":13118,"Ġpleading":13119,"Ġgotten":13120,"Ġactivities":13121,"Ġswoon":13122,"Ġsubsequent":13123,"Ġdisconc":13124,"ĠStone":13125,"Ġconfinement":13126,"ibal":13127,"Ġhumility":13128,"Ġsunrise":13129,"phick":13130,"Ġjoking":13131,"Ġrealm":13132,"Ġdepression":13133,"Ġdoubtfully":13134,"Ġhonors":13135,"Ġredeem":13136,"Ġaffl":13137,"Ġpausing":13138,"Ġsighted":13139,"Ġschooner":13140,"Ġsyll":13141,"Ġmuslin":13142,"Ġpenalty":13143,"OND":13144,"Ġarray":13145,"Ġoccasioned":13146,"ĠCarleton":13147,"Ġsuperfl":13148,"Ġproceeds":13149,"Ġfunctions":13150,"Ġhalls":13151,"ĠWilloughby":13152,"Ġpostp":13153,"ARD":13154,"Ġreview":13155,"Ġundist":13156,"Ġsickly":13157,"Ġprincesses":13158,"Ġobtaining":13159,"ĠMadam":13160,"Ġvainly":13161,"Ġcustomer":13162,"Ġcustomers":13163,"Ġvirtuous":13164,"Ġindebted":13165,"Ġrecording":13166,"ĠAsia":13167,"Ġtelegram":13168,"Ġinvolve":13169,"Ġenviron":13170,"Ġexceeding":13171,"Ġunlocked":13172,"Ġconvenience":13173,"ĠSteven":13174,"Ġtraditions":13175,"Ġobscurity":13176,"Ġdisguised":13177,"ergus":13178,"ĠArmadale":13179,"Ġferocious":13180,"Ġrenew":13181,"Ġnoisy":13182,"Ġswaying":13183,"Ġaccurate":13184,"Ġenlar":13185,"Ġtranquil":13186,"ribute":13187,"Ġanalysis":13188,"Ġsurveyed":13189,"ĠSilverbridge":13190,"ĠButterfly":13191,"Ġwholesome":13192,"Ġunreasonable":13193,"rehensible":13194,"ĠCarthage":13195,"Ġloneliness":13196,"emetery":13197,"Synonyms":13198,"Haven":13199,"Mitya":13200,"Part":13201,"ba":13202,"cus":13203,"cony":13204,"fit":13205,"ga":13206,"pence":13207,"sm":13208,"yers":13209,"Ġtil":13210,"Ġtents":13211,"Ġopt":13212,"ede":13213,"isms":13214,"Ġfists":13215,"enny":13216,"Ġtoe":13217,"Ġduration":13218,"orne":13219,"llow":13220,"Ġhounds":13221,"Ġnaval":13222,"Ġnasty":13223,"Ġecl":13224,"veying":13225,"aylor":13226,"Ġaspir":13227,"Ġseizing":13228,"Ġframed":13229,"ilp":13230,"Ġdepl":13231,"Ġdemean":13232,"Ġshiver":13233,"Ġcongreg":13234,"Ġexile":13235,"ĠMist":13236,"ĠCH":13237,"ourn":13238,"Ġalien":13239,"olph":13240,"ĠBeryl":13241,"Ġplent":13242,"ĠLorry":13243,"ĠTer":13244,"ĠTill":13245,"Ġdisf":13246,"Ġdisreg":13247,"Ġimpelled":13248,"ĠWoman":13249,"ĠWaverley":13250,"ĠFledgeby":13251,"ĠRoy":13252,"aboo":13253,"Ġflows":13254,"Ġperished":13255,"apes":13256,"Ġpeeping":13257,"Ġchast":13258,"Ġscri":13259,"Ġsliding":13260,"Ġimposing":13261,"Ġmorn":13262,"Ġinstruction":13263,"ictions":13264,"Ġrecru":13265,"Ġnatures":13266,"Ġregiments":13267,"Ġmonks":13268,"Ġconductor":13269,"Ġextinct":13270,"Ġespecial":13271,"Ġalongside":13272,"Ġstored":13273,"Ġmerits":13274,"Ġdemon":13275,"Ġdevices":13276,"Ġcharacteristics":13277,"Ġexcepting":13278,"Ġsweetest":13279,"Ġtravels":13280,"Everyone":13281,"Ġchiefs":13282,"Ġmills":13283,"incing":13284,"Ġfutile":13285,"Ġgroom":13286,"Ġdelicately":13287,"Ġshroud":13288,"Ġimpressive":13289,"ĠPeg":13290,"Ġgratify":13291,"burst":13292,"Ġurgent":13293,"Ġidol":13294,"Ġneighbouring":13295,"Ġrepresenting":13296,"ĠEarle":13297,"Ġbalcony":13298,"ĠThompson":13299,"Ġexhibit":13300,"Ġresembling":13301,"Ġidentical":13302,"ĠFranklin":13303,"ĠAugustine":13304,"Ġodious":13305,"Ġribbons":13306,"Ġdemonstration":13307,"Ġbathing":13308,"Ġresource":13309,"ĠWinterbourne":13310,"Ġbehavior":13311,"Ġilluminated":13312,"Ġinsolent":13313,"ĠScottish":13314,"ĠWinds":13315,"ĠCentral":13316,"Ġcandidate":13317,"Ġvexation":13318,"Ġprodigious":13319,"Ġincessantly":13320,"Ġfairest":13321,"ĠHorace":13322,"ĠCommissioner":13323,"Ġfabric":13324,"Ġepisode":13325,"Ġmoustache":13326,"ĠRussell":13327,"Ġimpossibility":13328,"Ġreceiver":13329,"Ġeverlasting":13330,"Ġextinguished":13331,"Cont":13332,"IAN":13333,"aite":13334,"gery":13335,"oiled":13336,"Ġ.\"":13337,"Ġtough":13338,"Ġtint":13339,"Ġwink":13340,"oulet":13341,"Ġcert":13342,"Ġcyl":13343,"Ġduly":13344,"Ġpane":13345,"Ġpots":13346,"Ġlain":13347,"Ġlump":13348,"ano":13349,"Ġbeak":13350,"Ġonions":13351,"Ġstoop":13352,"Ġracing":13353,"Ġrushes":13354,"Ġanec":13355,"kee":13356,"Ġsewing":13357,"Ġsund":13358,"Ġkins":13359,"ĠSult":13360,"Ġvotes":13361,"Ġknitting":13362,"emen":13363,"ĠBudd":13364,"Ġlegged":13365,"igne":13366,"ĠPRO":13367,"Ġplaint":13368,"Ġagg":13369,"Ġspaces":13370,"Ġspraw":13371,"ĠGun":13372,"ĠGasc":13373,"Ġbrink":13374,"Ġbricks":13375,"ĠLl":13376,"ĠHart":13377,"ĠHud":13378,"ineau":13379,"ĠFawn":13380,"aby":13381,"iley":13382,"Ġpoll":13383,"text":13384,"Ġmayor":13385,"Ġconserv":13386,"Ġretiring":13387,"Ġaccidents":13388,"sworth":13389,"Ġdistract":13390,"Ġsecuring":13391,"Ġcovers":13392,"Ġdrooping":13393,"Ġkindred":13394,"xton":13395,"Ġpresenting":13396,"Ġfinishing":13397,"Ġelevation":13398,"Ġpropriety":13399,"Ġbesee":13400,"umbered":13401,"Ġseverity":13402,"Ġexpressive":13403,"Ġparag":13404,"Ġequipped":13405,"Ġworthless":13406,"Ġaccounted":13407,"Ġjudging":13408,"Ġpublicly":13409,"ĠClavering":13410,"Ġpractise":13411,"Ġsolved":13412,"Ġgrowl":13413,"Ġlifeless":13414,"Ġconclusions":13415,"keye":13416,"Ġchoking":13417,"Ġmotioned":13418,"Ġblinded":13419,"ĠReuben":13420,"Ġpitied":13421,"Ġsupporting":13422,"Ġcrowns":13423,"ĠMilburgh":13424,"Ġlaun":13425,"Ġlaure":13426,"Ġowl":13427,"Ġencouraging":13428,"Ġbanished":13429,"Ġobstacles":13430,"Ġwidth":13431,"addles":13432,"Ġpinch":13433,"ĠBenjamin":13434,"aunted":13435,"Ġwheeled":13436,"Ġrebu":13437,"Ġprofoundly":13438,"Ġconcealment":13439,"ĠCheesacre":13440,"Ġbreeches":13441,"Ġtaxes":13442,"Ġcherry":13443,"Ġroutine":13444,"Ġpenetrate":13445,"Ġcontemplated":13446,"Ġcrawling":13447,"Ġmissionary":13448,"Ġdazed":13449,"aurice":13450,"Ġalternative":13451,"Death":13452,"Ġrobbery":13453,"Ġdiminished":13454,"ĠMexico":13455,"Ġadjusted":13456,"Ġsulph":13457,"Ġsummons":13458,"Ġscrutiny":13459,"Ġarchitecture":13460,"ĠFelix":13461,"Ġcoincidence":13462,"Towards":13463,"ĠTalbot":13464,"Ġexcursion":13465,"Objection":13466,"ĠMazarin":13467,"Second":13468,"ĠHoopdriver":13469,"Ġprairie":13470,"Ġdecisive":13471,"ĠChipm":13472,"Ġnostrils":13473,"Ġrestaurant":13474,"ĠLennox":13475,"OHN":13476,"Ġanecd":13477,"ĠHudson":13478,";'":13479,"Few":13480,"OP":13481,"TON":13482,"cils":13483,"dale":13484,"jah":13485,"mons":13486,"nowing":13487,"vable":13488,"Ġtank":13489,"Ġtacit":13490,"Ġore":13491,"ouri":13492,"Ġbi":13493,"Ġmuddy":13494,"Ġcod":13495,"onian":13496,"Ġpest":13497,"anter":13498,"Ġhack":13499,"Ġeve":13500,"Ġeth":13501,"Ġrely":13502,"Ġford":13503,"Ġforcing":13504,"Ġstem":13505,"Ġstunned":13506,"Ġwears":13507,"Ġram":13508,"Ġraging":13509,"Ġanew":13510,"Ġmeets":13511,"Ġfry":13512,"Ġsock":13513,"Ġkitten":13514,"Ġallusion":13515,"ĠMow":13516,"anti":13517,"Ġvirgin":13518,"indle":13519,"Ġlivel":13520,"oso":13521,"istr":13522,"istant":13523,"unci":13524,"ĠPast":13525,"Ġcanoes":13526,"aux":13527,"ĠGhost":13528,"ĠLO":13529,"ĠLike":13530,"ĠTilney":13531,"ĠHunt":13532,"ĠHugh":13533,"Ġsham":13534,"ĠEX":13535,"ĠWing":13536,"ĠWhether":13537,"Ġhandwriting":13538,"Ġblunt":13539,"ĠRub":13540,"Ġflank":13541,"ĠJeh":13542,"iousness":13543,"Ġstrang":13544,"Ġsmothered":13545,"ollen":13546,"berg":13547,"arka":13548,"aterial":13549,"athy":13550,"Ġlasting":13551,"owering":13552,"Ġsecurely":13553,"Ġsworn":13554,"Ġreplace":13555,"Ġhardened":13556,"Ġcharges":13557,"Ġsilken":13558,"ĠChopin":13559,"Ġwarmed":13560,"Ġconfidently":13561,"Ġassuming":13562,"Ġminers":13563,"aze":13564,"Ġbusily":13565,"Ġforef":13566,"Ġvisions":13567,"Ġfearfully":13568,"Ġexcused":13569,"Ġexcuses":13570,"ĠThou":13571,"uffy":13572,"Ġbarred":13573,"onym":13574,"bral":13575,"Ġhush":13576,"Ġparticip":13577,"Ġprofits":13578,"Ġshady":13579,"Ġengines":13580,"Ġtraffic":13581,"Ġtraversed":13582,"umberland":13583,"Ġsuccessive":13584,"Ġcrev":13585,"iterranean":13586,"Ġundo":13587,"ĠBecky":13588,"Ġrepeatedly":13589,"ursed":13590,"Ġoneself":13591,"Ġrepresents":13592,"Ġpeculiarity":13593,"Ġcontrovers":13594,"Ġthreaten":13595,"ocrates":13596,"Ġattendance":13597,"Ġmelod":13598,"Ġpackage":13599,"Ġsouthward":13600,"Ġdiscoveries":13601,"Ġinstincts":13602,"Ġbanners":13603,"Ġsmoothly":13604,"Ġrenders":13605,"Ġlitter":13606,"Ġrestrained":13607,"ĠPennsylvania":13608,"Ġodor":13609,"Ġvegetation":13610,"ĠChauvelin":13611,"Ġpersistent":13612,"Ġfunds":13613,"Adam":13614,"Ġreluctant":13615,"ĠSydney":13616,"ĠMediterranean":13617,"Ġmournfully":13618,"Ġscrup":13619,"Ġinspection":13620,"Ġdispleasure":13621,"ĠJanuary":13622,"Ġreceipt":13623,"Ġblossoms":13624,"Robin":13625,"ĠChamber":13626,"Ġrefreshed":13627,"Ġcomprehension":13628,"ĠLangmore":13629,"Ġsemi":13630,"ĠAlmighty":13631,"Hardly":13632,"Ġtechnical":13633,"ĠKenneth":13634,"ĠNathaniel":13635,"Ġyacht":13636,"Ġtremulous":13637,"ĠDefarge":13638,"Ġasylum":13639,"Bert":13640,"Joe":13641,"Kate":13642,"Major":13643,"MENT":13644,"Nature":13645,"Possibly":13646,"Richard":13647,"TY":13648,"Taking":13649,"Wr":13650,"fen":13651,"folk":13652,"lig":13653,"Ġtires":13654,"heum":13655,"inch":13656,"eron":13657,"Ġbiting":13658,"Ġfoes":13659,"Ġcot":13660,"inges":13661,"Ġpion":13662,"ller":13663,"Ġhaze":13664,"Ġgum":13665,"Ġbeads":13666,"uther":13667,"lymp":13668,"Ġstew":13669,"acies":13670,"choes":13671,"Ġshivering":13672,"ĠMord":13673,"ĠMitc":13674,"ĠMaud":13675,"antime":13676,"nty":13677,"ĠCome":13678,"Ġvow":13679,"Ġvices":13680,"Ġintrig":13681,"Ġnod":13682,"ĠAlt":13683,"Ġabide":13684,"ĠBad":13685,"ĠBeverly":13686,"Ġque":13687,"Ġquiver":13688,"Ġquoted":13689,"cker":13690,"Ġbrist":13691,"Ġarises":13692,"ĠTess":13693,"!\"--":13694,"ĠDa":13695,"ĠHope":13696,"Ġgrumbled":13697,"Ġgrotes":13698,"ĠElf":13699,"ĠWILL":13700,"Ġhandy":13701,"ĠRaff":13702,"abriel":13703,"Ġadored":13704,"udoff":13705,"ĠJoyce":13706,"Ġlookout":13707,"fts":13708,"cling":13709,"cloth":13710,"ĠVes":13711,"ĠStanley":13712,"Ġconfided":13713,"Ġminer":13714,"ocolate":13715,"ĠAndrea":13716,"harton":13717,"Ġsnap":13718,"ĠUp":13719,"ĠBrid":13720,"ĠBrad":13721,"Ġprior":13722,"Ġsprinkle":13723,"Ġcirculation":13724,"Ġirony":13725,"ekhl":13726,"Ġdemocratic":13727,"Ġsubjected":13728,"Ġdevoured":13729,"Ġparrot":13730,"ĠBloom":13731,"Ġangles":13732,"ĠClark":13733,"onesome":13734,"Ġtopic":13735,"ĠDeer":13736,"IND":13737,"Ġforthwith":13738,"Ġseventeenth":13739,"rsus":13740,"Ġnecklace":13741,"ologist":13742,"Ġlocated":13743,"Ġlocality":13744,"ĠBeat":13745,"Ġdenial":13746,"Ġattacking":13747,"Ġgratified":13748,"Ġgradual":13749,"Ġdisturbing":13750,"ĠCountry":13751,"minster":13752,"OUS":13753,"Ġplantation":13754,"Ġterrors":13755,"Ġdamsel":13756,"Ġexecute":13757,"Unless":13758,"Ġcorrectly":13759,"Ġemotional":13760,"Ġdawned":13761,"ĠMountains":13762,"ĠCommons":13763,"Ġnursing":13764,"Ġcontempor":13765,"Ġunbroken":13766,"Ġelectricity":13767,"Ġinexpress":13768,"Seven":13769,"Ġselfishness":13770,"Ġgrinning":13771,"Ġswelled":13772,"Ġdoctrines":13773,"Ġwhirling":13774,"Ġmockery":13775,"Ġhazel":13776,"Edward":13777,"Ġdecorated":13778,"Ġenquired":13779,"Ġrattling":13780,"Ġchampion":13781,"ĠKlaus":13782,"ĠConniston":13783,"Ġrelaxed":13784,"Ġexaggerated":13785,"ĠSumter":13786,"Ġivory":13787,"ĠPersian":13788,"Ġhauled":13789,"Ġthrobbing":13790,"Ġecstasy":13791,"Ġblacksmith":13792,"ĠMerrick":13793,"Ġinconsist":13794,"Ġreappeared":13795,"Ġcorporal":13796,"Ġoverlooked":13797,"ĠHannah":13798,"Ġvizier":13799,"Ġexpenditure":13800,"Ġsturdy":13801,"ĠSpencer":13802,"Ġinsignificant":13803,"Ġenvironment":13804,"ekhludoff":13805,"AU":13806,"BY":13807,"FOR":13808,"Off":13809,"Pass":13810,"Wonder":13811,"aved":13812,"ca":13813,"epend":13814,"ihil":13815,"lon":13816,"lorn":13817,"nity":13818,"oors":13819,"ta":13820,"Ġtutor":13821,"Ġsite":13822,"Ġmature":13823,"Ġcemetery":13824,"oric":13825,"orters":13826,"Ġpitcher":13827,"aters":13828,"oma":13829,"Ġeb":13830,"icane":13831,"ima":13832,"Ġrecip":13833,"Ġwhims":13834,"Ġstump":13835,"Ġstature":13836,"Ġraid":13837,"Ġrains":13838,"Ġraced":13839,"Ġseasons":13840,"omey":13841,"thne":13842,"estone":13843,"ĠSid":13844,"ĠSocrates":13845,"ĠMead":13846,"ĠMagn":13847,"ĠCere":13848,"ĠCuthbert":13849,"ourge":13850,"Ġvile":13851,"Ġlib":13852,"ĠAh":13853,"ĠBroad":13854,"unches":13855,"uma":13856,"Ġplung":13857,"Ġprogram":13858,"ĠGret":13859,"ĠGertrude":13860,"Ġbroth":13861,"odox":13862,"Ġunhe":13863,"Ġunce":13864,"Ġunaw":13865,"Ġunanim":13866,"ĠLay":13867,"ĠLee":13868,"ector":13869,"Ġamate":13870,"Ġclasping":13871,"Ġdisl":13872,"ĠWol":13873,"Ġpartition":13874,"ĠNOT":13875,"into":13876,"Ġattire":13877,"Ġenters":13878,"Ġfarms":13879,"Ġemig":13880,"avy":13881,"Ġloveliest":13882,"iazz":13883,"forced":13884,"Ġrelating":13885,"Ġconference":13886,"Ġcheered":13887,"ERS":13888,"upiter":13889,"oots":13890,"insic":13891,"Ġcontinuous":13892,"Ġrealise":13893,"Ġinfirm":13894,"Ġdecay":13895,"being":13896,"Ġsinger":13897,"ernation":13898,"ĠYor":13899,"ĠYale":13900,"Ġconsternation":13901,"Ġproperties":13902,"Ġparcel":13903,"Ġrespective":13904,"Ġdeclaring":13905,"ĠBluff":13906,"Ġviewed":13907,"ĠGramm":13908,"erville":13909,"Ġdivorce":13910,"Ġdrinks":13911,"ĠComrade":13912,"ĠElm":13913,"Ġhymn":13914,"ĠLeg":13915,"ynch":13916,"Ġwondrous":13917,"ministration":13918,"Ġheights":13919,"Ġexcitedly":13920,"Ġdebate":13921,"Ġowes":13922,"Ġconstitutes":13923,"Unfortunately":13924,"Chris":13925,"Ġappealing":13926,"Ġpopularity":13927,"Ġshelves":13928,"Ġshocking":13929,"Ġepoch":13930,"Ġerrors":13931,"Ġreduce":13932,"Ġflags":13933,"Ġmanifested":13934,"Ġnoblest":13935,"Ġovertake":13936,"Ġodour":13937,"ĠMidwinter":13938,"Ġsneered":13939,"Ġflutter":13940,"Ġuncertainty":13941,"Ġmagistrates":13942,"Ġspeculation":13943,"Ġinevitably":13944,"Ġfrowning":13945,"Ġscholar":13946,"Ġinherited":13947,"Ġimpulses":13948,"Ġivy":13949,"Ġastronom":13950,"Ġchemical":13951,"ĠDivine":13952,"Ġphase":13953,"Ġmathematics":13954,"ĠBrenda":13955,"Ġverdict":13956,"Ġantiquity":13957,"Ġambassador":13958,"ĠAustralia":13959,"Ġceremonies":13960,"Ġprovinces":13961,"Ġlegend":13962,"Katy":13963,"Ġuproar":13964,"Ġreconciled":13965,"Ġexploded":13966,"OHNSON":13967,"ĠMitchell":13968,"Kitty":13969,"Law":13970,"Pardon":13971,"RY":13972,"Rather":13973,"Send":13974,"Until":13975,"ahad":13976,"bal":13977,"cery":13978,
[...]
